{
  "version": "1.0",
  "truncation": null,
  "padding": null,
  "added_tokens": [
    {
      "id": 0,
      "content": "<unk>",
      "single_word": false,
      "lstrip": false,
      "rstrip": false,
      "normalized": false,
      "special": true
    }
  ],
  "normalizer": null,
  "pre_tokenizer": {
    "type": "ByteLevel",
    "add_prefix_space": true,
    "trim_offsets": true,
    "use_regex": true
  },
  "post_processor": {
    "type": "ByteLevel",
    "add_prefix_space": true,
    "trim_offsets": true,
    "use_regex": true
  },
  "decoder": null,
  "model": {
    "type": "BPE",
    "dropout": null,
    "unk_token": "<unk>",
    "continuing_subword_prefix": null,
    "end_of_word_suffix": null,
    "fuse_unk": false,
    "byte_fallback": false,
    "ignore_merges": false,
    "vocab": {
      "<unk>": 0,
      "!": 1,
      "\"": 2,
      "#": 3,
      "$": 4,
      "%": 5,
      "&": 6,
      "'": 7,
      "(": 8,
      ")": 9,
      "*": 10,
      "+": 11,
      ",": 12,
      "-": 13,
      ".": 14,
      "/": 15,
      "0": 16,
      "1": 17,
      "2": 18,
      "3": 19,
      "4": 20,
      "5": 21,
      "6": 22,
      "7": 23,
      "8": 24,
      "9": 25,
      ":": 26,
      ";": 27,
      "<": 28,
      "=": 29,
      ">": 30,
      "?": 31,
      "@": 32,
      "A": 33,
      "B": 34,
      "C": 35,
      "D": 36,
      "E": 37,
      "F": 38,
      "G": 39,
      "H": 40,
      "I": 41,
      "J": 42,
      "K": 43,
      "L": 44,
      "M": 45,
      "N": 46,
      "O": 47,
      "P": 48,
      "Q": 49,
      "R": 50,
      "S": 51,
      "T": 52,
      "U": 53,
      "V": 54,
      "W": 55,
      "X": 56,
      "Y": 57,
      "Z": 58,
      "[": 59,
      "\\": 60,
      "]": 61,
      "^": 62,
      "_": 63,
      "`": 64,
      "a": 65,
      "b": 66,
      "c": 67,
      "d": 68,
      "e": 69,
      "f": 70,
      "g": 71,
      "h": 72,
      "i": 73,
      "j": 74,
      "k": 75,
      "l": 76,
      "m": 77,
      "n": 78,
      "o": 79,
      "p": 80,
      "q": 81,
      "r": 82,
      "s": 83,
      "t": 84,
      "u": 85,
      "v": 86,
      "w": 87,
      "x": 88,
      "y": 89,
      "z": 90,
      "{": 91,
      "|": 92,
      "}": 93,
      "~": 94,
      "¡": 95,
      "¢": 96,
      "£": 97,
      "¤": 98,
      "¥": 99,
      "¦": 100,
      "§": 101,
      "¨": 102,
      "©": 103,
      "ª": 104,
      "«": 105,
      "¬": 106,
      "®": 107,
      "¯": 108,
      "°": 109,
      "±": 110,
      "²": 111,
      "³": 112,
      "´": 113,
      "µ": 114,
      "¶": 115,
      "·": 116,
      "¸": 117,
      "¹": 118,
      "º": 119,
      "»": 120,
      "¼": 121,
      "½": 122,
      "¾": 123,
      "¿": 124,
      "À": 125,
      "Á": 126,
      "Â": 127,
      "Ã": 128,
      "Ä": 129,
      "Å": 130,
      "Æ": 131,
      "Ç": 132,
      "È": 133,
      "É": 134,
      "Ê": 135,
      "Ë": 136,
      "Ì": 137,
      "Í": 138,
      "Î": 139,
      "Ï": 140,
      "Ð": 141,
      "Ñ": 142,
      "Ò": 143,
      "Ó": 144,
      "Ô": 145,
      "Õ": 146,
      "Ö": 147,
      "×": 148,
      "Ø": 149,
      "Ù": 150,
      "Ú": 151,
      "Û": 152,
      "Ü": 153,
      "Ý": 154,
      "Þ": 155,
      "ß": 156,
      "à": 157,
      "á": 158,
      "â": 159,
      "ã": 160,
      "ä": 161,
      "å": 162,
      "æ": 163,
      "ç": 164,
      "è": 165,
      "é": 166,
      "ê": 167,
      "ë": 168,
      "ì": 169,
      "í": 170,
      "î": 171,
      "ï": 172,
      "ð": 173,
      "ñ": 174,
      "ò": 175,
      "ó": 176,
      "ô": 177,
      "õ": 178,
      "ö": 179,
      "÷": 180,
      "ø": 181,
      "ù": 182,
      "ú": 183,
      "û": 184,
      "ü": 185,
      "ý": 186,
      "þ": 187,
      "ÿ": 188,
      "Ā": 189,
      "ā": 190,
      "Ă": 191,
      "ă": 192,
      "Ą": 193,
      "ą": 194,
      "Ć": 195,
      "ć": 196,
      "Ĉ": 197,
      "ĉ": 198,
      "Ċ": 199,
      "ċ": 200,
      "Č": 201,
      "č": 202,
      "Ď": 203,
      "ď": 204,
      "Đ": 205,
      "đ": 206,
      "Ē": 207,
      "ē": 208,
      "Ĕ": 209,
      "ĕ": 210,
      "Ė": 211,
      "ė": 212,
      "Ę": 213,
      "ę": 214,
      "Ě": 215,
      "ě": 216,
      "Ĝ": 217,
      "ĝ": 218,
      "Ğ": 219,
      "ğ": 220,
      "Ġ": 221,
      "ġ": 222,
      "Ģ": 223,
      "ģ": 224,
      "Ĥ": 225,
      "ĥ": 226,
      "Ħ": 227,
      "ħ": 228,
      "Ĩ": 229,
      "ĩ": 230,
      "Ī": 231,
      "ī": 232,
      "Ĭ": 233,
      "ĭ": 234,
      "Į": 235,
      "į": 236,
      "İ": 237,
      "ı": 238,
      "Ĳ": 239,
      "ĳ": 240,
      "Ĵ": 241,
      "ĵ": 242,
      "Ķ": 243,
      "ķ": 244,
      "ĸ": 245,
      "Ĺ": 246,
      "ĺ": 247,
      "Ļ": 248,
      "ļ": 249,
      "Ľ": 250,
      "ľ": 251,
      "Ŀ": 252,
      "ŀ": 253,
      "Ł": 254,
      "ł": 255,
      "Ń": 256,
      "Ð¾": 257,
      "Ð°": 258,
      "ĠÐ": 259,
      "Ðµ": 260,
      "ÑĤ": 261,
      "Ð¸": 262,
      "ÑĢ": 263,
      "Ð¾Ð": 264,
      "Ñģ": 265,
      "Ð½": 266,
      "Ð°Ð": 267,
      "Ð»": 268,
      "Ñĥ": 269,
      "Ñĭ": 270,
      "ÑĮ": 271,
      "Ñı": 272,
      "ÐµÐ": 273,
      "Ñĩ": 274,
      "Ð¸Ð": 275,
      "ĠÐ¿": 276,
      "ĠÐ½": 277,
      "ÑģÑĤ": 278,
      "ÐĶ": 279,
      "ĠÐ²": 280,
      "ÑĪ": 281,
      "Ð´": 282,
      "ĠÑģ": 283,
      "ÐµÑĤ": 284,
      "ÐµÐ½": 285,
      "Ð°Ðº": 286,
      "Ðº": 287,
      "Ðļ": 288,
      "ÐĶÐ°": 289,
      "Ð¢": 290,
      "Ð½Ð¾": 291,
      "ĠÐ´": 292,
      "ÑĤÐ¾": 293,
      "ÑĢÐ¾": 294,
      "Ð¾Ð²": 295,
      "Ñİ": 296,
      "Ð¼": 297,
      "ĠÐº": 298,
      "ÐµÐ»": 299,
      "ÐµÑĢ": 300,
      "ĠÑĤ": 301,
      "ÐŁ": 302,
      "ĠÐ¸": 303,
      "ĠÐ±": 304,
      "ÑĤÑĮ": 305,
      "ÐĲ": 306,
      "Ð¾Ð³": 307,
      "Ð¢Ñĭ": 308,
      "Ð¾ÑĤ": 309,
      "Ð¸Ð²": 310,
      "Ð°Ð»": 311,
      "Ñħ": 312,
      "Ð¾Ð»": 313,
      "Ð²": 314,
      "ÐļÐ°Ðº": 315,
      "Ð¿": 316,
      "ÐĿ": 317,
      "Ðŀ": 318,
      "Ð¹": 319,
      "ÑĢÐ°Ð": 320,
      "Ð¾Ð¼": 321,
      "Ð¾ÑĢ": 322,
      "Ð°Ñģ": 323,
      "Ð¡": 324,
      "ĠÐ¼": 325,
      "ÑĪÑĮ": 326,
      "ÐµÐ¼": 327,
      "Ð¸Ð»": 328,
      "ĠÐ·": 329,
      "Ð½Ñĭ": 330,
      "ĠÑĥ": 331,
      "ÑĢÐ¸Ð²": 332,
      "Ñĳ": 333,
      "Ð¾Ð´": 334,
      "Ð±": 335,
      "Ð§": 336,
      "Ð¾Ð½": 337,
      "Ð°Ð½": 338,
      "Ð¾Ð¶": 339,
      "Ð¸ÑĤ": 340,
      "Ð¾Ð±": 341,
      "ÑĢÐ¸Ð²ÐµÑĤ": 342,
      "Ð°Ð²": 343,
      "ÑĦ": 344,
      "ÐŁÑĢÐ¸Ð²ÐµÑĤ": 345,
      "ĠÑĩ": 346,
      "ĠÑı": 347,
      "ĠÐ½Ð°": 348,
      "Ð°ÑĢ": 349,
      "ĠÐ¿ÑĢÐ¾": 350,
      "Ð·": 351,
      "Ð¶": 352,
      "Ð°Ð¼": 353,
      "ÑģÑı": 354,
      "Ð§ÑĤÐ¾": 355,
      "Ð³": 356,
      "ÐµÑĪÑĮ": 357,
      "ÑĢÐ°": 358,
      "Ð»Ð¸": 359,
      "ÐµÑĩ": 360,
      "Ð¾Ð¹": 361,
      "ĠÐ»": 362,
      "ÐµÐ½ÑĮ": 363,
      "ÑĨ": 364,
      "Ð½Ð°": 365,
      "ĠÑĢÐ°Ð": 366,
      "Ð»Ñı": 367,
      "Ð¸ÑĤÑĮ": 368,
      "Ð°Ð¹": 369,
      "ÑĭÐ¹": 370,
      "ÐµÐ´": 371,
      "ÐµÑģ": 372,
      "Ð¸Ðº": 373,
      "Ð¸Ðµ": 374,
      "Ð°ÑĤÑĮ": 375,
      "ĠÐ¿ÑĢ": 376,
      "Ð°ÑĤ": 377,
      "Ð¾ÑĢÐ¾": 378,
      "Ð¥": 379,
      "Ð´Ð°": 380,
      "ĠÐ±Ñĭ": 381,
      "ÐµÐ³": 382,
      "Ñī": 383,
      "Ðĺ": 384,
      "Ð¾ÑĢÐ¾ÑĪ": 385,
      "ĠÐµ": 386,
      "ĠÐ¿Ð¾": 387,
      "Ð¾Ðº": 388,
      "Ð°Ñİ": 389,
      "ÑĢÑĥ": 390,
      "ĠÐ³": 391,
      "ÐµÐ¹": 392,
      "Ð¸Ñı": 393,
      "Ð»Ð°Ñģ": 394,
      "ĠÐ½Ð¾Ð²": 395,
      "ÐĹ": 396,
      "ĠÐ½Ð¾": 397,
      "Ð¸Ð¼": 398,
      "Ð¸Ð½": 399,
      "ÑĩÐµÐ½ÑĮ": 400,
      "±Ð¾ÑĤ": 401,
      "Ð¾Ð³Ð¾": 402,
      "Ð½ÑĭÐ¹": 403,
      "ĠÑħ": 404,
      "ÐµÑģÑĤ": 405,
      "ÐĴ": 406,
      "ÐµÐ±": 407,
      "Ð°ÐµÑĤ": 408,
      "Ð¯": 409,
      "ĠÑĢÐ°Ð±Ð¾ÑĤ": 410,
      "ÐŀÑĩÐµÐ½ÑĮ": 411,
      "ÐºÐ°": 412,
      "ÑĮÐ½Ð¾": 413,
      "ĠÑģÑĤ": 414,
      "Ð¸Ð´": 415,
      "ÑģÑĤÐ²": 416,
      "ĠÑĢ": 417,
      "Ð¸Ð¹": 418,
      "ÐĿÐµÑĤ": 419,
      "ĠÐ´ÐµÐ»": 420,
      "ĠÐ±Ð¾Ð»": 421,
      "Ð°ÐµÑĪÑĮ": 422,
      "Ð¾Ð¿": 423,
      "Ð°Ð´": 424,
      "ÐµÐ·": 425,
      "ÑĢÐ°Ð²": 426,
      "Ð½ÑĭÐµ": 427,
      "ĠÐºÐ°Ðº": 428,
      "ÑĥÐ¿": 429,
      "Ð¾Ð¶Ðµ": 430,
      "ÑĥÐ´": 431,
      "ÐµÐº": 432,
      "ĠP": 433,
      "ÑģÑĤÑĮ": 434,
      "Ðľ": 435,
      "Ð°Ð¶": 436,
      "ĠÑĩÑĤÐ¾": 437,
      "Ð°Ñı": 438,
      "Ð¸Ñģ": 439,
      "ÐµÐ½Ð¸Ðµ": 440,
      "Ð¥Ð¾ÑĢÐ¾ÑĪ": 441,
      "Ð»Ñİ": 442,
      "ÐºÐ¾": 443,
      "Ð¾Ñĩ": 444,
      "ĠÐ±ÑĭÐ»": 445,
      "ÑĥÐ¼": 446,
      "ĠÑģÐ»": 447,
      "Ð¾Ð³Ð´Ð°": 448,
      "Ð°Ð·": 449,
      "Ð¸ÑĪÑĮ": 450,
      "ÑĥÐ¶": 451,
      "ĠÐ²Ñĭ": 452,
      "on": 453,
      "Ð£": 454,
      "Ð¾ÑĤÑĢ": 455,
      ":)": 456,
      "Ġ:)": 457,
      "ÑĥÑĤ": 458,
      "ĠÐ¾ÑĤ": 459,
      "Ð¾ÑĢÐ¼": 460,
      "Ð»Ð°ÑģÑģ": 461,
      "Ð°Ð¿": 462,
      "Ð¼Ð¾ÑĤÑĢ": 463,
      "ĠÑĤÐ°Ðº": 464,
      "ÑĤÐµÑĢ": 465,
      "ÑĥÑĩ": 466,
      "Ð¾ÑģÑĤ": 467,
      "Ð¸ÐºÐ°": 468,
      "ĠÐ¾Ð±": 469,
      "ÑĥÑģ": 470,
      "Ð¸Ð·": 471,
      "ĠÐ½Ðµ": 472,
      "ĠÐ½Ð¾Ð²ÑĭÐ¹": 473,
      "ÐµÐµ": 474,
      "Ðĳ": 475,
      "ĠÑģÐ¿": 476,
      "ĠÐ¶": 477,
      "Ð¸ÑģÑĤ": 478,
      "ÑİÐ±": 479,
      "Ð¾Ð»ÑĮ": 480,
      "Ð¾Ñģ": 481,
      "ĠÑĤÐµÐ±": 482,
      "Ð½Ð¾Ðµ": 483,
      "ĠÑĦ": 484,
      "Ð¾Ðµ": 485,
      "ÐµÑģÑģ": 486,
      "ĠÐ²Ð¸Ð´": 487,
      "ÑĤÐ¸": 488,
      "Ñį": 489,
      "Ð½ÑĤÐµÑĢ": 490,
      "Ð°Ð±": 491,
      "ĠÐ´Ð»Ñı": 492,
      "Ð¾Ð¶Ð½Ð¾": 493,
      "ÑĢÐµÐ½": 494,
      "Ð¾Ð³Ð»Ð°Ñģ": 495,
      "ĠÐ²Ð¸Ð´ÐµÐ»": 496,
      "Ðł": 497,
      "ÐºÐ¸": 498,
      "Ð¾Ð³Ð»Ð°ÑģÐµÐ½": 499,
      "in": 500,
      "ÐļÐµÐ¼": 501,
      "Ð¢Ð¾Ð¶Ðµ": 502,
      "ĠÐ²Ñģ": 503,
      "ĠÑģÐ²": 504,
      "ÑĥÑİ": 505,
      "Ð½Ð°Ñı": 506,
      "ÑĢÐ°Ñģ": 507,
      "ĠÐ¿ÑĢÐ¾ÑĦ": 508,
      "Ð¡Ð¾Ð³Ð»Ð°ÑģÐµÐ½": 509,
      "ĠÑħÐ¾ÑĢÐ¾ÑĪ": 510,
      "Ð°Ð²ÑĤ": 511,
      "âĢ": 512,
      "ĠÑį": 513,
      "ÐŀÐ±": 514,
      "Ð°Ð»ÑĮÐ½Ð¾": 515,
      "ĠÑĤÐ°ÐºÐ¾Ðµ": 516,
      "Ð¸Ð±": 517,
      "ĠÐ´ÑĥÐ¼": 518,
      "ĠÐ»ÑİÐ±": 519,
      "ÐĽ": 520,
      "ÑĩÐ½Ð¾": 521,
      "ĠÐ·Ð½Ð°": 522,
      "ĠÐ¿ÑĢÐ¾ÑĦÐµÑģÑģ": 523,
      "ĠÑĨ": 524,
      "ÐĶÐ»Ñı": 525,
      "ĠÐ²ÐµÑĩ": 526,
      "ĠÑģÐ¼Ð¾ÑĤÑĢ": 527,
      "hon": 528,
      "ĠâĢ": 529,
      "Ð¾Ð·": 530,
      "ÐµÐ»ÑĮ": 531,
      "ÑĢÐ°ÑģÐ¸Ð²": 532,
      "ĠâĢĶ": 533,
      "ÑĢÐ¾Ð²": 534,
      "ÑĭÑĪ": 535,
      "ĠÑĥÑĩ": 536,
      "ĠÐ¸Ð´": 537,
      "Ð°Ð²Ð°Ð¹": 538,
      "ÑĪÐµ": 539,
      "ÑĢÐ¾Ñģ": 540,
      "ÐĿÐ°": 541,
      "ÐµÐ²": 542,
      "ÐµÐ¿": 543,
      "ÐŀÑĤ": 544,
      "ĠÐ·Ð°": 545,
      "ĠÐ±Ð¾Ð»ÐµÐ»": 546,
      "ÑĥÐ¹": 547,
      "ÑıÑĤ": 548,
      "ĠÐ´ÐµÐ»Ð°": 549,
      "Ð¥Ð¾ÑĢÐ¾ÑĪÐ¾": 550,
      "Ð½ÑĤÐµÑĢÐµÑģ": 551,
      "ÑģÑĤÑĢÐ¾": 552,
      "Ð¸Ð»ÑĮ": 553,
      "Ð¸ÑĪ": 554,
      "Ð½Ð¾Ð³Ð¾": 555,
      "ÑĭÐµ": 556,
      "ÑģÑĤÑĢ": 557,
      "ĠÑĢÐ°Ð·": 558,
      "ÑĢÐµÐ½Ð´": 559,
      "ĠÐ·Ð½Ð°ÐµÑĪÑĮ": 560,
      "ĠÐ¾": 561,
      "ĠÐ¸Ð·": 562,
      "ĠÐ±ÑĢÐµÐ½Ð´": 563,
      "ĠÐ¿ÑĢÐ¸Ð²": 564,
      "ÐĹÐ´": 565,
      "thon": 566,
      "ython": 567,
      "ĠPython": 568,
      "Ð¾ÑĩÑĥ": 569,
      "ÑĭÑħ": 570,
      "ÐļÐ»Ð°ÑģÑģ": 571,
      "ĠÐ¸Ð»Ð¸": 572,
      "Ð¸ÑĤÑĮÑģÑı": 573,
      "Ð¸Ð¸": 574,
      "Ðĵ": 575,
      "ĠÐ²ÐµÑĩÐµÑĢ": 576,
      "ÑĢÐµÐ¼": 577,
      "ĠÐµÑģÑĤÑĮ": 578,
      "ÑĥÑĤÐ±": 579,
      "ÑĥÐ»Ñı": 580,
      "Ð¸Ð³": 581,
      "ÐĿÑĥ": 582,
      "Ð°Ð¼Ð¸": 583,
      "ÐµÐ³Ð¾": 584,
      "ÑĭÑĩ": 585,
      "ĠÐ½ÑĥÐ¶": 586,
      "ĠÑģÐ»ÑĭÑĪ": 587,
      "ĠÐ¿Ð¾Ð´": 588,
      "ĠS": 589,
      "ĠÑĤÐµÐ±Ðµ": 590,
      "ĠÑĨÐµÐ½": 591,
      "ÑģÐº": 592,
      "Ð»Ð¾": 593,
      "ĠÐ´ÑĢÑĥ": 594,
      "ĠÑģÐ»ÑĭÑĪÐ°Ð»": 595,
      "Ð¾Ð¿ÑĢ": 596,
      "Ð¾Ð»ÑĮÐºÐ¾": 597,
      "ĠÐ¿ÑĢÐ¸Ð²ÑĭÑĩ": 598,
      "Ð½Ð°Ðº": 599,
      "ĠÐ³Ð¾ÑĢ": 600,
      "ÐºÑĥ": 601,
      "ÐŁÑĢ": 602,
      "ĠÐºÐ¾Ð½": 603,
      "ĠÐ·Ð°Ð²ÑĤ": 604,
      "ĠÐ½Ð°ÑģÑĤÑĢÐ¾": 605,
      "Ð½Ð°ÐºÐ¾Ð¼": 606,
      "Ðĸ": 607,
      "ĠA": 608,
      "ÑģÐ»Ð¸": 609,
      "Ð½Ñı": 610,
      "ĠÐ¿Ð¾Ð»": 611,
      "ĠÐ¿Ð¾Ðº": 612,
      "ÐĶÐ¾Ð±": 613,
      "ÐĹÐ°": 614,
      "ÑģÑĤÐ²ÑĥÐ¹": 615,
      "ÑĢÐ°Ð²ÑģÑĤÐ²ÑĥÐ¹": 616,
      "ÐĹÐ´ÑĢÐ°Ð²ÑģÑĤÐ²ÑĥÐ¹": 617,
      "Ð°Ð¹ÑĤÐ¸": 618,
      "ĠÐŁ": 619,
      "ĠÐ¸Ð³": 620,
      "Ð¡Ð»": 621,
      "ÐµÑĩÐ½Ð¾": 622,
      "ÐµÐ´ÐµÐ»": 623,
      "ĠÐ½Ð°ÑģÑĤÑĢÐ¾ÐµÐ½Ð¸Ðµ": 624,
      "ĠÑĤÐ°Ð¼": 625,
      "ĠÐ±ÑĥÐ´": 626,
      "ÑħÐ¾Ð´": 627,
      "ĠT": 628,
      "ÑĭÐ²": 629,
      "Ð¾ÑĢÐ¼Ð°Ð»ÑĮÐ½Ð¾": 630,
      "ĠÐ´ÑĥÐ¼Ð°ÐµÑĪÑĮ": 631,
      "ĠÐĶ": 632,
      "ÐµÑħ": 633,
      "ĠÐ½Ð°Ð¹ÑĤÐ¸": 634,
      "ĠÑģÐº": 635,
      "ÐµÑĢÐ°": 636,
      "Ð°Ð»ÑĮ": 637,
      "ÐļÐ°ÐºÐ°Ñı": 638,
      "ÐŀÑĤÐ»Ð¸": 639,
      "ĠÐ·Ð°Ð²ÑĤÑĢÐ°": 640,
      "Ð¸ÑĨ": 641,
      "ÑĳÑĤ": 642,
      "ÑĳÐ¼": 643,
      "ÑĤÑĢ": 644,
      "Ð¸ÑĢÐ¾Ð²": 645,
      "ĠÑģÐ°Ð¼": 646,
      "ĠÐºÑĥÐ¿": 647,
      "Ð°ÑģÐ¸Ð±": 648,
      "ĠÐ¿ÑĢÐ¾ÑĦÐµÑģÑģÐ¸Ñı": 649,
      "Ð°ÑģÐ¸Ð±Ð¾": 650,
      "Ð°ÑģÑĤ": 651,
      "ÑĥÐ»": 652,
      "Ð¾Ð²ÑĢÐµÐ¼": 653,
      "Ð¾Ð»Ð¾Ð³": 654,
      "Ð°Ð³": 655,
      "ÐĿÐ¾": 656,
      "ÑĢÐ°Ñĩ": 657,
      "ĠÐµÑģÐ»Ð¸": 658,
      "ĠÑĢÐ°Ð±Ð¾ÑĤÐ°ÐµÑĤ": 659,
      "Ð°Ð¶Ð´": 660,
      "ÑģÐ¿": 661,
      "ÐµÐ½Ð¸Ñı": 662,
      "ĠÑĤÐ¾Ð¶Ðµ": 663,
      "Ð°Ð½ÑĤ": 664,
      "ĠÐ»ÐµÑĩ": 665,
      "ĠÐ¿Ð»": 666,
      "ĠÐ²ÑĢÐ°Ñĩ": 667,
      "Ð¢Ð¾Ð³Ð´Ð°": 668,
      "Ð¾Ð²Ð¾ÑĢ": 669,
      "ĠÑĤÑĭ": 670,
      "Ð¡Ð¿": 671,
      "Ð³Ð¾": 672,
      "ÑĥÑĪ": 673,
      "ĠÐ½Ð°Ð´": 674,
      "ÐļÑĢÐ°ÑģÐ¸Ð²": 675,
      "ĠÐºÐ»Ð°ÑģÑģ": 676,
      "Ð¾ÑģÑĤÐ¸": 677,
      "ĠÐ¾Ð±Ñģ": 678,
      "ÑĢÐ°Ð»": 679,
      "ÐµÐ»Ð¾": 680,
      "ÐµÑĢÑĮ": 681,
      "ÐŀÐº": 682,
      "ĠÑĥÑĩÐ¸Ð»": 683,
      "HP": 684,
      "ĠR": 685,
      "ĠÐ¾Ð½": 686,
      "Ð½ÐµÐµ": 687,
      "ĠÐ·Ð°Ð½": 688,
      "ĠÐ·Ð½Ð°ÐºÐ¾Ð¼": 689,
      "ÑĥÑĤÑĮ": 690,
      "ÑĥÑī": 691,
      "Ð¸Ð¶": 692,
      "ĠÐ¿Ð°ÑĢ": 693,
      "ĠÑĢÐ°Ð±Ð¾ÑĤÐ°ÐµÑĪÑĮ": 694,
      "ĠÑģÐ²Ð¾": 695,
      "ĠÐºÑĥÐ¿Ð¸Ð»": 696,
      "cr": 697,
      "ĠJ": 698,
      "ÑĤÐ¾Ð²": 699,
      "Ð°ÑİÑĤ": 700,
      "Ð¸ÑģÑĮ": 701,
      "Ð¤": 702,
      "ĠM": 703,
      "ĠÐ´Ð¾ÑĢ": 704,
      "ÐļÐ°ÐºÐ¾Ð¹": 705,
      "ÑĢÐ°Ð¼": 706,
      "Ð½ÑĭÑħ": 707,
      "Ð¾Ð´Ð¸ÑĤ": 708,
      "Ð·Ñĭ": 709,
      "Ð¸ÐºÐ¸": 710,
      "ĠÑĨÐµÐ½Ð°": 711,
      "av": 712,
      "ta": 713,
      "ÑĥÐº": 714,
      "ÐµÐ¶": 715,
      "ÑĩÐ¸ÑĤ": 716,
      "ĠÐºÑĤÐ¾": 717,
      "ÐĿÐ¾ÑĢÐ¼Ð°Ð»ÑĮÐ½Ð¾": 718,
      "Ð¸ÑĤÑģÑı": 719,
      "ĠÐ¿Ð¾Ñģ": 720,
      "ĠPHP": 721,
      "ĠÐ²ÐµÑĩÐµÑĢÐ¾Ð¼": 722,
      "ÑĥÐ»ÑıÑĢ": 723,
      "ĠÐ³Ð¾ÑĢÐ¾Ð´": 724,
      "ÐŃ": 725,
      "ĠC": 726,
      "ĠÐ¼Ð¾Ð¶Ð½Ð¾": 727,
      "ÑĦÐ¾Ð½": 728,
      "ÑīÑĳ": 729,
      "ĠÐµÑīÑĳ": 730,
      "ÐµÑģÑĤÐµ": 731,
      "ĠÐ´ÑĢÑĥÐ³": 732,
      "ĠJav": 733,
      "ĠJava": 734,
      "Ð¸Ñĩ": 735,
      "ÑĥÑĢ": 736,
      "Ð´Ñĥ": 737,
      "ÐµÑĤÑģÑĤÐ²": 738,
      "ÐŁÑĢÐ¾": 739,
      "ÐµÐ¼Ñĥ": 740,
      "ÐµÐ´Ð»": 741,
      "Ð¥Ð¾ÑĩÑĥ": 742,
      "ÑĥÑĩÑĪÐµ": 743,
      "Ð½ÑĤÐµÑĢÐµÑģÐ½Ð¾": 744,
      "ĠÐ¿ÑĢÐ¸Ð²ÑĭÑĩÐºÐ°": 745,
      "id": 746,
      "la": 747,
      "pt": 748,
      "ÐµÑı": 749,
      "ĠÐºÐ°Ð¶Ð´": 750,
      "ÐµÑĩÑĤ": 751,
      "ÐĺÐ½": 752,
      "ĠÐ±Ð¾Ð»ÑĮ": 753,
      "ĠÐ²ÑģÑĳ": 754,
      "ÐĹÐ°ÑĤÐ¾": 755,
      "Scr": 756,
      "ipt": 757,
      "ÑıÑĤÑĮ": 758,
      "Ð¾ÑĢÑĤ": 759,
      "ĠÑĤÐµÐ±Ñı": 760,
      "ÐŀÑĤÐ»Ð¸ÑĩÐ½Ð¾": 761,
      "Script": 762,
      "ÑĥÐ´Ð°": 763,
      "Ð´Ð¾Ð±": 764,
      "Ð¾ÑĤÐ¾Ð²": 765,
      "Ð§ÐµÐ¼": 766,
      "Ð°Ð²Ð½Ð¾": 767,
      "ÑĢÑĥÑĤÐ¾": 768,
      "ĠÐ½Ð¾Ð²Ð¾ÑģÑĤÐ¸": 769,
      "ĠÑģÑĤÐ°ÑĢ": 770,
      "ĠÐĶÐ°Ð²Ð°Ð¹": 771,
      "ĠÐ¾Ð¿ÑĢ": 772,
      "ĠÐ´ÐµÐ½ÑĮ": 773,
      "ĠÑĤÐ¾Ð»ÑĮÐºÐ¾": 774,
      "ÐµÐ³ÑĥÐ»ÑıÑĢ": 775,
      "ĠÐ»ÑİÐ±Ð¸ÑĪÑĮ": 776,
      "ĠÑģÐ¼Ð¾ÑĤÑĢÐµÐ»": 777,
      "ĠÐ¾Ð¿ÑĢÐµÐ´ÐµÐ»": 778,
      "Ð¸Ñħ": 779,
      "Ð¸ÑĢÑĥ": 780,
      "ĠÐ¿ÐµÑĢ": 781,
      "ĠÐ½Ð¾ÑĢÐ¼": 782,
      "ÐļÐ¾Ð½": 783,
      "Ð¾Ð²Ð°ÑĤÑĮ": 784,
      "Ð¸Ð»Ð¾ÑĤ": 785,
      "Ð¸Ð»ÑĮÐ½Ð¾": 786,
      "Ð·Ð´": 787,
      "ÐłÐµÐ³ÑĥÐ»ÑıÑĢ": 788,
      "ĠÐ°": 789,
      "Ð½Ðµ": 790,
      "ÑıÐ¶": 791,
      "ĠÐ½Ð°Ð·": 792,
      "Ð°ÐºÑĤ": 793,
      "Ð¡Ðº": 794,
      "ĠÐ¼ÐµÑĩÑĤ": 795,
      "ÑĳÑĪÑĮ": 796,
      "ÐµÐºÑĤ": 797,
      "ÐļÐ¾Ð½ÐµÑĩÐ½Ð¾": 798,
      "do": 799,
      "ĠÐĳ": 800,
      "ÑĢÑĭÐ¹": 801,
      "ÑĢÐ¾Ðº": 802,
      "ÐµÐ½Ñı": 803,
      "Ð¡Ð¿Ð°ÑģÐ¸Ð±Ð¾": 804,
      "ĠRu": 805,
      "Win": 806,
      "ws": 807,
      "ÑģÑĮ": 808,
      "ĠÐ¿Ð¾Ð½": 809,
      "ĠÐ½Ð°Ñģ": 810,
      "ĠÑĤÐµÐ»": 811,
      "ĠÐ¸Ð½": 812,
      "ĠÐ¿ÑĢÐ¸": 813,
      "ĠÐ½Ð¾ÑĥÑĤÐ±": 814,
      "ÐĴÑģ": 815,
      "ÐµÐ·Ð´": 816,
      "ÑĥÐ¿ÐµÑĢ": 817,
      "Ð¾Ð²ÑĢÐµÐ¼ÐµÐ½": 818,
      "ĠÐ¿Ð»Ð°Ð½": 819,
      "ÐŃÑĤÐ¾": 820,
      "dows": 821,
      "Windows": 822,
      "Ð°Ñĩ": 823,
      "ÑĩÐ°Ñģ": 824,
      "ĠÐ¿Ð¸ÑĪ": 825,
      "ÐºÑĥÑģ": 826,
      "Ð¾Ð³ÑĢÐ°Ð¼": 827,
      "ÐµÐ¼Ð½Ð¾Ð³Ð¾": 828,
      "ÑĢÐ°ÑĤ": 829,
      "ÐµÐ¹ÑĩÐ°Ñģ": 830,
      "Ð¸Ð»ÑĮÐ¼": 831,
      "ÐļÐ»Ð°ÑģÑģÐ¸ÐºÐ°": 832,
      "Ð¾Ð³ÑĢÐ°Ð¼Ð¼": 833,
      "ac": 834,
      "es": 835,
      "ĠL": 836,
      "ÑģÑĭ": 837,
      "ÑıÐ·": 838,
      "ÑĩÐµÑĢÐ°": 839,
      "ĠÐ²ÑĩÐµÑĢÐ°": 840,
      "ÐµÑĤÑĮ": 841,
      "ĠÐºÐ¾": 842,
      "ÐµÑĢÐ¶": 843,
      "Ð¾Ð¼Ð¾Ð³": 844,
      "Ð»Ð¸ÑģÑĤ": 845,
      "Ð¸Ð¿": 846,
      "ĠÑģÑĢÐ¾Ðº": 847,
      "ÑĤÐ¾ÑĢ": 848,
      "Ð¼Ð¸": 849,
      "ÐŁÐ¾Ñĩ": 850,
      "Ð¾Ð»Ð»": 851,
      "Ð¿ÐµÑĢ": 852,
      "ÑıÐ¶ÐµÐ»Ð¾": 853,
      "ĠG": 854,
      "ÐµÑĨ": 855,
      "ÑĢÐ¸ÑģÑĤ": 856,
      "ÑıÐ»": 857,
      "Ð´Ðµ": 858,
      "Ð´ÐµÐ»": 859,
      "ÐºÐµ": 860,
      "ÑĢÐ¾Ðµ": 861,
      "ÐĿÐ°Ð´": 862,
      "ÑĳÐ»": 863,
      "ĠÑĩÐµÐº": 864,
      "ĠÐ¿ÑĢÐ¾ÑģÑĤ": 865,
      "ÐŀÐ±Ðµ": 866,
      "ĠÑģÐ¼Ð¾ÑĤÑĢÐ¸ÑĪÑĮ": 867,
      "ĠÐ½Ð¾ÑĥÑĤÐ±ÑĥÐº": 868,
      "Ð¾Ð³ÑĢÐ°Ð¼Ð¼Ð¸ÑģÑĤ": 869,
      "ĠÐ°Ð½": 870,
      "ĠÐł": 871,
      "ĠÐ²Ð°Ð¶": 872,
      "Ð´ÑĭÑħ": 873,
      "ĠÑģÐµÑĢ": 874,
      "Ð¾Ð²Ð°": 875,
      "Ð¾Ð³Ð¾Ð²Ð¾ÑĢ": 876,
      "Ð°Ð½Ð¸Ðµ": 877,
      "ĠÐ»ÑİÐ±Ð»Ñİ": 878,
      "ĠÐ¸Ð´ÐµÑı": 879,
      "ĠÐ¾Ð±ÑģÑĥÐ¶": 880,
      "ĠN": 881,
      "ÐµÑĪ": 882,
      "Ð½Ð¸ÑĨ": 883,
      "ĠÑģÐ¼": 884,
      "ĠÐ·Ð°Ðº": 885,
      "Ð¾Ð´Ð½Ñı": 886,
      "ĠÑıÐ·Ñĭ": 887,
      "Ð°Ð¹Ð½": 888,
      "ÐµÐ³Ð¾Ð´Ð½Ñı": 889,
      "ĠÐ¿Ð¾ÐµÐ·Ð´": 890,
      "ÑĥÑĤÐ±Ð¾Ð»": 891,
      "ĠÐ¿Ð°ÑĢÑĥ": 892,
      "ro": 893,
      "st": 894,
      "ĠK": 895,
      "ÑĤÐ½Ð¾": 896,
      "Ð¾ÑĤÐµÐ»": 897,
      "ĠÐ¼Ð¾Ð¶": 898,
      "Ð¸Ð»ÑģÑı": 899,
      "ĠÐ»ÑĥÑĩÑĪÐµ": 900,
      "Ð¥Ð°": 901,
      "ĠÐ¸Ð´ÑĳÑĪÑĮ": 902,
      "ÐĶÐ¾Ð±ÑĢÑĭÐ¹": 903,
      "ĠÐ¸Ð³ÑĢÐ°Ð»": 904,
      "Ġi": 905,
      "ĠÐ°Ð²": 906,
      "ĠÐ¿Ð¸Ñģ": 907,
      "ÐļÑĤÐ¾": 908,
      "ĠÐºÑĢÐ°ÑģÐ¸Ð²": 909,
      "Ð²Ð¾": 910,
      "ĠÐ¼Ð¸Ð½": 911,
      "ÐµÐ¼Ð¿ÐµÑĢ": 912,
      "ÑĳÐ¶": 913,
      "ĠÐµÐ·Ð´": 914,
      "ĠÑħÐ¾ÑĢÐ¾ÑĪÐ¸Ð¹": 915,
      "ÐŀÐºÐµÐ¹": 916,
      "Ð¾Ð´Ð¸ÑĤÐµÐ»": 917,
      "ÐĺÐ½Ð¾Ð³Ð´Ð°": 918,
      "ÐŁÐ¾ÑĩÐµÐ¼Ñĥ": 919,
      "ÐµÐ¼Ð¿ÐµÑĢÐ°ÑĤ": 920,
      "ĠÐµÐ·Ð´Ð¸Ð»": 921,
      "ĠÐ°Ð¿": 922,
      "Ð°ÑĪ": 923,
      "Ð¸Ñİ": 924,
      "Ð½ÑĮ": 925,
      "Ð»Ð°Ð²": 926,
      "ÑģÑĤÐ°Ð²": 927,
      "ĠÑĤÐ¾Ð³Ð´Ð°": 928,
      "ĠÐ±ÑĭÑĤÑĮ": 929,
      "ĠÑĢÐ¾Ð´Ð¸ÑĤÐµÐ»": 930,
      "ĠÑĦÐ¸Ð»ÑĮÐ¼": 931,
      "Ð¡Ð»Ð¾Ð¶Ð½Ð¾": 932,
      "ĠMac": 933,
      "ĠÐºÐ°Ð¶Ð´Ð¾Ð³Ð¾": 934,
      "nd": 935,
      "ĠÑİ": 936,
      "ÐµÑĦÐ¾Ð½": 937,
      "Ð½Ð¸Ðº": 938,
      "Ð»ÐµÐ½Ð¸Ñı": 939,
      "ĠÐ½ÐµÐ´": 940,
      "Ð¢ÑıÐ¶ÐµÐ»Ð¾": 941,
      "ĠÐ´Ð¾": 942,
      "ÐµÐ»ÑĮÐ½Ð¾": 943,
      "Ð¿ÐµÑĩ": 944,
      "Ð°ÑĤÑĮÑģÑı": 945,
      "Ð°Ð·ÑĭÐ²": 946,
      "ĠÑģÐ¿ÑĢÐ¾Ñģ": 947,
      "ĠÐ·Ð°Ð½ÑıÑĤ": 948,
      "ĠÑĤÐµÐ»ÐµÑĦÐ¾Ð½": 949,
      "Ð»Ð°Ð²Ð½Ð¾Ðµ": 950,
      "ĠÑģÐ¿ÑĢÐ¾ÑģÐ¸ÑĤÑĮ": 951,
      "ft": 952,
      "ĠÑĪ": 953,
      "ĠÐ²Ð¼": 954,
      "ĠÐ²Ð¿ÐµÑĩ": 955,
      "ĠÐ´Ð°": 956,
      "ĠÑĤÐµÑħ": 957,
      "Ð¾Ð¼Ñĥ": 958,
      "ĠÑĥÐ²": 959,
      "ĠÑĥÐ¶": 960,
      "Ð½Ð°Ñĩ": 961,
      "Ð¸Ð·Ð°Ð¹Ð½": 962,
      "ÐĳÑĥÐ´": 963,
      "ĠÑģÐ¿Ð¾ÑĢÑĤ": 964,
      "ĠÐ¿ÑĢÐ¾ÑĦÐµÑģÑģÐ¸Ð¸": 965,
      "ĠÐ´Ð¾ÑĢÐ¾Ð³Ð¾": 966,
      "esla": 967,
      "ĠÑıÐ·ÑĭÐº": 968,
      "ĠÑİÑĢÐ¸ÑģÑĤ": 969,
      "ĠÐ²Ð¼ÐµÑģÑĤÐµ": 970,
      "ĠÐ²Ð¿ÐµÑĩÐ°ÑĤ": 971,
      "Ð¾Ñī": 972,
      "ĠÐ¡": 973,
      "Ð¸Ð½Ð°": 974,
      "ĠÐ²ÐµÑĢ": 975,
      "Ð¼ÐµÐ½": 976,
      "ĠÐºÐ¾Ð»Ð»": 977,
      "Ð¾Ð³Ñĥ": 978,
      "ÐĿÐµ": 979,
      "ÐŀÐ³Ð¾": 980,
      "ĠÐ¼ÐµÑĤ": 981,
      "ĠÐ¿ÑĢÐ¾Ð±": 982,
      "ĠÑįÑĤ": 983,
      "ÐŀÐ±Ð°": 984,
      "ĠÐ¾ÑĩÐµÐ½ÑĮ": 985,
      "ĠGo": 986,
      "Ð½Ð¾Ð¹": 987,
      "ÑĩÑĳÑĤ": 988,
      "Ð´ÐµÐ½Ð¸Ðµ": 989,
      "ĠÐ±ÑĢÐ°ÑĤ": 990,
      "ÑĳÐ·": 991,
      "ÐµÐ³Ð´Ð°": 992,
      "ÑĢÑĥÑĤ": 993,
      "Ð¸ÑıÑĤÐ½Ð¾": 994,
      "Ð¥Ð¾ÑĢÐ¾ÑĪÐ¸Ð¹": 995,
      "ĠÐ¾ÑĤÐ²": 996,
      "ÐĽÑİÐ±": 997,
      "ĠÐ¿Ð¾Ð»ÐµÐ·": 998,
      "ÐĶÐ¾Ð±ÑĢÐ¾Ðµ": 999,
      "ĠTesla": 1000,
      "ĠÐ½Ð°Ð·Ð½Ð°Ñĩ": 1001,
      "ĠÑĤÐµÑħÐ½": 1002,
      "ĠÐºÐ¾Ð»Ð»ÐµÐ³": 1003,
      "ik": 1004,
      "ĠÐĿ": 1005,
      "ÑĤÐ°ÐºÑĤ": 1006,
      "ÑĮÑİ": 1007,
      "ĠÐ²Ð·": 1008,
      "ĠÑģÐ½": 1009,
      "ĠÑģÐµÐ±": 1010,
      "ĠÑģÐµÐ³Ð¾Ð´Ð½Ñı": 1011,
      "ĠÑĤÐµÑģÑĤ": 1012,
      "ÐŁÐ¸Ð»Ð¾ÑĤ": 1013,
      "ÑĢÐ°ÑĤÑĮ": 1014,
      "ĠÐ¿ÑĢÐ¾Ð³ÑĢÐ°Ð¼Ð¼Ð¸ÑģÑĤ": 1015,
      "ÐµÑģÑĤÑĢÐ°": 1016,
      "ĠÑĢÐ°Ñģ": 1017,
      "ĠÑĦÑĥÑĤÐ±Ð¾Ð»": 1018,
      "ĠÐ½Ð°Ð´Ð¾": 1019,
      "ĠÐ¿Ð¾ÑģÐ»": 1020,
      "ĠÐ¿Ð¾ÐµÐ·Ð´ÐºÐ°": 1021,
      "roid": 1022,
      "ndroid": 1023,
      "ĠÐ²Ð¿ÐµÑĩÐ°ÑĤÐ»ÐµÐ½Ð¸Ñı": 1024,
      "ux": 1025,
      "ÑģÐ¾Ðº": 1026,
      "ÑĥÑĢÐ°": 1027,
      "ĠÐ¿ÑĢÐ°Ð²": 1028,
      "ÐĶÐ°Ð²Ð°Ð¹": 1029,
      "ĠÐ²Ð°ÑĢ": 1030,
      "ĠÐ²ÑģÑĤÑĢ": 1031,
      "ÑĪÑĳÐ»": 1032,
      "ĠÑģÐ´ÐµÐ»": 1033,
      "ÐµÐ½ÑĤ": 1034,
      "Ð¼Ñĥ": 1035,
      "Ð¼ÐµÑĢ": 1036,
      "ÐŀÐ¿": 1037,
      "Ð¸ÑĤÐµÑĤ": 1038,
      "ĠÐ±ÑĭÑģÑĤÑĢ": 1039,
      "Ð°Ð¿Ñĭ": 1040,
      "inux": 1041,
      "ĠÐ²ÑģÐµÐ³Ð´Ð°": 1042,
      "ÐµÐ¿ÐµÑĢÑĮ": 1043,
      "ĠÐ¾ÑĦ": 1044,
      "ÐĵÐ»Ð°Ð²Ð½Ð¾Ðµ": 1045,
      "ĠÐºÐ¾Ð½ÑĤÐ°ÐºÑĤ": 1046,
      "ĠAndroid": 1047,
      "ĠÐ¿Ð¾ÐºÑĥÐ¿": 1048,
      "Ð¸ÑĢÐ¾Ð²Ñī": 1049,
      "ĠÐ¿Ð¸ÑģÐ°Ð»": 1050,
      "ÐµÐ¼Ð¿ÐµÑĢÐ°ÑĤÑĥÑĢÐ°": 1051,
      "ĠÑĤÐµÑģÑĤÐ¸ÑĢÐ¾Ð²Ñī": 1052,
      "wi": 1053,
      "ÐĻ": 1054,
      "Ð°ÐµÐ¼": 1055,
      "ĠÐľ": 1056,
      "Ð½Ðº": 1057,
      "Ð´ÐµÐ¹": 1058,
      "ĠÐ´Ð¸Ð·Ð°Ð¹Ð½": 1059,
      "Ð¾Ð²Ð°Ð»": 1060,
      "ĠÑĤÐ¾Ð¿": 1061,
      "Ð°Ð»Ð°": 1062,
      "Ð¡Ð¾Ð²ÑĢÐµÐ¼ÐµÐ½": 1063,
      "Ð¸Ð»Ð¸ÑģÑĮ": 1064,
      "ÑĦÐµ": 1065,
      "ĠÑĩÐ¸ÑĤ": 1066,
      "Ð°ÑĤÐµÐ»ÑĮÐ½Ð¾": 1067,
      "ÐĺÐ½ÑĤÐµÑĢÐµÑģÐ½Ð¾": 1068,
      "ĠÐ³Ð¾ÑĤÐ¾Ð²": 1069,
      "Ð°ÐµÑĤÑģÑı": 1070,
      "ÐĳÐ¾Ð»": 1071,
      "ĠÑįÑĤÐ¾": 1072,
      "ĠSwi": 1073,
      "ĠÑģÐºÐ¸Ð½": 1074,
      "ÐļÑĢÐ°ÑģÐ¸Ð²ÑĭÐ¹": 1075,
      "ĠJavaScript": 1076,
      "ÐłÐµÐ³ÑĥÐ»ÑıÑĢÐ½Ð¾Ðµ": 1077,
      "ĠRust": 1078,
      "ĠÐ¾Ð±ÑģÑĥÐ¶Ð´ÐµÐ½Ð¸Ðµ": 1079,
      "ĠKo": 1080,
      "ĠÐ°Ð²ÑĤÐ¾": 1081,
      "lin": 1082,
      "Â«": 1083,
      "Â»": 1084,
      "ĠÑĤÐ¾": 1085,
      "Ð¸Ð°Ð½ÑĤ": 1086,
      "ÐĶÑĥÐ¼": 1087,
      "ÐµÑĤÑĭ": 1088,
      "ĠÐ´Ð¸": 1089,
      "ĠÐ´Ð¾Ð±": 1090,
      "ĠÑĤÑĢ": 1091,
      "Ð¾Ð»Ð¾Ð´": 1092,
      "Ð²ÑĥÑĩ": 1093,
      "ĠÐ¼Ð¾Ð³Ñĥ": 1094,
      "ĠÑĥÐ´Ð¾Ð±": 1095,
      "ĠÐ»ÐµÐ³": 1096,
      "ĠÐ´ÑĥÐ¼Ð°Ñİ": 1097,
      "ĠÐ½ÑĥÐ¶Ð½Ð¾": 1098,
      "ÐµÑĤÑģÑĤÐ²ÐµÐ½": 1099,
      "Ð¡ÐºÐ¸Ð½": 1100,
      "Ð¾Ð³Ð¾Ð²Ð¾ÑĢÐ¸Ð»Ð¸ÑģÑĮ": 1101,
      "ĠÐ½ÐµÐ´Ð°Ð²Ð½Ð¾": 1102,
      "ĠÐ¾ÑĤÐ²ÐµÑĤÑģÑĤÐ²ÐµÐ½": 1103,
      "ÐĽÑİÐ±Ð»Ñİ": 1104,
      "ĠSwift": 1105,
      "ĠÑģÐºÐ¸Ð½ÑĥÑĤÑĮ": 1106,
      "ÐĶÑĥÐ¼Ð°Ñİ": 1107,
      "OS": 1108,
      "tlin": 1109,
      "ĠÐ§": 1110,
      "ĠÐĴ": 1111,
      "ĠÐ¿Ð»Ñİ": 1112,
      "ĠÐ¿Ð¾Ð¼Ð¾Ð³": 1113,
      "ÐļÑĢÑĥÑĤÐ¾": 1114,
      "Ð¾Ð²Ð¾Ð»": 1115,
      "ĠÐ±ÐµÑĢ": 1116,
      "Ð¾ÑĢÐ¾Ð²": 1117,
      "ĠÑĥÐ»": 1118,
      "Ð¾Ð±Ð¾Ð´": 1119,
      "ÑīÐµ": 1120,
      "ĠÐ²ÑĭÐ±": 1121,
      "ĠÐ¾ÑĤÐ´ÑĭÑħ": 1122,
      "ÑĥÑģÑĮ": 1123,
      "Ð¾Ð»ÑĮÐ·": 1124,
      "ĠÑįÐº": 1125,
      "ÐŁÑĢÐ¸Ð½": 1126,
      "ĠÐ°Ð½Ð³": 1127,
      "ĠiOS": 1128,
      "ĠÐ²Ð°ÑĢÐ¸Ð°Ð½ÑĤ": 1129,
      "ĠKotlin": 1130,
      "as": 1131,
      "er": 1132,
      "ĠÐĽ": 1133,
      "Ð¸Ð°Ð»": 1134,
      "ÑĢÐ¸ÐºÐ¸": 1135,
      "Ð½Ð¸Ð³": 1136,
      "ĠÐ²ÐºÑĥÑģ": 1137,
      "ĠÑģÐµÑģÑĤÑĢÐ°": 1138,
      "ÑİÑĤ": 1139,
      "ĠÐ¸ÑģÐ¿": 1140,
      "ĠÐ¼ÐµÐ½Ñı": 1141,
      "ĠÐ·Ð°Ð¿": 1142,
      "Ð±Ð¸ÑĤÑĮ": 1143,
      "ĠÑĩÑĳÐ¼": 1144,
      "Ð³Ð°": 1145,
      "Ð¸Ð¼ÑĭÐµ": 1146,
      "ĠÑħÐ¾ÑĩÑĥ": 1147,
      "ĠÑĢÐ°Ð±Ð¾ÑĤÑĭ": 1148,
      "ĠÑģÑĤÑĢ": 1149,
      "ÑĢÐ°Ð²Ð¸ÑĤÑģÑı": 1150,
      "ĠÐ¸Ð·Ð¼ÐµÑĢ": 1151,
      "ÐĵÐ´Ðµ": 1152,
      "Ð¾Ð¿ÑĢÐ¾Ð±": 1153,
      "ÑĤÑĢÐ¾Ð¼": 1154,
      "ÑĥÐ»ÑĮ": 1155,
      "ĠÐºÐ»Ð°ÑģÑģÐ¸ÐºÐ°": 1156,
      "ÐµÑĢÑĮÑĳÐ·": 1157,
      "ĠÐ±Ð¾Ð»ÑĮÑĪÐµ": 1158,
      "ĠÐ¾Ð¿ÑĢÐµÐ´ÐµÐ»Ð¸Ð¼": 1159,
      "ĠÐ¿Ð¸ÑĪÐµÑĪÑĮ": 1160,
      "ĠÐ¼ÐµÑĤÑĢÐ¸ÐºÐ¸": 1161,
      "ĠÐ¿Ð¾ÐºÑĥÐ¿ÐºÐ°": 1162,
      "ĠÑĤÐµÑģÑĤÐ¸ÑĢÐ¾Ð²ÑīÐ¸ÐºÐ°": 1163,
      "Ð²ÑĥÑĩÐ¸ÑĤ": 1164,
      "ĠÐ¸Ð·Ð¼ÐµÑĢÐ¸Ð¼ÑĭÐµ": 1165,
      "ĠÐ¾Ð´": 1166,
      "ĠÐ¾Ð¿": 1167,
      "Ð¾Ñħ": 1168,
      "ĠÐ¥": 1169,
      "Ð½ÐµÑĤ": 1170,
      "ÑĭÑĤ": 1171,
      "ÑıÑĤÐ¾": 1172,
      "ĠÐ¿ÑıÑĤ": 1173,
      "ĠÐ¿Ð¾Ð¿ÑĢÐ¾Ð±": 1174,
      "Ð´Ð¸": 1175,
      "ĠÐ´ÐµÑĤÑģÑĤÐ²": 1176,
      "ĠÐºÐ½Ð¸Ð³": 1177,
      "ĠÑĤÑĥÐ´Ð°": 1178,
      "ÐŁÐ¾": 1179,
      "ĠÐ¸Ð½ÑĤÐµÑĢ": 1180,
      "ÐĿÐ°Ð±": 1181,
      "ĠÑĥÑĤÑĢÐ¾Ð¼": 1182,
      "ĠÐ¿ÑĢÐ¾ÐµÐºÑĤ": 1183,
      "ĠÐ¿ÑĢÐµÐ´Ð»": 1184,
      "ĠÐ±ÑĭÐ²": 1185,
      "ĠÐ³ÑĥÐ»Ñı": 1186,
      "Ð¸Ð½Ð¾Ð¹": 1187,
      "ÐĴÑĭ": 1188,
      "ĠÐ´ÐµÐ»Ð°ÐµÑĪÑĮ": 1189,
      "Ð¸ÑģÐº": 1190,
      "ĠÑħÐ¾ÑĢÐ¾ÑĪÐ¾": 1191,
      "ÑĢÐ¾ÑģÐ°Ð»Ð°": 1192,
      "ĠÑĢÐ°Ð·Ð±Ð¸ÑĤÑĮ": 1193,
      "Ð°Ð³Ð°Ñİ": 1194,
      "ĠÐ·Ð½Ð°ÐºÐ¾Ð¼ÑĭÑħ": 1195,
      "ĠÐ½Ð°ÑģÑĩÑĳÑĤ": 1196,
      "ĠLinux": 1197,
      "ĠÐ°Ð¿Ð´ÐµÐ¹": 1198,
      "ĠÑįÑĤÐ°Ð¿Ñĭ": 1199,
      "ĠÐ½Ð°Ð·Ð½Ð°ÑĩÐ¸ÑĤÑĮ": 1200,
      "ĠÐ¾ÑĤÐ²ÐµÑĤÑģÑĤÐ²ÐµÐ½Ð½ÑĭÑħ": 1201,
      "ĠÐ¿Ð»ÑİÑģÑĭ": 1202,
      "Ð¾Ð²Ð¾Ð»ÐµÐ½": 1203,
      "ÐŁÑĢÐ¸Ð½ÑıÑĤÐ¾": 1204,
      "ÐĿÐ°Ð±ÑĢÐ¾ÑģÐ°Ð»Ð°": 1205,
      "ĠÐ¿ÑĢÐµÐ´Ð»Ð°Ð³Ð°Ñİ": 1206,
      "ĠÐ°Ð¿Ð´ÐµÐ¹ÑĤ": 1207,
      "pe": 1208,
      "Ð°ÑĨ": 1209,
      "Ð°ÑģÑĤÑĮ": 1210,
      "ĠÐļ": 1211,
      "Ð½ÑĥÐ»": 1212,
      "ÑĥÑħ": 1213,
      "ÑĥÐ±": 1214,
      "ĠÐ½Ð°Ð¼": 1215,
      "ÐĶÐ¾Ð³Ð¾Ð²Ð¾ÑĢÐ¸Ð»Ð¸ÑģÑĮ": 1216,
      "ÐµÑĤÑģÑı": 1217,
      "ÐºÐ¸Ð¹": 1218,
      "ĠÐ´Ð¾ÑģÑĤ": 1219,
      "Ð¾Ð²ÐµÑĤ": 1220,
      "ĠÐºÐ¾Ð¼": 1221,
      "ĠÐ¸Ð½ÑĤÐµÑĢÐµÑģÐ½Ð¾": 1222,
      "ĠÐ±ÐµÐ·": 1223,
      "Ð¾Ð³Ð¾Ð´": 1224,
      "Ð¡ÑĥÐ¿ÐµÑĢ": 1225,
      "ĠÑĥÑĤ": 1226,
      "ĠÑĥÐ±": 1227,
      "Ð°Ð½ÑĢ": 1228,
      "ĠÑģÐ²Ð¾Ð±Ð¾Ð´": 1229,
      "ĠÐ¿Ð¾ÐºÐ°": 1230,
      "ÐļÑĢÐ°ÑģÐ¸Ð²Ð¾": 1231,
      "ÐĴÑģÑĳ": 1232,
      "ÑıÐ·Ð°ÑĤÐµÐ»ÑĮÐ½Ð¾": 1233,
      "ĠÐ¿ÑĢÐ¾ÑģÑĤÑĥÐ´": 1234,
      "ĠNik": 1235,
      "ĠÑĢÐ¾Ð´Ð¸ÑĤÐµÐ»ÐµÐ¹": 1236,
      "ÑģÐ¾ÐºÐ°Ñı": 1237,
      "ĠÐ»ÐµÐ³ÐºÐ¾": 1238,
      "ĠÐ¸Ð½ÑĤÐµÑĢÐ½ÐµÑĤ": 1239,
      "Ð½Ð¾Ð¼": 1240,
      "ĠÐ¿Ð¾ÑĤ": 1241,
      "ÑģÑĤÐºÐ¾": 1242,
      "ÐĶÐ¾ÑĢ": 1243,
      "ĠÐ´Ð¾Ð²Ð¾Ð»ÐµÐ½": 1244,
      "ĠÐºÑĢÑĥÑĤÐ¾": 1245,
      "ÐµÑĢÑĭ": 1246,
      "ÐĿÑĥÐ¶": 1247,
      "ÑĢÐ°Ð´": 1248,
      "Ð½ÑĭÐ¼": 1249,
      "ÑĳÑģÑĤÐºÐ¾": 1250,
      "Ð°Ð¼Ð°": 1251,
      "ĠÑĢÐ°Ð´": 1252,
      "ÐµÐ´Ð°": 1253,
      "ÐĺÐ½ÑĤÐµÑĢÐµÑģ": 1254,
      "ĠÐ³ÑĢ": 1255,
      "ĠÐ²ÑĭÑħÐ¾Ð´": 1256,
      "ĠÐ¶Ð¸Ð·": 1257,
      "Ð¾ÑģÑĮ": 1258,
      "Ð°Ð±ÐµÑĤ": 1259,
      "ÐŀÐ±ÑıÐ·Ð°ÑĤÐµÐ»ÑĮÐ½Ð¾": 1260,
      "Ð»Ð¾Ñħ": 1261,
      "Ð¾Ð»Ð¾Ð³Ð°": 1262,
      "ĠÐ·Ð°Ð½Ð¸Ð¼": 1263,
      "ÑĥÑīÐµÐµ": 1264,
      "ĠÐ¿Ð¾ÑģÐ¼Ð¾ÑĤÑĢ": 1265,
      "ÐĻÐ¾": 1266,
      "ĠÐ´Ð¸Ð°Ð±ÐµÑĤ": 1267,
      "ĠÐ°Ð½Ð³Ð¸Ð½Ð¾Ð¹": 1268,
      "ĠÐ¸ÑģÐ¿Ð¾Ð»ÑĮÐ·": 1269,
      "ype": 1270,
      "ĠÂ«": 1271,
      "Ð°Ñħ": 1272,
      "Ð¸ÑĢ": 1273,
      "ÑıÐ´": 1274,
      "ĠÐ¿Ð¾ÑĢ": 1275,
      "ĠÐ¿Ð¾Ð·": 1276,
      "ĠÐ½ÐµÐ¼Ð½Ð¾Ð³Ð¾": 1277,
      "ÑģÑĤÐ°Ð»": 1278,
      "ĠÑģÐ¾Ð±": 1279,
      "ĠÑģÐµÐ¹ÑĩÐ°Ñģ": 1280,
      "ÐµÐ½ÐµÑĢ": 1281,
      "Ð¢ÐµÐ¼Ð¿ÐµÑĢÐ°ÑĤÑĥÑĢÐ°": 1282,
      "Ð½Ð¾ÑģÑĤÑĮ": 1283,
      "ĠÐ´Ð¾Ð¼": 1284,
      "ĠÑĤÐµÐ¿ÐµÑĢÑĮ": 1285,
      "ĠÐ±Ð»": 1286,
      "ÐĲÐ³Ð°": 1287,
      "ÐĿÐµÐ¼Ð½Ð¾Ð³Ð¾": 1288,
      "Ð¾ÑĢÐ¸ÑĤÐµÑĤ": 1289,
      "Ð¡ÑĤ": 1290,
      "Ð¡ÐµÐ¹ÑĩÐ°Ñģ": 1291,
      "ĠÐ¼Ð½Ðµ": 1292,
      "Ð°Ð½Ð¸Ñı": 1293,
      "Ð¾Ð¶Ð´": 1294,
      "ĠÐ½Ð°Ñĩ": 1295,
      "ÑĢÐ°ÑĦ": 1296,
      "Ð°ÑİÑģÑĮ": 1297,
      "ĠÐ½Ð¾Ð²ÑĥÑİ": 1298,
      "ÐĹÐ½Ð°": 1299,
      "Ð¸Ð¼ÑģÑı": 1300,
      "Ð¸Ð½Ð³": 1301,
      "ĠÑħÐ¾ÑĤÐµÐ»": 1302,
      "ĠÐ´ÐµÐ»Ð°Ð»": 1303,
      "Ð°Ð¶Ð¸": 1304,
      "ĠÐ±ÑĭÐ»Ð¾": 1305,
      "Ð£Ð´Ð¾Ð±": 1306,
      "ÑĥÑģÑĭ": 1307,
      "ÐĸÐ°Ð»ÑĮ": 1308,
      "ĠÐ±ÑĥÐ´ÐµÑĤ": 1309,
      "ĠType": 1310,
      "ÐŁÑĢÐ¾ÑģÑĤ": 1311,
      "ĠÐ¾Ð¿ÑĢÐµÐ´ÐµÐ»Ð¸ÑĤÑĮÑģÑı": 1312,
      "ĠÐ¿ÑĢÐ¸Ð¾ÑĢÐ¸ÑĤÐµÑĤ": 1313,
      "ĠÐ¿Ð»Ð°Ð½Ð¸ÑĢÑĥ": 1314,
      "ĠÑģÑĢÐ¾ÐºÐ°Ð¼Ð¸": 1315,
      "ĠÑİÑĢÐ¸ÑģÑĤÐ°": 1316,
      "ĠÐ¿ÑĢÐ¾Ð±Ð¾Ð²Ð°Ð»": 1317,
      "ĠÑģÐµÐ±Ñı": 1318,
      "Â».": 1319,
      "ĠÐ²Ð°ÑĢÐ¸Ð°Ð½ÑĤÑĭ": 1320,
      "ĠÐ¿ÑıÑĤÐ½Ð¸ÑĨ": 1321,
      "Ð¾Ð²ÐµÑĤÑĥÑİ": 1322,
      "ĠTypeScript": 1323,
      "ĠÐ¿ÑĢÐ¸Ð¾ÑĢÐ¸ÑĤÐµÑĤÐ°Ð¼Ð¸": 1324,
      "did": 1325,
      "en": 1326,
      "ti": 1327,
      "Ð½Ð¸": 1328,
      "ÑĮÑı": 1329,
      "ĠÐ²ÐµÑģ": 1330,
      "ĠÑģÐ¾Ñģ": 1331,
      "ĠÑģÑĥÐ¿ÐµÑĢ": 1332,
      "ÐĶÐ°ÑĪÑĮ": 1333,
      "ĠÐºÑĢÐ¾Ñģ": 1334,
      "ÐµÑĢÐ»Ð¸": 1335,
      "ÐŁÐ¾Ð»": 1336,
      "ĠÐ±Ð¸Ð»": 1337,
      "Ð¾Ð½Ð´": 1338,
      "Ð¾Ð¶Ð¸ÑĤÑĮÑģÑı": 1339,
      "Ð¶ÐµÐ½ÐµÑĢ": 1340,
      "ÑĢÐ°Ñİ": 1341,
      "ĠÐ»Ð¸ÑĪÑĮ": 1342,
      "ĠÐ¿ÑĢÐ¸ÑıÑĤÐ½Ð¾": 1343,
      "ĠÑĢÐµ": 1344,
      "ÐľÐ¾Ð»Ð¾Ð´": 1345,
      "ĠÐ¾ÑĤÐ»Ð¸": 1346,
      "Ð¾Ð·Ð´": 1347,
      "ĠÐ¿Ð¾Ð´ÑģÐº": 1348,
      "ĠÐ´ÑĢÑĥÐ·": 1349,
      "ĠAdid": 1350,
      "ĠÐ½Ð°Ð´ÑĳÐ¶": 1351,
      "ĠÑģÐ¼Ð¾ÑĤÑĢÐµÐ»Ð°": 1352,
      "ĠÐĳÐ°ÑĢ": 1353,
      "ĠÐĳÐµÑĢÐ»Ð¸": 1354,
      "ĠÐ¼Ð¾Ð¶ÐµÐ¼": 1355,
      "ĠÐ¼Ð¸Ð½ÑĥÑģÑĭ": 1356,
      "ĠÑĤÐµÑħÐ½Ð¾Ð»Ð¾Ð³": 1357,
      "ĠÐºÐ¾Ð»Ð»ÐµÐ³Ð°": 1358,
      "ĠÐ§ÑĤÐ¾": 1359,
      "ÑĥÐ»ÑĮÑĤ": 1360,
      "ĠÑĥÐ±ÑĢÐ°ÑĤÑĮ": 1361,
      "ĠÑģÐ²Ð¾Ð±Ð¾Ð´ÐµÐ½": 1362,
      "ĠÐ¿ÑĢÐ¾ÑģÑĤÑĥÐ´Ð¾Ð¹": 1363,
      "ĠAdidas": 1364,
      "ota": 1365,
      "Ðķ": 1366,
      "ĠD": 1367,
      "ĠWindows": 1368,
      "ĠÐĲ": 1369,
      "Ð¸Ð½Ñĭ": 1370,
      "ÑĢÐµÐ´": 1371,
      "Ð°Ð±Ð¾ÑĤ": 1372,
      "ĠÐ¿Ð¾Ð³Ð¾Ð´": 1373,
      "ĠÐ½ÐµÐ¿": 1374,
      "ĠÐ²Ð¾Ð²ÑĢÐµÐ¼": 1375,
      "ÐºÑĤ": 1376,
      "ĠÐ¼ÐµÑģÑĤÐµ": 1377,
      "ÑīÐ¸Ð¹": 1378,
      "ĠÐ¿Ð¾Ð¸ÑģÐº": 1379,
      "ĠÑģÑĤÐ¸Ð»ÑĮ": 1380,
      "ÑĢÐ°Ð²Ð»Ñı": 1381,
      "ÐĳÑĭ": 1382,
      "Ð¸Ð³ÑĢ": 1383,
      "ĠÐ½ÑĥÐ¶Ð½Ð¾Ð¼": 1384,
      "ĠÐ»ÐµÑĩÐ¸ÑĤÑĮ": 1385,
      "ĠÐºÐ¾ÑĦÐµ": 1386,
      "ÐĿÐ°Ð´Ð¾": 1387,
      "ĠÑģÐµÑĢÐ¸Ð°Ð»": 1388,
      "ĠÐºÑĢÐ°ÑģÐ¸Ð²ÑĭÐ¹": 1389,
      "ĠÑĥÐ¶Ðµ": 1390,
      "ĠÑģÐ´ÐµÐ»Ð°ÑĤÑĮ": 1391,
      "ĠÐ´ÐµÑĤÑģÑĤÐ²Ðµ": 1392,
      "ĠÐ¸ÑģÐ¿Ð¾Ð»ÑĮÐ·Ð¾Ð²Ð°ÑĤÑĮ": 1393,
      "ÐĹÐ½Ð°ÑĩÐ¸ÑĤ": 1394,
      "ĠÐ¿Ð¾Ð´ÑģÐºÐ°Ð¶Ð¸": 1395,
      "ĠÐĳÐ°ÑĢÑģ": 1396,
      "ĠÐ²Ð¾Ð²ÑĢÐµÐ¼Ñı": 1397,
      "ĠÐ¿Ð¾Ð¸ÑģÐºÐ°ÑĤÑĮ": 1398,
      "ĠB": 1399,
      "ĠÐĵ": 1400,
      "ÑģÐ¾Ð²": 1401,
      "ĠÐ¿Ñĥ": 1402,
      "ĠÐ¿ÑĥÑĤ": 1403,
      "ĠÐºÑĥÑĢ": 1404,
      "ĠÑĤÐ²Ð¾": 1405,
      "ÐŁÐ¾Ð½": 1406,
      "Ð¾Ð³Ð¸Ð¹": 1407,
      "Ð¸Ð²ÐµÑĢ": 1408,
      "ĠÐ¿ÑĢÐ¾ÑĪ": 1409,
      "Ð·Ð°Ð»": 1410,
      "ĠÐ»Ð¸ÑĪ": 1411,
      "ÑĨÑĭ": 1412,
      "ÐĹÐ²ÑĥÑĩÐ¸ÑĤ": 1413,
      "ÑģÑĤÐ²Ð°": 1414,
      "ĠÐ´ÐµÐ»Ð°ÑĤÑĮ": 1415,
      "ĠÐ±Ð¾Ð»ÐµÐ·": 1416,
      "ÐľÐµÐ½Ñı": 1417,
      "ÐľÐ°Ð¼Ð°": 1418,
      "Ð¥Ð¾ÑĢÐ¾ÑĪÐµÐµ": 1419,
      "ĠÑģÐ»ÑĥÑĪ": 1420,
      "ony": 1421,
      "ĠÐ¶ÑĳÑģÑĤÐºÐ¾": 1422,
      "ÑĥÑīÐ°ÐµÑĤ": 1423,
      "ĠÑģÐ²Ð¾Ñİ": 1424,
      "Ð¾Ð´Ð¸ÑĤÐµÐ»ÑĮ": 1425,
      "ĠÐ¼ÐµÑĩÑĤÐ°Ð»": 1426,
      "ÐĴÑģÐµ": 1427,
      "Ð¸Ð¿Ð¿": 1428,
      "ĠÑģÑĢÐ¾ÐºÐ°Ð¼": 1429,
      "ĠÑģÐ¼ÑĥÑīÐ°ÐµÑĤ": 1430,
      "ĠÐ²ÐµÑĢÐ½ÑĥÐ»": 1431,
      "ĠÐ¿Ð¾ÑģÐ»Ðµ": 1432,
      "ĠÑĤÐ¾ÑĩÐ½Ð¾": 1433,
      "ĠÐ´Ð¾Ð±Ð°Ð²": 1434,
      "ĠÑĥÐ»Ð¾Ð¶Ð¸ÑĤÑĮÑģÑı": 1435,
      "ĠNike": 1436,
      "ĠÐ³ÑĢÐ¸Ð¿Ð¿": 1437,
      "ĠÐ¿ÑıÑĤÐ½Ð¸ÑĨÑĭ": 1438,
      "Ð¾Ð½Ð´Ð¾Ð½": 1439,
      "ĠÑĢÐµÐ°Ð»ÑĮÐ½Ð¾": 1440,
      "ĠÐ»Ð¸ÑĪÐ½ÐµÐµ": 1441,
      "ĠÐ²ÐµÑĢÐ½ÑĥÐ»ÑģÑı": 1442,
      "ĠÐ¾ÑģÑĤ": 1443,
      "ĠÐ¾Ñģ": 1444,
      "ÑĤÐ²": 1445,
      "ÑĢÑĭ": 1446,
      "ÑģÐ»": 1447,
      "Ð½Ñİ": 1448,
      "Ð¿Ð»": 1449,
      "ÑĢÐ°Ð·": 1450,
      "Ð¾ÑĢÑĭ": 1451,
      "Ð°ÑģÐºÐ¸": 1452,
      "Ð¡Ð°Ð»": 1453,
      "ĠÐ¼Ð°ÑĪ": 1454,
      "ĠÐ¼Ð¸Ð³ÑĢ": 1455,
      "Ð¾Ð¶Ð°Ð»": 1456,
      "ĠÑĩÐµÐ¼": 1457,
      "Ð°Ð¼ÐµÑĢÑĭ": 1458,
      "Ð³Ð°Ð»": 1459,
      "ĠÐ¿ÑĢÐµÑģÑĤ": 1460,
      "Ð¾ÐºÑĥÐ¼": 1461,
      "ÐĹÐ°Ð¿": 1462,
      "ÐĴÐºÑĥÑģ": 1463,
      "ĠÑĢÐ°Ð±Ð¾ÑĤÐ°": 1464,
      "ĠÐºÐ°ÐºÐ¾Ð¹": 1465,
      "ÐľÐ¾Ð¶Ð½Ð¾": 1466,
      "Ð°Ð·Ð°Ð»": 1467,
      "Ð£ÑĩÐ¸ÑĤ": 1468,
      "Ð°Ð¿Ð°": 1469,
      "ÐµÐ²ÑĤ": 1470,
      "ÑģÐºÐ°Ð·ÑĭÐ²": 1471,
      "ĠÐ¾Ð±ÑģÑĥÐ´": 1472,
      "ĠÑģÑĤÐ°ÑĢÑĭÐ¹": 1473,
      "ĠÐ¼ÐµÑĩÑĤÑĭ": 1474,
      "ĠÑģÐ¿Ð¾ÑĢÑĤÐ·Ð°Ð»": 1475,
      "Ð¾ÑīÐ½ÑĭÐ¹": 1476,
      "ĠÐ²Ð·ÑıÐ»": 1477,
      "ÐŀÐ¿ÑıÑĤÑĮ": 1478,
      "Ð¡ÐºÐ¸Ð½ÑĮ": 1479,
      "ĠÐ±ÐµÑĢÑĥ": 1480,
      "ĠÐĽÐ¾Ð½Ð´Ð¾Ð½": 1481,
      "ĠÐ¿Ð»Ð°Ð½Ð¸ÑĢÑĥÐµÑĪÑĮ": 1482,
      "ĠÐ´Ð¾Ð±Ð°Ð²Ð»Ñİ": 1483,
      "ĠÐ¼Ð¸Ð³ÑĢÐµÐ½ÑĮ": 1484,
      "ĠÐ¿ÑĢÐµÑģÑĤÐ¸Ð¶": 1485,
      "Ð¾ÐºÑĥÐ¼ÐµÐ½ÑĤ": 1486,
      "ÑģÐºÐ°Ð·ÑĭÐ²Ð°Ð¹": 1487,
      "by": 1488,
      "ma": 1489,
      "oy": 1490,
      "uma": 1491,
      "ĠH": 1492,
      "Ð¾Ð¸ÑĤ": 1493,
      "Ð»Ð¸Ð²": 1494,
      "ĠÐ½ÐµÐ³Ð¾": 1495,
      "ĠÐ½ÐµÐ´ÐµÐ»": 1496,
      "ÑģÑĤÐ¸": 1497,
      "ĠÐ²ÑĢÐµÐ¼": 1498,
      "ĠÑģÐ°Ð¹": 1499,
      "ĠÐ´ÐµÐ´Ð»": 1500,
      "Ð¼Ð¾Ð½": 1501,
      "ĠÐºÑĢÑĥÑĤ": 1502,
      "ÐŁÐ¾ÑĤ": 1503,
      "ĠÐ¸Ð½ÑĤÐµÑĢÐµÑģ": 1504,
      "Ð¾Ð³Ð¾Ð¹": 1505,
      "Ð°Ð»Ð¸": 1506,
      "ĠÐ¼Ñĭ": 1507,
      "ĠÐ¼Ð°Ð»": 1508,
      "ĠÑĩÐ°ÑģÑĤÑĮ": 1509,
      "Ð¶ÐµÑĤ": 1510,
      "Ð°Ð¹Ð½Ñĭ": 1511,
      "ĠÐ½Ð¾Ð²Ð¾Ð³Ð¾": 1512,
      "ÐµÑģÑĤÐ²": 1513,
      "ĠÑģÑĤÐ°ÑĤÑĮ": 1514,
      "ĠÑģÑĤÐ¾Ð¸ÑĤ": 1515,
      "Ð£Ñĩ": 1516,
      "ĠÐ¶Ð¸Ð²": 1517,
      "ĠÑħÐ¾ÑĢÐ¾ÑĪÐ¸Ðµ": 1518,
      "Ð¾Ð·ÑĮ": 1519,
      "ĠÐ·Ð°ÑĤÐ¾": 1520,
      "Ð¸Ð³ÑĢÐ°Ð»": 1521,
      "ÐĸÐ°Ð½ÑĢ": 1522,
      "ĠÐ¿Ð¾Ð»ÑĥÑĩ": 1523,
      "ÐŀÑĤÐ»Ð¸Ñĩ": 1524,
      "ĠÐ»ÐµÑĩÐ¸Ð»ÑģÑı": 1525,
      "ĠÑģÐ²Ð¾Ð¸": 1526,
      "ĠÑģÐ²Ð¾Ñĳ": 1527,
      "Ð¸ÑĩÐµÑģ": 1528,
      "ÐµÐºÑĤÐ¸Ð²": 1529,
      "ĠRuby": 1530,
      "Ð¼ÐµÐ½Ð½Ð¾": 1531,
      "ĠÐ²ÑģÑĤÑĢÐµÑĤ": 1532,
      "ĠÐ¾ÑĦÐ¾ÑĢÐ¼": 1533,
      "ÐµÑĢÑĮÑĳÐ·Ð½Ð¾": 1534,
      "ĠÐºÐ½Ð¸Ð³Ñĥ": 1535,
      "ĠÐļÐ°Ðº": 1536,
      "ĠÐ±Ð¸Ð»ÐµÑĤÑĭ": 1537,
      "ĠÑĤÐµÑħÐ½Ð¾Ð»Ð¾Ð³Ð¸Ð¸": 1538,
      "ĠÐ¿ÑĥÐ½Ðº": 1539,
      "ĠÐ¿ÑĢÐµÑģÑĤÐ¸Ð¶Ð½Ð°Ñı": 1540,
      "oyota": 1541,
      "ĠÐ´ÐµÐ´Ð»Ð°Ð¹Ð½Ñĭ": 1542,
      "MW": 1543,
      "ĸÐ´Ñĥ": 1544,
      "Ð¾ÑĤÑĮ": 1545,
      "ĠÐĸÐ´Ñĥ": 1546,
      "Ð½Ð¾Ð²": 1547,
      "ĠÐ¿Ð¸ÑĤ": 1548,
      "ĠÐ¿Ð¸Ð»Ð¾ÑĤ": 1549,
      "ĠÐ½ÑĢÐ°Ð²Ð¸ÑĤÑģÑı": 1550,
      "ÑģÑĤÐ¾ÑĢ": 1551,
      "ĠÑģÐµÐ¼": 1552,
      "ÐµÐ½Ð°": 1553,
      "ÑİÑģÑĮ": 1554,
      "ĠÐºÐ¾Ð´": 1555,
      "ÐµÑĢÑĤ": 1556,
      "ĠÑĤÐ°ÑģÐºÐ¸": 1557,
      "ÐŁÐ¾Ð¼Ð¾Ð³": 1558,
      "Ð²ÑģÑĤÐ²": 1559,
      "Ð¾Ð¼Ð°ÑĤ": 1560,
      "Ð°ÑģÑģÐºÐ°Ð·ÑĭÐ²Ð°Ð¹": 1561,
      "Ð¡Ð¼Ð¾ÑĤÑĢ": 1562,
      "Ð¡Ð¾Ð²ÐµÑĤÑĥÑİ": 1563,
      "Ð¡ÑĢÐµÐ´": 1564,
      "Ð¸Ð»Ð°Ð½": 1565,
      "ĠÐ·Ð°Ð´": 1566,
      "ÑĳÐ³": 1567,
      "Ð¸ÑĤÐµÐ»ÑĮ": 1568,
      "Ð°ÑĢÑģÑĤÐ²Ð°": 1569,
      "ĠÐ»Ñİ": 1570,
      "Ð°ÑĤÐµÐ»ÑĮ": 1571,
      "Ð¾ÐºÐ¾Ð¹": 1572,
      "Ð¾ÐºÐ°ÑĤ": 1573,
      "ĠÐ½Ð¾Ð²ÑĭÐµ": 1574,
      "ĠÑħÐ¾ÑĤÑĮ": 1575,
      "ĠÑģÑĤÑĢÐ°Ð´": 1576,
      "ĠÐ´ÐµÐ»Ð°ÐµÑĤ": 1577,
      "ÐµÐºÐ°ÑĢÑģÑĤÐ²Ð°": 1578,
      "ĠPuma": 1579,
      "ÐłÐ°Ð±Ð¾ÑĤ": 1580,
      "ĠÑģÐ²ÑıÐ·": 1581,
      "ĠÐ½ÑĥÐ¶Ð½Ñĭ": 1582,
      "ĠSony": 1583,
      "ÑĭÐ²Ð°ÐµÑĤ": 1584,
      "Ð°Ð½ÑĤÐ°ÑģÑĤ": 1585,
      "ÐĿÐ°Ð´ÑĳÐ¶": 1586,
      "ĠÐłÐ°ÑģÑģÐºÐ°Ð·ÑĭÐ²Ð°Ð¹": 1587,
      "ÑģÑĤÐ°Ð²Ð»Ñİ": 1588,
      "ĠÑĤÐµÐ»ÐµÑĦÐ¾Ð½Ñĭ": 1589,
      "ÐĳÑĥÐ´ÑĥÑīÐµÐµ": 1590,
      "ĠÑĢÐ°ÑģÑģÑĤÐ°Ð²Ð»Ñİ": 1591,
      "ĠÐľÐ¸Ð»Ð°Ð½": 1592,
      "ĠÑĩÐ¸ÑĤÐ°ÐµÑĪÑĮ": 1593,
      "ĠÐ¿Ð¾Ð¿ÑĢÐ¾Ð±Ð¾Ð²Ð°ÑĤÑĮ": 1594,
      "ĠÐ³ÑĥÐ»ÑıÑĤÑĮ": 1595,
      "ĠÑĥÑĤÑĢÐ¾": 1596,
      "ĠÐ´Ð¾Ð¼Ð°": 1597,
      "ĠÐºÑĢÐ¾ÑģÑģÐ¾Ð²": 1598,
      "ĠÐ´ÑĢÑĥÐ·ÑĮÑı": 1599,
      "ĠÐĵÐ¾ÑĤÐ¾Ð²": 1600,
      "Ð¡Ð°Ð»ÑİÑĤ": 1601,
      "ĠÐ¾ÑĦÐ¾ÑĢÐ¼Ð»Ñİ": 1602,
      "ĠÐ¿ÑĥÐ½ÐºÑĤÐ¾Ð²": 1603,
      "++": 1604,
      "an": 1605,
      "ok": 1606,
      "un": 1607,
      "ĠÐ°ÑĢ": 1608,
      "Ð¸Ð¾ÑĤ": 1609,
      "ÑĢÐ¾Ð½": 1610,
      "Ð½ÐµÐ²": 1611,
      "Ð½Ð¸Ð²ÐµÑĢ": 1612,
      "Ð»ÐµÑĤ": 1613,
      "ĠÐ¿Ð¾Ð²": 1614,
      "ĠÐ²Ð¾Ð´Ð¸ÑĤÐµÐ»ÑĮ": 1615,
      "Ð´Ð¾Ñħ": 1616,
      "ÐºÐµÑĤ": 1617,
      "ÐļÑĢÑĥÑĤ": 1618,
      "ĠÐ´Ð½Ñı": 1619,
      "ĠÐ´ÐµÑĢÐ¶": 1620,
      "ĠÐ´Ð¾ÐºÑĥÐ¼ÐµÐ½ÑĤ": 1621,
      "ĠÐºÐ¾Ð³Ð¾": 1622,
      "ĠÑĤÑĢÐµÐ½": 1623,
      "ÐŁÐ¾Ð²": 1624,
      "ÐŁÐ°Ð¿Ð°": 1625,
      "ĠÐ¸Ñħ": 1626,
      "ĠÐ¸Ð¼ÐµÐ½Ð½Ð¾": 1627,
      "ÑħÐ¸ÑĤ": 1628,
      "Ð¾Ð»Ð½": 1629,
      "ÑĢÐ°Ð³": 1630,
      "ĠÐ¼Ñĥ": 1631,
      "ĠÐ¼Ð½Ð¾Ð³Ð¾": 1632,
      "ĠÐ·Ð¸Ð¼": 1633,
      "ĠÐ·Ð°Ð±": 1634,
      "ĠÑĥÑģÑĤÐ°Ð»": 1635,
      "Ð±Ð¸": 1636,
      "ĠÑĩÐµÐ³Ð¾": 1637,
      "ĠÐµÐ³Ð¾": 1638,
      "ĠÑĢÐ°Ð±Ð¾ÑĤÐ°Ñİ": 1639,
      "ÐºÐ°Ñı": 1640,
      "Ð¥Ð¾ÑĢÐ¾ÑĪÐ°Ñı": 1641,
      "ÐĽÑĥÑĩÑĪÐµ": 1642,
      "ĠÑĢÐ°Ð·Ð²": 1643,
      "ĠÐ¿Ð¾Ð´Ð°ÑĢ": 1644,
      "ĠÐŁÐ¸Ð½Ð³": 1645,
      "ĠÐ·Ð½Ð°ÐºÐ¾Ð¼Ð¾Ð³Ð¾": 1646,
      "ĠÐ¿Ð¸ÑĪÑĥ": 1647,
      "ĠÐ¼Ð¸Ð½ÑĥÑĤ": 1648,
      "ĠÑģÐ½Ð¾Ð²Ð°": 1649,
      "ÑĥÑħÐ³Ð°Ð»": 1650,
      "ĠÐ¿Ð¾ÑĤÐ¾Ð¼": 1651,
      "ĠÐ¶Ð¸Ð·Ð½ÑĮ": 1652,
      "ĠBMW": 1653,
      "ĠÐ±Ð¾Ð»ÐµÐ·Ð½ÑĮ": 1654,
      "ĠÐ³ÑĢÐ¸Ð¿Ð¿Ð¾Ð¼": 1655,
      "ÐĹÐ°Ð¿Ð¸ÑĪ": 1656,
      "ĠÐŁÐ¸Ð½Ð³ÑĥÐ¹": 1657,
      "ÑĥÑħÐ³Ð°Ð»ÑĤÐµÑĢ": 1658,
      "Sta": 1659,
      "ia": 1660,
      "le": 1661,
      "ĠÑĢÑĥ": 1662,
      "Ð¾ÑĪÑĳÐ»": 1663,
      "Ð½ÑĤ": 1664,
      "ÑĥÑģÑĤ": 1665,
      "ĠÐ½Ð¾ÑĢÐ¼Ð°Ð»ÑĮÐ½Ð¾": 1666,
      "ÐµÐ½Ð½ÑĭÐ¹": 1667,
      "ĠÐ´Ð°Ð²Ð½Ð¾": 1668,
      "Ð¼Ð¾Ð¼": 1669,
      "ĠÐºÐµÐ¼": 1670,
      "ÐµÐ»Ð¾Ð½": 1671,
      "ÑħÐµÐ¹": 1672,
      "Ð²Ð¾ÐºÐ°ÑĤ": 1673,
      "ĠÐ¼Ð°ÑĤ": 1674,
      "ĠÐ·Ð´": 1675,
      "ĠÑĥÑģÐ¿": 1676,
      "Ð¾Ð¶ÐµÑĤ": 1677,
      "Ð°ÑĢÐ¸Ð¶": 1678,
      "ÑĢÐ°ÑģÑĤ": 1679,
      "ĠÐ»ÑĳÐ³": 1680,
      "ĠÐ¿ÑĢÐ¾Ð´": 1681,
      "Ð°ÑĤÑĭ": 1682,
      "Ð¥ÐµÐ¹": 1683,
      "ĠÐ¿Ð¾ÑģÑĤ": 1684,
      "Ð¸Ð½Ñĥ": 1685,
      "ĠÑĢÐµÐ±": 1686,
      "Ð°Ð¶ÐµÑĤÑģÑı": 1687,
      "ĠÑĤÐ°ÐºÐ¸Ðµ": 1688,
      "ĠÐ¶Ðµ": 1689,
      "ÑĥÑİÑīÐ¸Ð¹": 1690,
      "Ð°Ð²ÑĤÐ¾Ð¼": 1691,
      "ÑĢÐ¾Ð²Ð¾Ð¹": 1692,
      "ÐµÐ²Ð¸Ð·": 1693,
      "ÐļÐ»Ð°ÑģÑģÐ½Ð¾": 1694,
      "ĠÐºÐ¾Ð½ÑĨ": 1695,
      "ĠÐºÐ¾Ð½ÐµÑĩÐ½Ð¾": 1696,
      "ĠÐŁÐ¾ÑĪÑĳÐ»": 1697,
      "ĠÐŁÐ°ÑĢÐ¸Ð¶": 1698,
      "ĠÐ²ÑĢÐ°ÑĩÐ°": 1699,
      "ĠÐºÐ»Ð°ÑģÑģÐ½ÑĭÐ¹": 1700,
      "Ð¤Ð°Ð½ÑĤÐ°ÑģÑĤ": 1701,
      "Ð¾ÑĤÐµÐ»Ð°": 1702,
      "ĠÐ¼Ð¾Ð¶ÐµÑĤ": 1703,
      "ĠÐºÑĢÐ°ÑģÐ¸Ð²Ð¾": 1704,
      "ĠÑĥÐ²Ð°Ð¶": 1705,
      "ĠÐ±ÑĭÑģÑĤÑĢÑĭÐ¹": 1706,
      "ĠÑģÑĤÑĢÐ¾Ð³Ð¸Ð¹": 1707,
      "ĠÐ¥Ð¾ÑĤÐµÐ»Ð°": 1708,
      "Ð»Ð¾ÑħÐ¾": 1709,
      "ÐľÐ¾Ð»Ð¾Ð´ÐµÑĨ": 1710,
      "ĠÐ¾ÑĤÐ»Ð¸Ñĩ": 1711,
      "ĠÐĲÑĦ": 1712,
      "ĠÐ¿Ð¾Ð³Ð¾Ð´Ð°": 1713,
      "ĠÐĳÐ°ÑĢÑģÐµÐ»Ð¾Ð½": 1714,
      "ÐĴÐºÑĥÑģÐ½Ð¾": 1715,
      "ÐŁÐ¾ÑĤÐ¾Ð¼Ñĥ": 1716,
      "ĠÐ·Ð°Ð´Ð°Ñĩ": 1717,
      "ks": 1718,
      "ySta": 1719,
      "ÑĬ": 1720,
      "ķÑģÑĤÑĮ": 1721,
      "Ð¾ÑģÑĤÑĮ": 1722,
      "ĠÐķÑģÑĤÑĮ": 1723,
      "ÐµÑī": 1724,
      "ÑĢÐ°Ðº": 1725,
      "ĠÐ²ÐµÐ±": 1726,
      "ĠÐ²Ð¾ÑģÑĤ": 1727,
      "ÑĪÐ°Ð²": 1728,
      "ĠÑģÑİ": 1729,
      "ĠÑģÑħÐ¾Ð´": 1730,
      "ĠÑģÐ¾Ð²ÑĢÐµÐ¼ÐµÐ½": 1731,
      "ĠÑģÑĢÐ°Ð·": 1732,
      "ÐµÐ½Ð´": 1733,
      "ĠÐ´Ð°Ð²Ð°Ð¹": 1734,
      "Ð¾Ð²Ð°Ð½": 1735,
      "ĠÐºÐ»Ð¸": 1736,
      "ÐŁÐ¾Ð´": 1737,
      "ÐŁÐ¾Ðº": 1738,
      "Ð²Ð°ÑĤ": 1739,
      "Ð¿ÑĥÑģ": 1740,
      "ÑĳÑĢ": 1741,
      "Ð¾Ð½Ñĩ": 1742,
      "Ð°Ð½Ð¸Ð¹": 1743,
      "ĠÑĩÐ°ÑģÑĤ": 1744,
      "Ð°ÑĢÑĪÐ°Ð²": 1745,
      "Ð¶Ðµ": 1746,
      "ĠÐ»ÐµÑĤ": 1747,
      "ÑĨÐ¸Ñı": 1748,
      "ÐµÐ´ÑĥÑİÑīÐ¸Ð¹": 1749,
      "ÐµÑģÑĤÐ²Ð¾": 1750,
      "ĠÑĢÐ°Ð±Ð¾ÑĤÐµ": 1751,
      "ĠÑĢÐ°Ð±Ð¾ÑĤÑĥ": 1752,
      "ĠÑģÑĤÐ¾Ð¼Ð°ÑĤ": 1753,
      "Ð¸Ð´ÐµÑĤÑĮ": 1754,
      "Ð°Ð´Ð½Ð¾": 1755,
      "ÐľÐ½Ð¾Ð³Ð¾": 1756,
      "Ð»ÑİÑĩ": 1757,
      "ĠÑģÐ»ÐµÐ´ÑĥÑİÑīÐ¸Ð¹": 1758,
      "ĠÐ¾ÑĤÐº": 1759,
      "ÐĳÐµÐ·": 1760,
      "ĠÐ¶Ð´Ñĥ": 1761,
      "ĠÐ²ÑģÐµÑħ": 1762,
      "ĠÐ¿ÑĢÐ¸Ð²ÑĭÑĩÐºÑĥ": 1763,
      "ĠÐ»ÐµÑĩÑĥ": 1764,
      "ĠÐ·Ð½Ð°ÐºÐ¾Ð¼ÑĭÐ¹": 1765,
      "laySta": 1766,
      "ĠÐłÐ¸Ð¼": 1767,
      "ĠÐ¿Ð¾Ð»ÐµÐ·Ð½Ð¾": 1768,
      "ĠÐ²ÑģÑĤÑĢÐµÑĩ": 1769,
      "ĠÐ³Ð¾ÑĤÐ¾Ð²Ð¸ÑĪÑĮ": 1770,
      "ÐĳÐ¾Ð»ÑĮÐ½Ð¾": 1771,
      "ĠÐĴÐ°ÑĢÑĪÐ°Ð²": 1772,
      "ÑĭÑĤÐ½ÑĭÐ¹": 1773,
      "ÐĴÑĭÑģÐ¾ÐºÐ°Ñı": 1774,
      "ĠÐ´Ð¾ÑģÑĤÑĥÐ¿": 1775,
      "Ð¾Ð¶Ð´ÑĮ": 1776,
      "ĠÐ½Ð°ÑĩÐ°ÑĤÑĮ": 1777,
      "ÐŁÑĢÐ¾ÑģÑĤÐ¾Ð¹": 1778,
      "tion": 1779,
      "ÐŁÐ¾Ð»ÐµÐ·": 1780,
      "ĠÐ½Ð°Ð´ÑĳÐ¶Ð½ÑĭÐµ": 1781,
      "ĠÐ¿ÑĢÐ¾ÑĪÐ»Ð¾": 1782,
      "ÑĤÐ²ÐµÑĢÐ¶": 1783,
      "Ð£ÑĩÐ¸ÑĤÐµÐ»ÑĮ": 1784,
      "ĠÐ¾Ð±ÑģÑĥÐ´Ð¸ÑĤÑĮ": 1785,
      "ĠÐºÑĢÐ¾ÑģÑģÐ¾Ð²ÐºÐ¸": 1786,
      "ĠÐ´ÑĢÑĥÐ·ÑĮÑıÐ¼Ð¸": 1787,
      "ĠÐ¼Ð¸Ð½ÑĥÑĤÐºÐ°": 1788,
      "ÐµÐ²Ð¸Ð·Ð¾ÑĢÑĭ": 1789,
      "ĠÑģÑĢÐ°Ð·Ñĥ": 1790,
      "layStation": 1791,
      "am": 1792,
      "ar": 1793,
      "od": 1794,
      "ook": 1795,
      "Ð¦": 1796,
      "ĠF": 1797,
      "ĠÐ¯": 1798,
      "ÐµÑģÑı": 1799,
      "Ð¸Ð½Ð¾": 1800,
      "Ð¸ÑĩÐ½Ð¾": 1801,
      "ÑĢÐµÐ±": 1802,
      "Ð»ÐµÐº": 1803,
      "Ð»ÐµÐ½Ð¸Ðµ": 1804,
      "ĠÐ¿Ð¾Ð¼": 1805,
      "ĠÐ¿Ð¾Ð¿": 1806,
      "ĠÐ¿Ð¸ÑģÑĮ": 1807,
      "ĠÑģÐ¾": 1808,
      "ÐºÐ¾Ð¼": 1809,
      "ÐļÐ°ÑĢ": 1810,
      "ÐļÑĥÐ´Ð°": 1811,
      "ÐļÐ°Ð¶ÐµÑĤÑģÑı": 1812,
      "ĠÐ´Ð°Ð¼": 1813,
      "ĠÐ´Ð¾Ð³Ð¾Ð²Ð¾ÑĢ": 1814,
      "ÑĤÐ¾Ð¸ÑĤ": 1815,
      "ĠÐºÐ¾ÑĢ": 1816,
      "ĠÐºÐ°ÑĢ": 1817,
      "ĠÐºÐ¸Ð½Ð¾": 1818,
      "ÐŁÐ¾Ñģ": 1819,
      "ĠÐ¸Ð¼": 1820,
      "ĠÐ±Ð°ÑĢ": 1821,
      "ĠÐ±ÑĥÑħÐ³Ð°Ð»ÑĤÐµÑĢ": 1822,
      "Ð¾Ð³ÑĢÐ°ÑĦ": 1823,
      "Ð¾ÑĤÐ¾Ð³ÑĢÐ°ÑĦ": 1824,
      "Ð¾Ð»Ð³Ð¾": 1825,
      "ÑĢÐ°Ð¶": 1826,
      "Ð¾ÑĢÐ³": 1827,
      "Ð¡ÑĤÐ¾Ð¸ÑĤ": 1828,
      "Ð¸Ð»Ð¸": 1829,
      "Ð¸Ð»Ð¾ÑģÑĮ": 1830,
      "Ð¾Ð´ÑĤÐ²ÐµÑĢÐ¶": 1831,
      "ĠÑĩÐ°Ð¹": 1832,
      "Ð¾Ð¹Ð´": 1833,
      "ĠÐ»ÐµÐºÐ°ÑĢÑģÑĤÐ²Ð°": 1834,
      "ÐµÐ½ÑĮÐº": 1835,
      "ĠÐ¿ÑĢÐ¾Ð¿": 1836,
      "ĠÐµÐ»": 1837,
      "ĠÐ¿Ð¾Ñĩ": 1838,
      "ÐµÐ·Ð»Ð¾": 1839,
      "ÐľÐ¾ÑīÐ½ÑĭÐ¹": 1840,
      "ÐľÐ¾Ð¶ÐµÑĤ": 1841,
      "Ð¥Ð¾ÑĢÐ¾ÑĪÐ¸Ðµ": 1842,
      "Ð°Ð±Ð»ÐµÑĤ": 1843,
      "ÐłÐ°Ð·": 1844,
      "Ð¸Ð±Ð¸Ð¾ÑĤ": 1845,
      "ÐŀÑĤÐ´ÑĭÑħ": 1846,
      "ĠÐŁÐ¾Ð´ÑĤÐ²ÐµÑĢÐ¶": 1847,
      "ÑħÐ¾Ð´Ð¸": 1848,
      "ĠToyota": 1849,
      "ĠÐ¾Ð½Ð¸": 1850,
      "ĠÐºÐ°Ð¶Ð´ÑĭÐ¹": 1851,
      "ĠÐ¿Ð¾Ð½ÑıÐ»": 1852,
      "ĠÐ¸Ð½Ð¾Ð³Ð´Ð°": 1853,
      "ĠÐ°Ð½Ð°Ð»": 1854,
      "ĠÐ²Ð°Ð¶Ð½ÑĭÐµ": 1855,
      "ĠÐ·Ð°ÐºÐ°Ð·Ð°Ð»": 1856,
      "ĠÑĢÐ¾Ð´Ð¸ÑĤÐµÐ»Ð¸": 1857,
      "Ð½Ð¸ÐºÐµ": 1858,
      "ĠÑĥÐ²Ð¸Ð´ÐµÑĤÑĮ": 1859,
      "Ð¡Ð¾Ð²ÑĢÐµÐ¼ÐµÐ½Ð½ÑĭÐ¹": 1860,
      "ĠÑĤÑĢÐ¸": 1861,
      "ĠÐ²ÐºÑĥÑģÐ½Ð¾": 1862,
      "ĠÐ±ÑĭÐ²Ð°ÐµÑĤ": 1863,
      "ĠÐ¿Ð¾Ð·Ð½Ð°ÐºÐ¾Ð¼": 1864,
      "Ð£Ð´Ð¾Ð±Ð½ÑĭÐµ": 1865,
      "ÐĳÑĭÑģÑĤÑĢ": 1866,
      "ĠÐ¼Ð°Ð»ÐµÐ½ÑĮÐº": 1867,
      "ÐŀÑĤÐ»Ð¸ÑĩÐ½Ð¾Ðµ": 1868,
      "ĠÑģÐ²ÑıÐ·Ð¸": 1869,
      "ÐŁÐ¾Ð²ÐµÐ·Ð»Ð¾": 1870,
      "ĠÑĢÐ°Ð·Ð²Ð¸ÑĤÑĮ": 1871,
      "ĠÐ·Ð´Ð¾ÑĢÐ¾Ð²": 1872,
      "ĠÑĢÐµÐ±Ñĳ": 1873,
      "ĠÐºÐ¾Ð½ÑĨÐµÑĢÑĤ": 1874,
      "ĠÐ²ÐµÐ±Ð°": 1875,
      "ĠÐ²Ð¾ÑģÑĤÑĢÐµÐ±": 1876,
      "Ð¿ÑĥÑģÐº": 1877,
      "ĠÐ¿Ð¸ÑģÑĮÐ¼Ð¾Ð¼": 1878,
      "ĠÐ´Ð¾Ð³Ð¾Ð²Ð¾ÑĢÐ¸Ð¼ÑģÑı": 1879,
      "ĠÐŁÐ¾Ð´ÑĤÐ²ÐµÑĢÐ¶Ñĥ": 1880,
      "Book": 1881,
      "or": 1882,
      "sun": 1883,
      "uc": 1884,
      "ĠV": 1885,
      "ĠX": 1886,
      "ÐµÐµÑĪÑĮ": 1887,
      "Ð¸ÑĢÐ°Ñİ": 1888,
      "ÑĢÐ¾Ð´": 1889,
      "Ð½Ð¸Ð¼": 1890,
      "Ð»Ðµ": 1891,
      "ĠÐ½ÐµÑĤ": 1892,
      "ĠÐ½Ð¸Ðº": 1893,
      "Ð½Ð¾ÑģÑĤÐ¸": 1894,
      "ĠÐºÐ°Ñĩ": 1895,
      "ÐµÐ»Ð¾Ð²": 1896,
      "Ð²Ð¾ÑĢ": 1897,
      "Ð¿ÑĢÐ¸Ð²ÐµÑĤ": 1898,
      "ÐŀÐ½": 1899,
      "ÐŀÐ½Ð°": 1900,
      "Ð¾Ð¼Ð°Ð½": 1901,
      "Ð¾ÑĢÐµ": 1902,
      "Ð¡Ð¸Ð»ÑĮÐ½Ð¾": 1903,
      "ĠÐ¼ÑĥÑĩ": 1904,
      "ĠÐ¼Ð°Ð³": 1905,
      "ĠÐ¼Ð¸ÑĢ": 1906,
      "ĠÐ·Ð°Ð²": 1907,
      "ĠÑĥÐ½Ð¸Ð²ÐµÑĢ": 1908,
      "ĠÑĩÐµÑģÑĤ": 1909,
      "Ð°ÑĢÐºÐµÑĤ": 1910,
      "Ð¶ÑĥÑģÑĮ": 1911,
      "ÑĨÐ°": 1912,
      "ĠÐ¿ÑĢÐ¸Ð´": 1913,
      "Ð´Ð°ÐµÐ¼": 1914,
      "ÑīÑĥÑī": 1915,
      "ÑĢÑĥÐ´": 1916,
      "ĠÐ³Ð»": 1917,
      "ĠÐ³Ð¾Ð²Ð¾ÑĢ": 1918,
      "ĠÐ³Ð´Ðµ": 1919,
      "ÐĹÐ°Ð²": 1920,
      "ÐĹÐ°Ð²ÑĤ": 1921,
      "Ð¸Ð¼Ð°Ñİ": 1922,
      "ÐµÑģÑĤÐ¸": 1923,
      "ÐĴÐ¾": 1924,
      "ÑģÑĤÐ²Ð¾": 1925,
      "ĠÑĢÑıÐ´": 1926,
      "ÐµÐºÑĤÐ¾ÑĢ": 1927,
      "ĠÐ²ÑĭÑģÑĤÐ°Ð²": 1928,
      "ĠÐ²ÑĭÑģÐ¾ÐºÐ°Ñı": 1929,
      "Ð¸Ð·Ð°": 1930,
      "Ð°Ð±Ð¸Ð»ÑĮÐ½Ð¾": 1931,
      "ĠÑħÐ¾ÑĢÐ¾ÑĪÐµÐ³Ð¾": 1932,
      "ĠÑĥÑĩÐ¸ÑĤÐµÐ»ÑĮ": 1933,
      "ĠÐ½ÑĥÐ¶Ð½ÑĭÐµ": 1934,
      "ĠÑĨÐµÐ½ÑĤÑĢ": 1935,
      "ĠÐ³Ð¾ÑĢÐ¶ÑĥÑģÑĮ": 1936,
      "Ð¡Ð»ÑĥÑĪ": 1937,
      "ĠÐ±ÑĥÐ´Ñĥ": 1938,
      "ĠÑģÐºÐ¾Ð»ÑĮÐºÐ¾": 1939,
      "Ð¸ÑĩÐµÐ³Ð¾": 1940,
      "ÐĺÐ½Ð¶ÐµÐ½ÐµÑĢ": 1941,
      "ĠÑģÑĤÐ°ÑĢÑĤ": 1942,
      "ĠÐ¸Ð½ÑĦ": 1943,
      "ĠÐ¾Ð±ÑģÑĥÐ¶Ð´Ð°ÐµÐ¼": 1944,
      "ĠÐ¡Ð¿": 1945,
      "ĠÐ¡Ð¾Ð·Ð´": 1946,
      "ĠÐĿÐ°": 1947,
      "ĠÐ¿ÑĢÐ°Ð²Ð¸Ð»ÑĮÐ½Ð¾": 1948,
      "ĠÐ´Ð¸Ð·Ð°Ð¹Ð½ÐµÑĢ": 1949,
      "Ð°ÑĨÐ¸Ñı": 1950,
      "ÐĶÐ¾ÑĢÐ¾Ð³Ð¾": 1951,
      "ÐĺÐ½ÑĤÐµÑĢÐµÑģÐ½ÑĭÐ¹": 1952,
      "ĠÑģÐ¾ÑģÐµÐ´Ð°": 1953,
      "ĠÐĳÐµÑĢÐ»Ð¸Ð½Ðµ": 1954,
      "ĠÐ¿Ð¸Ð»Ð¾ÑĤÐ°": 1955,
      "ÑħÐ¸ÑĤÐµÐºÑĤÐ¾ÑĢ": 1956,
      "ĠÐ¼ÑĥÐ·Ñĭ": 1957,
      "ĠÐ·Ð¸Ð¼Ð¾Ð¹": 1958,
      "ÑĥÑģÑĤÐ¸Ð»": 1959,
      "ÐŁÐ¾ÐºÐ°": 1960,
      "amsun": 1961,
      "Ð¾ÑĢÐ³Ð°Ð½": 1962,
      "ĠÐ¿ÑĢÐ¾Ð¿ÑĥÑģÑĤÐ¸Ð»": 1963,
      "ĠÐ°Ð½Ð°Ð»Ð¸Ð·Ð°": 1964,
      "ĠÐ¼Ð°Ð»ÐµÐ½ÑĮÐºÐ¾Ð³Ð¾": 1965,
      "ÑīÑĥÑīÐµÐ½Ð¸Ñı": 1966,
      "ĠÑĢÑıÐ´Ð¾Ð¼": 1967,
      "ĠÐ¡Ð¾Ð·Ð´Ð°Ð¼": 1968,
      "amsung": 1969,
      "buc": 1970,
      "ed": 1971,
      "el": 1972,
      "ni": 1973,
      "rbuc": 1974,
      "ĠÐ¾Ð³": 1975,
      "ĠÐ°Ð´": 1976,
      "ĠÐ°Ð»ÑĮ": 1977,
      "ĠÐ°ÑģÑĤ": 1978,
      "ĠÐ°ÐºÑĤ": 1979,
      "ĠÐ¾ÑĢÐ³Ð°Ð½": 1980,
      "ÑĤÑĭ": 1981,
      "Ð¸Ð¾Ð½": 1982,
      "ÑĢÐ°Ð½": 1983,
      "ÑģÑĥÐ»ÑĮÑĤ": 1984,
      "Ð½Ð°Ð»": 1985,
      "ÑĭÐ»": 1986,
      "ÑıÐ½": 1987,
      "ÑĩÐµÐ¼": 1988,
      "ĠÐ½Ð°Ðº": 1989,
      "ÐĶÐ°Ð¼": 1990,
      "ÑĪÐ°Ñı": 1991,
      "ÑĪÐºÐ¾Ð¼": 1992,
      "ĠÑģÐ¾Ð²": 1993,
      "ÐµÑĤÐ°": 1994,
      "ÐµÐ½Ð¸": 1995,
      "ÐµÐ½Ð½Ð¾": 1996,
      "ÐµÐ½Ð¸Ñİ": 1997,
      "ÐļÐ¾Ð³Ð´Ð°": 1998,
      "ÐļÐ°Ð¶Ð´": 1999,
      "ÐļÐ°Ð¼ÐµÑĢÑĭ": 2000,
      "ĠÐ´ÐµÑĢ": 2001,
      "Ð¼Ð°ÑĨ": 2002,
      "ÐµÑĢÐ°Ð¿": 2003,
      "ÐŁÐ»": 2004,
      "ÐŁÐ¾Ð·Ð´": 2005,
      "ÑħÐ²Ð°ÑĤ": 2006,
      "Ð¡ÐµÑĢÑĮÑĳÐ·Ð½Ð¾": 2007,
      "ĠÐ·Ð°ÑĢ": 2008,
      "Ð¾Ð´Ð°ÑĢ": 2009,
      "Ð±Ð¾Ð¼": 2010,
      "Ð§Ð°ÑģÑĤ": 2011,
      "Ð¾Ð½Ð¾Ð¼": 2012,
      "ĠÑĩÐ°ÑĤ": 2013,
      "ĠÑĩÐµÐ»Ð¾Ð²": 2014,
      "Ð°ÑĢÑĤ": 2015,
      "Ð°ÑĢÐ¾Ð²Ð°": 2016,
      "Ð°ÑĢÐ¼Ð°ÑĨ": 2017,
      "Ð¶Ð¸Ð»": 2018,
      "Ð°Ð¼ÐµÑĢÐ°": 2019,
      "ĠÐ»Ð¸": 2020,
      "ÐµÐ½ÑĮÐºÐ¾": 2021,
      "ÑĨÐµ": 2022,
      "ÐµÑģÐ½Ñİ": 2023,
      "ĠÐ¿ÑĢÐµÐ´": 2024,
      "ĠÐ±ÑĭÑģÑĤÑĢÐ¾": 2025,
      "ÐĺÐ³": 2026,
      "Ð¾ÑĢÐ¾ÑĪÐµÐ³Ð¾": 2027,
      "Ð¾ÐºÐ¸": 2028,
      "ĠÐ³Ð¸Ð´": 2029,
      "ÐĴÐµÑģ": 2030,
      "ÐĴÐ¾Ñģ": 2031,
      "Ð¸Ð´ÑĥÑİ": 2032,
      "ĠÑĢÐµÐ¶": 2033,
      "Ð°Ð·Ð¸Ð½": 2034,
      "ĠÐ¾ÑĤÐ¿ÑĥÑģÐº": 2035,
      "ĠÑģÐ¿Ð°ÑģÐ¸Ð±Ð¾": 2036,
      "ĠÑĦÐ¾ÑĤÐ¾Ð³ÑĢÐ°ÑĦ": 2037,
      "ÐĽÐµÑĩ": 2038,
      "hone": 2039,
      "ĠÐ·Ð°ÑħÐ²Ð°ÑĤ": 2040,
      "ĠÐ¾ÑīÑĥÑīÐµÐ½Ð¸Ñı": 2041,
      "ĠSamsung": 2042,
      "ĠÐ¿Ð¾ÐºÐ°Ð·ÑĭÐ²": 2043,
      "ĠÐŁÑĢÐ°Ð³": 2044,
      "Ð¡Ð»Ð°Ð±": 2045,
      "ÑħÐ¾Ð´Ð¸ÑĤ": 2046,
      "ĠÐĶÐ°": 2047,
      "Ð°Ð»ÑĮÐ½ÑĭÐ¹": 2048,
      "Ð¸ÑĢÐ¾Ð²Ð°ÑĤÑĮ": 2049,
      "Ð°Ð³Ð¾Ð´Ð°ÑĢ": 2050,
      "ĠÐ½Ð°Ð·Ð°Ð´": 2051,
      "ĠÐ¸Ð½Ð¶ÐµÐ½ÐµÑĢ": 2052,
      "ĠÐ²Ð°Ð¶Ð½Ð¾": 2053,
      "ĠÐ·Ð°ÐºÐ¾Ð½Ñĩ": 2054,
      "ĠiP": 2055,
      "ĠMacBook": 2056,
      "ĠÐ¿Ð¾Ð»ÐµÐ·Ð½ÑĭÐµ": 2057,
      "ĠÑĤÐµÑħÐ½Ð¸ÐºÐ°": 2058,
      "ĠÐ¿Ð¾ÑģÐ»ÑĥÑĪ": 2059,
      "ĠÐ±ÑĭÑģÑĤÑĢÐµÐ½ÑĮÐºÐ¾": 2060,
      "ĠÐ²ÑĭÐ±Ð¾ÑĢ": 2061,
      "ĠÐ¥Ð¾ÑĢÐ¾ÑĪÐµÐ³Ð¾": 2062,
      "Ð¡ÑĤÐ°Ð±Ð¸Ð»ÑĮÐ½Ð¾": 2063,
      "ĠÑģÐ»ÑĥÑĪÐ°Ð»": 2064,
      "ĠÐ½ÐµÐ´ÐµÐ»Ñİ": 2065,
      "ĠÑģÐ°Ð¹ÑĤÐ¾Ð²": 2066,
      "ĠÑģÐµÐ¼ÑĮ": 2067,
      "ĠÐĳÐ°ÑĢÑģÐµÐ»Ð¾Ð½Ñĥ": 2068,
      "ĠÑģÑĤÐ¾Ð¼Ð°ÑĤÐ¾Ð»Ð¾Ð³Ð°": 2069,
      "ÐŁÐ¾Ð»ÐµÐ·Ð½Ð¾": 2070,
      "ode": 2071,
      "ĠÐ¿Ð¾Ð·Ð½Ð°ÐºÐ¾Ð¼Ð¸ÑĤÑĮÑģÑı": 2072,
      "ÐĳÑĭÑģÑĤÑĢÑĭÐ¹": 2073,
      "ĠÐºÐ¾Ð½ÑĨÐµÑĢÑĤÐµ": 2074,
      "ĠÐ¼ÑĥÑĩÐ°ÐµÑĤ": 2075,
      "ĠÐ¼Ð°Ð³Ð°Ð·Ð¸Ð½": 2076,
      "ĠÐ²ÑĭÑģÑĤÐ°Ð²ÐºÐµ": 2077,
      "ĠÐ¡Ð¿Ð°ÑģÐ¸Ð±Ð¾": 2078,
      "rbucks": 2079,
      "ĠÐ°Ð»ÑĮÐ±Ð¾Ð¼": 2080,
      "ĠÑĩÐµÐ»Ð¾Ð²ÐµÐº": 2081,
      "Ð°ÑĢÐ¼Ð°ÑĨÐµÐ²ÑĤ": 2082,
      "ata": 2083,
      "vo": 2084,
      "ĠÐ°Ð¹": 2085,
      "ĠÐ°ÑĤ": 2086,
      "ĠÐ¾Ðº": 2087,
      "ĠÐ°Ð½ÑĤ": 2088,
      "ĠÐ¢": 2089,
      "Ð¸ÑħÐ¾Ð´Ð¸": 2090,
      "ÑģÐ¸": 2091,
      "Ð»ÐµÑĢ": 2092,
      "ÑĩÐ¸": 2093,
      "ÑĩÐ¸Ðº": 2094,
      "ĠÐ¿ÐµÑģÐ½Ñİ": 2095,
      "ÐĶÐµÑĤ": 2096,
      "ÐĶÐ¾Ð»Ð³Ð¾": 2097,
      "ĠÑģÑĩ": 2098,
      "ÐµÐ½Ð¸Ð¹": 2099,
      "ÐºÐ¸Ðµ": 2100,
      "ÐļÐ¾Ð¼": 2101,
      "Ð¢Ð°Ðº": 2102,
      "ĠÐ´ÐµÐ¹": 2103,
      "Ð¼Ðµ": 2104,
      "Ð¼Ð¾Ñģ": 2105,
      "ÐŁÑĮÑİ": 2106,
      "ĠÐ¸ÑģÐº": 2107,
      "ĠÐ¸ÑģÑĤÐ¾ÑĢ": 2108,
      "ÐĲÐ½ÑĤ": 2109,
      "Ð¾ÑĤÐµÐº": 2110,
      "Ð¿ÑĢ": 2111,
      "ÐĿÐ°Ð²": 2112,
      "Ð¡ÑĥÐ¿": 2113,
      "ĠÐ¼Ð¾Ð´": 2114,
      "ĠÐ¼Ð°Ð¼": 2115,
      "ĠÐ·Ð²": 2116,
      "ĠÐ·Ð°Ð¼": 2117,
      "ĠÑĥÐ´": 2118,
      "ĠÑĥÐ³": 2119,
      "Ð°Ð½Ð¸Ðº": 2120,
      "Ð°Ð½Ð½ÑĭÑħ": 2121,
      "Ð¸ÑĤÐ°Ñİ": 2122,
      "ĠÐ½Ð°ÑģÑĤ": 2123,
      "ĠÐ¿ÑĢÐ¾ÐµÐº": 2124,
      "ĠÐ¿ÑĢÐ¾ÑĪÑĳÐ»": 2125,
      "Ð¸ÐºÑĥ": 2126,
      "ĠÐ¿ÑĢÐ¾Ð³": 2127,
      "ĠÐ¿Ð¾Ñħ": 2128,
      "Ð°ÐµÑĪÑĮÑģÑı": 2129,
      "ÐľÐ½Ðµ": 2130,
      "Ð¸ÑģÐ°ÑĤÑĮÑģÑı": 2131,
      "ÐºÐ¾Ðµ": 2132,
      "ĠÑģÐ»Ð¾Ð¶Ð½Ð¾": 2133,
      "ĠÐ²ÑĭÐ¸Ð³ÑĢÐ°Ð»": 2134,
      "Ð£Ð¶Ðµ": 2135,
      "ĠÐ¾Ð±ÐµÐ´": 2136,
      "ĠÐ¾Ð±Ð½Ð¾Ð²": 2137,
      "Ð¾ÑģÐ¼Ð¾Ð½": 2138,
      "ĠÐ²ÑģÐµ": 2139,
      "ÐµÐ¿Ð°ÑĢ": 2140,
      "Ð¸Ð»ÑĮÐ½ÑĭÐ¹": 2141,
      "ĠÐ¸Ð·ÑĥÑĩ": 2142,
      "ĠÐ²ÐµÑĩÐµÑĢÐ°": 2143,
      "ĠSta": 2144,
      "ĠÐ¿ÑĢÐ¸Ð²ÑĭÑĩÐºÐ¸": 2145,
      "ÐŁÑĢÐ¸ÑħÐ¾Ð´Ð¸": 2146,
      "ĠÐ¸Ð³ÑĢ": 2147,
      "ĠÐ¸Ð³ÑĢÐ°": 2148,
      "ĠÐ¸Ð³ÑĢÐ¾Ð²Ð¾Ð¹": 2149,
      "ĠÐ±ÑĥÐ´ÐµÑĪÑĮ": 2150,
      "Ð¸ÑĨÐµÐ¹": 2151,
      "Ð¤Ð°ÑĢÐ¼Ð°ÑĨÐµÐ²ÑĤ": 2152,
      "ĠÐ´Ð¾ÑĢÐ¾Ð³Ð¾Ð¹": 2153,
      "ÐµÐ¶Ð¸Ð²": 2154,
      "ÑĩÐ¸ÑĤÐ°ÑĤÑĮ": 2155,
      "ĠÐ±Ð¾Ð»ÑĮÑĪ": 2156,
      "ĠÑģÑĤÐ°ÑĢÐ°ÑİÑģÑĮ": 2157,
      "ĠÐ¿ÐµÑĢÐµÐ¶Ð¸Ð²": 2158,
      "ÐłÐµÐ³ÑĥÐ»ÑıÑĢÐ½ÑĭÐµ": 2159,
      "ĠÐ¿Ð¾Ð½ÑĤÐ¾Ð²": 2160,
      "ĠÑĤÐµÐ»ÐµÐ²Ð¸Ð·Ð¾ÑĢÑĭ": 2161,
      "ÐµÑĪÐµÑģÑĤÐ²": 2162,
      "ĠÑĪÐº": 2163,
      "ĠÐ²ÐµÑĢÐ½Ð¾": 2164,
      "ĠÑģÐµÐ±Ðµ": 2165,
      "ÐŀÐ¿ÑĭÑĤÐ½ÑĭÐ¹": 2166,
      "ĠÐ¾ÑĦÐ¸Ñģ": 2167,
      "Ð½ÐºÐ¾Ð¼": 2168,
      "ÐĳÐ¾Ð»ÐµÐ»": 2169,
      "ĠÐ·Ð°Ð¿Ð¸ÑģÐ°ÑĤÑĮÑģÑı": 2170,
      "ĠÐ³ÑĥÐ»ÑıÐ»": 2171,
      "ĠÐºÐ¾Ð¼Ð°Ð½": 2172,
      "ÐĿÑĥÐ¶Ð½Ð°": 2173,
      "ĠÐ²ÑĭÑħÐ¾Ð´Ð½ÑĭÐµ": 2174,
      "ĠÐ²ÑĭÑħÐ¾Ð´Ð½ÑĭÑħ": 2175,
      "ĠÐ·Ð°Ð½Ð¸Ð¼Ð°ÐµÑĪÑĮÑģÑı": 2176,
      "ĠÑģÐ¾Ð±Ð¾Ð¹": 2177,
      "ĠÐ±Ð»Ð°Ð³Ð¾Ð´Ð°ÑĢ": 2178,
      "ÑĢÐ°ÑĦÐ¸ÐºÐ°": 2179,
      "ĠÐ²ÐµÑģÐµÐ»Ð¾": 2180,
      "ĠÑģÐ¾ÑģÐµÐ´": 2181,
      "ÑĢÐ°Ð²Ð»ÑıÑİ": 2182,
      "ĠÐ¿ÑĥÑĤÐµÑĪÐµÑģÑĤÐ²": 2183,
      "ĠÑĤÐ²Ð¾ÐµÐ³Ð¾": 2184,
      "ĠÐ¾ÑģÐ¾Ð±": 2185,
      "Ð¾Ð·ÑĮÐ¼Ð¸": 2186,
      "ĠÐ²ÑģÑĤÑĢÐµÑĤÐ¸Ð¼ÑģÑı": 2187,
      "ĠÐ¿Ð¸ÑĤÐ°Ð½Ð¸Ðµ": 2188,
      "ĠÐ»ÑİÐ´Ð¸": 2189,
      "++?": 2190,
      "ĠÐ°ÑĢÑħÐ¸ÑĤÐµÐºÑĤÐ¾ÑĢ": 2191,
      "Ð´Ð¾ÑħÐ½": 2192,
      "ĠÐ´ÐµÑĢÐ¶Ð¸ÑĤÑģÑı": 2193,
      "ĠÑĤÑĢÐµÐ½Ð¸ÑĢÐ¾Ð²": 2194,
      "Ð¾Ð»Ð½ÐµÑĩÐ½Ð¾": 2195,
      "ĠÐ¿ÑĢÐ¾Ð´ÑĥÐº": 2196,
      "Ð¤Ð°Ð½ÑĤÐ°ÑģÑĤÐ¸ÐºÐ°": 2197,
      "ĠÑģÑİÐ¶ÐµÑĤ": 2198,
      "ĠÑģÑħÐ¾Ð´Ð¸ÑĤÑĮ": 2199,
      "Ð¦ÐµÐ½Ð°": 2200,
      "ĠÐºÐ¾ÑĢÑĮÑİ": 2201,
      "ÐłÐ°Ð·Ð½ÑĭÐµ": 2202,
      "ĠÑĢÐµÐ±ÑĳÐ½ÐºÐ¾Ð¼": 2203,
      "ĠÐ²Ð¾ÑģÑĤÑĢÐµÐ±Ð¾Ð²Ð°Ð½": 2204,
      "Ð°ÑĢÐºÐµÑĤÐ¾Ð»Ð¾Ð³": 2205,
      "ĠÐ´ÐµÑĢÐ±Ð¸": 2206,
      "ÐŁÐ¾Ð·Ð´ÑĢÐ°Ð²Ð»ÑıÑİ": 2207,
      "ĠÐ·Ð°ÑħÐ²Ð°ÑĤÑĭÐ²Ð°ÐµÑĤ": 2208,
      "ĠÐ·Ð°ÐºÐ¾Ð½ÑĩÐ¸Ð»": 2209,
      "ĠÐ°Ð¹ÑĦÐ¾Ð½": 2210,
      "ÐĶÐµÑĤÐµÐºÑĤÐ¸Ð²": 2211,
      "ĠÐ´ÐµÐ¹ÑģÑĤÐ²": 2212,
      "Ð¾ÑģÐ¼Ð¾Ð½Ð°Ð²ÑĤÐ¾Ð¼": 2213,
      "ĠStarbucks": 2214,
      "SU": 2215,
      "Uni": 2216,
      "at": 2217,
      "js": 2218,
      "Ð®": 2219,
      "Ġ2": 2220,
      "Ġ3": 2221,
      "ĠÐ°Ð»": 2222,
      "ĠÑĢÐ°ÑģÑĤ": 2223,
      "ĠUni": 2224,
      "ÐµÐ°Ð»": 2225,
      "ÑĤÐ°": 2226,
      "ÑĥÐ²ÑģÑĤÐ²": 2227,
      "ÑĭÐ±": 2228,
      "ÑıÑģ": 2229,
      "ÑıÐ¼": 2230,
      "ÑıÑİÑģÑĮ": 2231,
      "ĠÐ¿ÑĢÐ¸Ð²ÐµÑĤ": 2232,
      "ĠÐ¿Ð¸ÑĤÑĮ": 2233,
      "ĠÐ¿Ð¸ÑĨ": 2234,
      "ĠÐ½Ð¸Ñħ": 2235,
      "ĠÐ²Ð½Ð¸Ð¼": 2236,
      "Ð´ÐµÑĢÐ¶": 2237,
      "ĠÑģÐ´": 2238,
      "ĠÑģÐ¸Ñħ": 2239,
      "ÐºÐ¾Ð²": 2240,
      "ÐºÐ»ÑİÑĩ": 2241,
      "ĠÐ´Ð°Ñĩ": 2242,
      "ĠÐ´Ð¾Ð¶Ð´ÑĮ": 2243,
      "ÑĢÐ¾ÑģÑĤ": 2244,
      "Ð¾Ð²ÑĭÐµ": 2245,
      "Ð¼Ð°": 2246,
      "ĠÐºÐ°Ð¼ÐµÑĢÑĭ": 2247,
      "ĠÐºÐ°Ð¼ÐµÑĢÐ°": 2248,
      "ÐµÐ»ÐµÐ¼": 2249,
      "ÐµÑĢÐ²": 2250,
      "ÐµÑĢÐµÐ´": 2251,
      "ĠÑĤÐµÐ¼Ð¿ÐµÑĢÐ°ÑĤÑĥÑĢÐ°": 2252,
      "ĠÑĤÑĢÑĥÐ´": 2253,
      "ÐŁÐ¾Ð¿": 2254,
      "ÐĲÐºÑĤ": 2255,
      "Ð¾ÑĤÐ°": 2256,
      "Ð°Ð»ÐµÐ½Ð¸Ðµ": 2257,
      "Ð²Ð°ÑĢ": 2258,
      "Ð²Ð¾Ð¹": 2259,
      "ÐĿÑĢÐ°Ð²Ð¸ÑĤÑģÑı": 2260,
      "ÑĢÐ°Ð±Ð¾ÑĤ": 2261,
      "Ð¡ÐµÐ³Ð¾Ð´Ð½Ñı": 2262,
      "ĠÐ¼ÐµÐ´": 2263,
      "ĠÐ¼ÐµÑģÑĤ": 2264,
      "ĠÐ¼ÐµÐ´Ð»": 2265,
      "ÑĳÐ½": 2266,
      "Ð¾Ð½ÑĤ": 2267,
      "Ð¾Ð¶Ñĥ": 2268,
      "Ð¸ÑĤÐ¸Ð²": 2269,
      "ĠÑĩÐ¸ÑģÑĤ": 2270,
      "ĠÐ¿ÑĢÐ¾ÑīÐµ": 2271,
      "ĠÐ¿ÑĢÐ¾Ð¸Ð³ÑĢÐ°Ð»": 2272,
      "Ð°Ð¼ÐµÐ½": 2273,
      "Ð»Ð¸ÑĪÐºÐ¾Ð¼": 2274,
      "Ð»ÑıÐµÑĤ": 2275,
      "ÐµÐ´ÐºÐ¾": 2276,
      "ĠÐ¿ÑĢÐ¸Ð½": 2277,
      "ÐĴÐ¾Ð·ÑĮÐ¼Ð¸": 2278,
      "ĠÐ±Ð¾Ð»Ð¸": 2279,
      "ĠPlayStation": 2280,
      "Ð¾ÑĩÐµÑĪÑĮ": 2281,
      "ĠÑģÐ»ÑĥÑĩ": 2282,
      "ĠÐ²ÑĭÐ¶Ð¸Ð»": 2283,
      "ÑĥÑĩÑĪ": 2284,
      "ĠÐ¾Ð±ÐµÐ´Ð°": 2285,
      "ĠÑģÐ¿Ð°Ñģ": 2286,
      "ĠÑģÐ¿Ð¾ÐºÐ¾Ð¹": 2287,
      "ĠÐ¶Ð¸ÑĤÑĮ": 2288,
      "ĠÑĦÐ¾ÑĢÐ¼": 2289,
      "ÑĢÐ°ÑģÐ¾ÑĤÐ°": 2290,
      "ĠÑįÐ»ÐµÐº": 2291,
      "ĠÑĥÑĩÐ¸ÑĤÑĮÑģÑı": 2292,
      "ÐĿÐ°Ñĩ": 2293,
      "ĠÑĢÐ°Ð·Ð½ÑĭÐµ": 2294,
      "ÐĹÐ´Ð¾ÑĢÐ¾Ð²": 2295,
      "ÐĹÐ´Ð°ÑĢÐ¾Ð²Ð°": 2296,
      "Ð¾ÑĩÑĥÐ²ÑģÑĤÐ²": 2297,
      "ĠÑĨÐµÐ½Ñĭ": 2298,
      "ĠASU": 2299,
      "Ð½ÑıÑı": 2300,
      "ÐĹÐ°ÑĩÐµÐ¼": 2301,
      "Ð¡Ð»Ð¾Ð¶": 2302,
      "ÐµÑħÐ°Ð½Ð¸Ðº": 2303,
      "ÐļÑĢÐ°ÑģÐ¸Ð²ÑĭÐµ": 2304,
      "ĠÐ¿Ð°ÑĢÐº": 2305,
      "Ð¤ÑĥÑĤÐ±Ð¾Ð»": 2306,
      "ĠÐ´Ð¾ÑĢÐ¾Ð³": 2307,
      "Ð¸ÑĢÑĥÑĢ": 2308,
      "Ð¡ÐºÐ¾Ð»ÑĮÐºÐ¾": 2309,
      "ĠÐ¿Ð¾Ð½ÑĢÐ°Ð²": 2310,
      "ĠÐºÐ¾ÑĪ": 2311,
      "ĠÑģÐµÑĢÐ´": 2312,
      "ĠNode": 2313,
      "Ð½Ð¸ÑĨÐµÐ¹": 2314,
      "ĠÐ°Ð²ÑĤÐ¾ÑĢ": 2315,
      "ĠÐ²Ð·ÑıÑĤÑĮ": 2316,
      "ĠÐ¿ÑĢÐ¾Ð³ÑĢÐ°Ð¼Ð¼Ð¸ÑģÑĤÐ°": 2317,
      "ĠÐ¿ÑĢÐ°Ð²Ð´Ð°": 2318,
      "ĠÑĥÐ´Ð¾Ð±Ð½Ð¾": 2319,
      "ĠÑĥÐ»ÑĭÐ±": 2320,
      "ĠÐ±ÑĭÐ²Ð°ÑİÑĤ": 2321,
      "ĠÐºÐ¾Ð¼Ð¿": 2322,
      "ÐĶÐ¾ÑĢÐ¾Ð³Ð¾Ð¹": 2323,
      "ĠÐ·Ð°Ð½Ð¸Ð¼Ð°ÐµÑĤÑģÑı": 2324,
      "ĠÐ¿Ð¾ÑģÐ¼Ð¾ÑĤÑĢÐµÑĤÑĮ": 2325,
      "ÐŁÑĢÐ¾ÑģÑĤÐ¾": 2326,
      "ĠÐĳÐµÑĢÐ»Ð¸Ð½": 2327,
      "ĠÐ½ÐµÐ¿Ð»Ð¾ÑħÐ¾": 2328,
      "ĠÑģÑĤÐ¸Ð»ÑĮÐ½ÑĭÐ¹": 2329,
      "Ð¿Ð»Ð°ÑĤ": 2330,
      "ĠÐ²ÑĢÐµÐ¼Ñı": 2331,
      "ĠÐºÑĢÑĥÑĤÐ¾Ð¹": 2332,
      "Ð£ÑĩÑĥÑģÑĮ": 2333,
      "ĠÐ¿Ð¾Ð»ÑĥÑĩÐ¸ÑĤÑģÑı": 2334,
      "ĠÐºÐ¾Ð´Ð¸ÑĪÑĮ": 2335,
      "ÐŁÐ¾Ð¼Ð¾Ð³Ð°ÐµÑĤ": 2336,
      "Ð¡Ð¼Ð¾ÑĤÑĢÑİ": 2337,
      "ÐļÑĢÑĥÑĤÐ°Ñı": 2338,
      "ĠÐ¿Ð¾Ð´Ð°ÑĢÐ¸Ð¼": 2339,
      "ĠÐºÐ»Ð¸Ð½Ð¸ÐºÐµ": 2340,
      "ĠÑĩÐ°ÑģÑĤÐ¾": 2341,
      "ĠÐ¸Ð¼Ð¼Ñĥ": 2342,
      "Ð¾Ð¹Ð´ÑĳÐ¼": 2343,
      "ĠÐ°Ð´Ð²Ð¾ÐºÐ°ÑĤ": 2344,
      "ĠÐ°ÑģÑĤÐ¼Ñĥ": 2345,
      "ĠÐ¾ÑĢÐ³Ð°Ð½Ð¸Ð·": 2346,
      "ĠiPhone": 2347,
      "Ð¡ÑĤÐ°Ð±Ð¸Ð»ÑĮÐ½Ð¾ÑģÑĤÑĮ": 2348,
      "ÐļÐ¾Ð¼ÐµÐ´": 2349,
      "ĠÐ¸ÑģÐºÑĥÑģ": 2350,
      "ÐĲÐ½ÑĤÐ¸Ð±Ð¸Ð¾ÑĤ": 2351,
      "ĠÐ¿ÑĢÐ¾ÐµÐºÑĤÐ¾Ð²": 2352,
      "ĠÐ¿ÑĥÑĤÐµÑĪÐµÑģÑĤÐ²Ð¸Ñı": 2353,
      "ĠÐ¼ÐµÐ´Ð»ÐµÐ½Ð½ÑĭÐ¹": 2354,
      "ĠASUS": 2355,
      "ci": 2356,
      "da": 2357,
      "gle": 2358,
      "ovo": 2359,
      "ogle": 2360,
      "Ð¨": 2361,
      "ĠI": 2362,
      "Ð½ÐµÑģ": 2363,
      "Ð½ÑĥÑİ": 2364,
      "Ð½Ð¸ÐºÐ¸": 2365,
      "ÑĭÐ½": 2366,
      "ÑĭÐ¼": 2367,
      "ÑĮÐµÑĢ": 2368,
      "ÑĩÐµÑģ": 2369,
      "ÑĩÑĥÑĤÑĮ": 2370,
      "ĠÐ½Ð¸ÑĩÐµÐ³Ð¾": 2371,
      "ĠÐ½ÐµÑĢÐ²": 2372,
      "ÑģÑĤÐ°": 2373,
      "ÑģÑĤÐ°Ð½": 2374,
      "ÐĶÑĢÐ°Ð¼": 2375,
      "ĠÐ²Ð¾Ð·": 2376,
      "ĠÐ²Ð¾Ð·ÑĮ": 2377,
      "ĠÐ²ÐµÑī": 2378,
      "ĠÑģÐ¾Ð³Ð»Ð°ÑģÐµÐ½": 2379,
      "ĠÑģÐµÑĢÑĮÑĳÐ·": 2380,
      "ĠÑģÑĥÐ±": 2381,
      "ĠÑģÐµÑĢÑĮÑĳÐ·Ð½Ð¾": 2382,
      "ÐµÐ½Ð·": 2383,
      "ÐµÐ½ÑĤÐ¾Ð²": 2384,
      "ÐºÐ°Ð¼Ð¸": 2385,
      "ÐļÐ¾": 2386,
      "ÐļÑĥÐ¿": 2387,
      "ÐļÐ¾ÑģÐ¼Ð¾Ð½Ð°Ð²ÑĤÐ¾Ð¼": 2388,
      "Ð¢ÐµÐ¿ÐµÑĢÑĮ": 2389,
      "ĠÐ´ÑĥÑĪ": 2390,
      "ĠÐ´Ð°Ð½Ð½ÑĭÑħ": 2391,
      "Ð¼Ð¾ÑĢ": 2392,
      "ĠÐºÐ°": 2393,
      "ĠÐºÑĥÑģ": 2394,
      "ĠÐºÐ²Ð°ÑĢ": 2395,
      "ÐµÑĢÐ½Ð¾": 2396,
      "ĠÑĤÑıÐ¶ÐµÐ»Ð¾": 2397,
      "ĠÑĤÐµÐ¼Ð¿ÐµÑĢÐ°ÑĤ": 2398,
      "ÐŁÑĢÐ°Ð²": 2399,
      "ÐŁÐ°ÑģÑĤ": 2400,
      "ĠÐ¸ÑģÑĤ": 2401,
      "ĠÐ±ÐµÑģ": 2402,
      "ĠÐ±Ð°ÑĤ": 2403,
      "ĠÐ±ÐµÐ½Ð·": 2404,
      "Ð¾ÑĤÐµ": 2405,
      "Ð¾ÑĤÑĥ": 2406,
      "Ð¾Ð»Ðµ": 2407,
      "Ð¾Ð»ÐµÐ²": 2408,
      "Ð¿Ð°Ð»ÐµÐ½Ð¸Ðµ": 2409,
      "ÐĿÐ¾ÑĢÐ¼": 2410,
      "Ð¾Ð¼Ð½": 2411,
      "Ð¾Ð¼Ð±": 2412,
      "Ð¡ÑĤÑĢ": 2413,
      "ĠÐ¼Ð¾": 2414,
      "ĠÐ¼ÐµÐ½": 2415,
      "ĠÐ¼ÑĥÐ´": 2416,
      "ĠÐ¼Ð¾Ð·": 2417,
      "ĠÐ¼Ð¾Ñī": 2418,
      "ĠÐ¼ÐµÑģÑı": 2419,
      "ĠÐ¼Ð¾ÑĢÐµ": 2420,
      "ĠÐ·Ð²ÑĥÑĩÐ¸ÑĤ": 2421,
      "ÑĳÐ¿Ð»": 2422,
      "Ð±Ð¾ÑĤÑĥ": 2423,
      "Ð§ÐµÑģÑĤ": 2424,
      "Ð§ÑĥÑĤÑĮ": 2425,
      "Ð§Ð°ÐµÐ¼": 2426,
      "Ð¾Ð½Ðµ": 2427,
      "Ð¸ÑĤÐ²Ð¾ÑĢ": 2428,
      "Ð¾Ð±Ñĭ": 2429,
      "ĠÑĩÑĥÐ¶": 2430,
      "ĠÐ½Ð°ÑĪ": 2431,
      "Ð°ÑĢÐµÑı": 2432,
      "ÑĨÑĥ": 2433,
      "Ð¸ÐºÐ°Ð¼Ð¸": 2434,
      "ĠÐ¿ÑĢÐ¸Ð»": 2435,
      "Ð°ÑĤÑı": 2436,
      "ÐĺÑģÑĤÐ¾ÑĢ": 2437,
      "ĠÐ³Ð°": 2438,
      "ĠÐ³ÑĢÐ°ÑĦÐ¸ÐºÐ°": 2439,
      "Ð¸Ð¼Ð°ÐµÑĤ": 2440,
      "ĠÑħÐ¾Ð´": 2441,
      "ÐµÑģÑĤÑĮ": 2442,
      "ĠÑĢÐ°Ð±Ð¾ÑĤÐ°ÑĤÑĮ": 2443,
      "ĠÑģÑĤÑĢÐ°": 2444,
      "ÑģÑĤÐ²Ð¸Ðµ": 2445,
      "ĠÑĢÐ°Ð½": 2446,
      "ĠÑĢÐµÐ·": 2447,
      "ĠÑĢÐµÑĪ": 2448,
      "ĠÑĢÑĭÐ½": 2449,
      "ĠÐ±Ð¾Ð»ÐµÐµÑĪÑĮ": 2450,
      "ÑĥÐ´ÑĮ": 2451,
      "ÐľÐ°ÑĢÐºÐµÑĤÐ¾Ð»Ð¾Ð³": 2452,
      "ĠÑģÐ»Ð¾Ð¶": 2453,
      "Ð°Ð·Ð¾Ñħ": 2454,
      "ĠÐ²ÑĭÑĢÐ¾Ñģ": 2455,
      "ĠÐ¾Ð±Ð°": 2456,
      "ĠÑģÐ¿Ð¾ÑĢ": 2457,
      "ĠÐ¶Ð°Ð½ÑĢ": 2458,
      "Ð¸ÑģÑĤÐ¾Ð¼": 2459,
      "ĠÑĦÐ¸Ð·": 2460,
      "ĠÑħÐ¾ÑĢÐ¾ÑĪÐ°Ñı": 2461,
      "ĠÑĨÐ²": 2462,
      "ÐµÐ¿ÑĤ": 2463,
      "ÑıÑĤÑģÑı": 2464,
      "ĠÐ¸Ð·Ð¼ÐµÐ½": 2465,
      "ÐĵÐ¾Ð²Ð¾ÑĢ": 2466,
      "ĠÐ¿Ð¾Ð´Ð´ÐµÑĢÐ¶": 2467,
      "ĠSci": 2468,
      "ÑģÐºÐ¸Ð¹": 2469,
      "ÐŁÑĢÐ¾Ð³ÑĢÐ°Ð¼Ð¼Ð¸ÑģÑĤ": 2470,
      "ĠÐ±ÑĥÐ´ÐµÐ¼": 2471,
      "ĠÑģÐ°Ð¼Ð¾ÑĩÑĥÐ²ÑģÑĤÐ²": 2472,
      "ĠÐ¿Ð»Ð°Ñĩ": 2473,
      "ĠÐ²ÑĢÐ°ÑĩÐ¾Ð¼": 2474,
      "Ð¸Ð¶Ñĥ": 2475,
      "ĠCan": 2476,
      "ÑĥÑĢÐ½Ð°Ð»": 2477,
      "ÐŁÑĢÐ¾ÑīÐµ": 2478,
      "Ð·Ð´Ð¾ÑĢÐ¾Ð²": 2479,
      "ÐłÐµÐ³ÑĥÐ»ÑıÑĢÐ½Ð°Ñı": 2480,
      "ĠLen": 2481,
      "ĠÐºÐ¾ÑĤÐ¾": 2482,
      "ĠÐłÐµÐ°Ð»": 2483,
      "ĠÐ·Ð°ÐºÐ°ÑĤ": 2484,
      "ĠKia": 2485,
      "Ð½Ð¸ÐºÐ¾Ð¼": 2486,
      "ĠÑĪÑĥÐ¼": 2487,
      "ĠGoogle": 2488,
      "ĠÐ½Ð°Ð·Ð½Ð°ÑĩÐµÐ½Ð¸Ñİ": 2489,
      "ĠÐºÐ¾Ð»Ð»ÐµÐ³Ð¸": 2490,
      "ĠÑĢÐ°ÑģÑģÐ»": 2491,
      "ĠÑĩÐ¸ÑĤÐ°Ð»": 2492,
      "ĠÑĥÐ´Ð¾Ð±Ð½ÑĭÐ¹": 2493,
      "Ð¡ÐºÐ¸Ð½Ñĥ": 2494,
      "ĠÐĴÐµÐ½": 2495,
      "ĠÑįÐºÐ¾Ð½Ð¾Ð¼": 2496,
      "ĠÑģÑĤÑĢÐµÑģÑģ": 2497,
      "ĠÐ¾Ð´Ð½": 2498,
      "ĠÐ¾Ð¿Ð°Ñģ": 2499,
      "ĠÐ¾Ð¿ÑıÑĤÑĮ": 2500,
      "ÐĺÐ½ÑĤÐµÑĢÐµÑģÐ½ÑĭÐµ": 2501,
      "ĠÐ¿Ð¾ÑģÐ¼Ð¾ÑĤÑĢÐ¸Ð¼": 2502,
      "ÑıÐ´ÐºÐµ": 2503,
      "enti": 2504,
      "ĠÐ¾ÑĤÐ»Ð¸ÑĩÐ½Ð¾": 2505,
      "ĠDel": 2506,
      "ĠÐ½ÐµÐ¿ÑĢ": 2507,
      "ĠÐºÑĥÑĢÑĤ": 2508,
      "ĠÐºÑĥÑĢÑģ": 2509,
      "ĠÑģÐ¿Ð¾ÑĢÑĤÐ·Ð°Ð»Ðµ": 2510,
      "ĠÐĽÐ¾Ð½Ð´Ð¾Ð½Ð°": 2511,
      "ÐŁÐ¾Ð¼Ð¾Ð³Ð»Ð¾": 2512,
      "Ð¡ÑĢÐµÐ´Ð½ÐµÐµ": 2513,
      "Ð¡ÑĢÐµÐ´Ð½ÑıÑı": 2514,
      "ĠÐ»ÑĳÐ³ÐºÐ¸Ð¹": 2515,
      "ĠÐŁÐ°ÑĢÐ¸Ð¶Ðµ": 2516,
      "ĠÐĲÑĦÐ¸Ð½Ñĭ": 2517,
      "Ð£ÑĩÐ¸ÑĤÐµÐ»ÑĮÐ½Ð¸ÑĨÐµÐ¹": 2518,
      "ÐŁÐ¾ÑģÐ»Ðµ": 2519,
      "Ð°Ð±Ð»ÐµÑĤÐºÐ¸": 2520,
      "ĠÐºÐ°ÑĩÐµÑģÑĤÐ²Ð¾": 2521,
      "ĠÑĥÐ½Ð¸Ð²ÐµÑĢÑģ": 2522,
      "ĠÑĨÐµÐ½ÑĤÑĢÐµ": 2523,
      "ÐĺÐ½Ð¶ÐµÐ½ÐµÑĢÐ¾Ð¼": 2524,
      "Ð§Ð°ÑģÑĤÐ¸ÑĩÐ½Ð¾": 2525,
      "Ð°ÑĢÑĤÑĦÐ¾Ð½": 2526,
      "ÐĴÐµÑģÐµÐ»Ð¾": 2527,
      "ĠÑĢÐµÐ¶Ð¸Ð¼": 2528,
      "ÐĽÐµÑĩÐ¸Ð»ÑģÑı": 2529,
      "ĠÐ¿Ð¾ÐºÐ°Ð·ÑĭÐ²Ð°Ð»Ð¸": 2530,
      "ĠÐ°ÑĤÐ¼Ð¾Ñģ": 2531,
      "ÐµÐ¿Ð°ÑĢÐ°ÑĤÑĭ": 2532,
      "ĠÐ±Ð¾Ð»ÑĮÑĪÐ¸Ñħ": 2533,
      "ĠÑĪÐºÐ¾Ð»Ðµ": 2534,
      "ĠÐ¾ÑĦÐ¸ÑģÐµ": 2535,
      "ĠÑĢÐ°ÑģÑĤÑĳÑĤ": 2536,
      "ĠÐ´Ð°ÑĩÐµ": 2537,
      "ÐĲÐºÑĤÑĳÑĢ": 2538,
      "ĠÑįÐ»ÐµÐºÑĤÑĢ": 2539,
      "ÐĹÐ´Ð¾ÑĢÐ¾Ð²Ð¾": 2540,
      "ĠÐ¸Ð¼Ð¼ÑĥÐ½": 2541,
      "ĠÐ°Ð´Ð²Ð¾ÐºÐ°ÑĤÐ°": 2542,
      "ĠÑģÑĥÐ±Ð±Ð¾ÑĤÑĥ": 2543,
      "ÐļÑĥÐ¿Ð¸Ð»": 2544,
      "ĠÐºÐ²Ð°ÑĢÑĤÐ¸": 2545,
      "ĠÑĤÐµÐ¼Ð¿ÐµÑĢÐ°ÑĤÑĥÑĢ": 2546,
      "ĠÐ±Ð°ÑĤÐ°ÑĢÐµÑı": 2547,
      "ĠÐ¼ÐµÑģÑıÑĨ": 2548,
      "Ð¸ÑĤÐ²Ð¾ÑĢÑıÑİÑģÑĮ": 2549,
      "ĠScienti": 2550,
      "ĠÑģÐ°Ð¼Ð¾ÑĩÑĥÐ²ÑģÑĤÐ²Ð¸Ðµ": 2551,
      "ĠCanon": 2552,
      "ĠLenovo": 2553,
      "ĠÑĢÐ°ÑģÑģÐ»Ð°Ð±": 2554,
      "ĠDell": 2555,
      "ĠÐ°ÑĤÐ¼Ð¾ÑģÑĦ": 2556,
      "ĠScientist": 2557,
      "Mac": 2558,
      "Nik": 2559,
      "Zar": 2560,
      "ced": 2561,
      "ÃĹ": 2562,
      "ĠO": 2563,
      "ĠÐ¾Ð²": 2564,
      "ĠÐ°Ð²ÑĤ": 2565,
      "ĠZar": 2566,
      "Ð¾ÐµÐ²": 2567,
      "Ð°Ñĥ": 2568,
      "ÐµÑİ": 2569,
      "ÐµÑİÑģÑĮ": 2570,
      "ÑĢÐ¸": 2571,
      "ÑĢÑı": 2572,
      "ÑĢÐ¸ÑĤ": 2573,
      "ÑģÐ¾ÑĤÐµ": 2574,
      "Ð½ÐµÐ¹": 2575,
      "Ð½Ð¸Ð¹": 2576,
      "Ð»ÐµÐ±": 2577,
      "Ð»ÐºÑĥ": 2578,
      "Ð»ÑĳÐ½": 2579,
      "ÑĥÐµÐ¼": 2580,
      "ÑĥÐµÑĪÑĮ": 2581,
      "ÑĭÐº": 2582,
      "ÑĮÐµ": 2583,
      "ÑĩÐµ": 2584,
      "ĠÐ¿Ð¾Ð±": 2585,
      "ĠÐ¿ÑĮÑİ": 2586,
      "ĠÐ½Ð¾Ð¼": 2587,
      "ĠÐ½Ð°Ð¿": 2588,
      "ĠÐ½ÐµÐ¼Ñĥ": 2589,
      "ÐĶÐ¾": 2590,
      "ĠÐ²Ð¾Ñģ": 2591,
      "Ð´ÐµÑĤ": 2592,
      "Ð´Ð°ÑĤÑĮ": 2593,
      "Ð´Ð²Ð¾ÐºÐ°ÑĤ": 2594,
      "ĠÑģÐ¾Ð»": 2595,
      "ĠÑģÑģÑĭ": 2596,
      "ĠÑģÐ¾Ð²ÐµÑĤÑĥÑİ": 2597,
      "ĠÑģÑĬ": 2598,
      "ÐµÐ½Ð°Ð²": 2599,
      "ÐµÐ½Ð´Ð°": 2600,
      "Ð°ÐºÑĨ": 2601,
      "ÐļÐĲ": 2602,
      "ÐļÑĢÐ°ÑģÐ¾ÑĤÐ°": 2603,
      "Ð¢Ð¾": 2604,
      "ĠÐ´Ð²": 2605,
      "Ð¼Ð°ÑĢ": 2606,
      "ĠÐºÐ¾Ð³Ð´Ð°": 2607,
      "ĠÐºÑĥÐ´Ð°": 2608,
      "ÐµÐ»Ð¸": 2609,
      "ÐµÑĢÐµÐ·": 2610,
      "ĠÑĤÐµÑģ": 2611,
      "ĠÑĤÐµÑĢÐ°Ð¿": 2612,
      "ĠÑĤÐ²Ð¾Ð¹": 2613,
      "ĠÐ±Ð°Ñģ": 2614,
      "ĠÐ±Ð¾Ð´": 2615,
      "ĠÐ±Ð¸Ð±": 2616,
      "ĠÐ±ÑĢÐ¾Ð½": 2617,
      "ÐĲÐ´Ð²Ð¾ÐºÐ°ÑĤ": 2618,
      "Ð¾ÑĤÑı": 2619,
      "Ð¾ÑĤÐ°ÐµÑĪÑĮ": 2620,
      "Ð¸Ð²Ð°ÐµÑĤ": 2621,
      "Ð°Ð»ÑģÑı": 2622,
      "Ð¾Ð»ÐºÐ¸": 2623,
      "Ð²ÐµÑĢ": 2624,
      "Ð¿Ð¾Ð½": 2625,
      "ÐĿÐµÐ±": 2626,
      "ÐĿÐµÐ¿": 2627,
      "Ð¾ÑĢÐ¾Ð¶Ð°Ð»": 2628,
      "Ð¡Ð²": 2629,
      "Ð¡Ð¾Ð»Ð½ÐµÑĩÐ½Ð¾": 2630,
      "ĠÐ¼Ð¾Ð»": 2631,
      "ĠÐ¼Ð¾Ð½": 2632,
      "ĠÐ¼ÐµÐ½ÑĮ": 2633,
      "ĠÐ¼Ð¾ÑīÐ½ÑĭÐ¹": 2634,
      "ÐµÐ¼Ñĭ": 2635,
      "ÐµÐ¼Ð°ÑĤ": 2636,
      "ĠÐ·ÑĥÐ±": 2637,
      "ĠÑĥÐ¼": 2638,
      "Ð§Ð¸ÑĤÐ°Ñİ": 2639,
      "Ð¾Ð½ÑĮ": 2640,
      "Ð¸ÑĤÐ¾Ð¼": 2641,
      "Ð°ÑĢÐ°": 2642,
      "Ð·Ð°Ð¼ÐµÐ½": 2643,
      "Ð³Ð¸": 2644,
      "Ð»Ð¸Ð¾ÑĤÐµÐº": 2645,
      "Ð°Ð¹ÑĪ": 2646,
      "ĠÐ¿ÑĢÐµÐ¼": 2647,
      "ĠÐ¿ÑĢÐ¸Ð³": 2648,
      "ĠÐ¿ÑĢÐµÐ¿Ð°ÑĢÐ°ÑĤÑĭ": 2649,
      "ĠÐµÐ´Ñĥ": 2650,
      "ÑĢÑĥÐºÑĤ": 2651,
      "ĠÐ³Ð¾Ð´": 2652,
      "ĠÐ³ÑĢÑĥ": 2653,
      "ĠÑħÐ»ÐµÐ±": 2654,
      "ÐµÑģÑĤÐ¸ÑĤÑĮ": 2655,
      "ÐĴÐ¾ÑĤ": 2656,
      "ÐĴÐµÑĩ": 2657,
      "ĠÐ±ÑĭÐ»Ð°": 2658,
      "ĠÑģÐ»Ð¾Ð²": 2659,
      "ĠÑģÐ»Ð¾Ð²Ð°": 2660,
      "Ð°Ð·Ð°": 2661,
      "ÑĥÐ¶Ðµ": 2662,
      "ĠÐ²ÑĭÑģÐ¾ÑĤÐµ": 2663,
      "Ð£Ð¼": 2664,
      "Ð£ÑģÑĤÐ°Ð»": 2665,
      "ĠÐ¾Ð±Ðµ": 2666,
      "ÑĥÑģÐºÐ°": 2667,
      "ĠÑģÐ¿ÑĢÐ°Ð²": 2668,
      "ĠÐ¶ÐµÐ»": 2669,
      "ĠÐ²Ð¸Ð´ÐµÐ»Ð¸ÑģÑĮ": 2670,
      "ÐłÐ¾Ðº": 2671,
      "ĠÑģÐ²ÐµÑĤ": 2672,
      "ĠÑħÐ¾ÑĢÐ¾ÑĪÐ¸": 2673,
      "ĠÐ·Ð½Ð°ÑĩÐ¸ÑĤ": 2674,
      "ĠÐ¸Ð·Ð±": 2675,
      "ÐĵÐ¸Ð±": 2676,
      "ÑģÐºÐ¸Ðµ": 2677,
      "ÐŁÑĢÐ¸Ñĩ": 2678,
      "ÐŁÑĢÐ¸ÑĤÐ²Ð¾ÑĢÑıÑİÑģÑĮ": 2679,
      "ĠÐºÐ¾Ð½ÑĤÑĢ": 2680,
      "ĠÐ·Ð°Ð²ÑĤÑĢÐ°Ðº": 2681,
      "ÐĸÐ¸Ð²": 2682,
      "ĠÐ±ÑĥÐ´ÑĥÑīÐµÐµ": 2683,
      "ÑĳÑĤÑģÑı": 2684,
      "Ð°ÑģÑĤÐ»Ð¸Ð²": 2685,
      "ÑģÐ¿ÐµÐºÑĤÐ¸Ð²": 2686,
      "ĠÐ»ÐµÑĩÐ¸ÑĪÑĮ": 2687,
      "Ð¡Ð¿Ð¾ÐºÐ¾Ð¹": 2688,
      "ĠÐºÐ»Ð°ÑģÑģÐ½Ð¾": 2689,
      "Ð¸Ð¶Ð°Ð¹ÑĪ": 2690,
      "Ð°ÑİÑĤÑģÑı": 2691,
      "ĠÐ´ÑĢÑĥÐ³Ñĥ": 2692,
      "ĠÐ¿ÐµÑĢÐµÐ½": 2693,
      "ĠÐ¿ÐµÑĢÐµÐ´": 2694,
      "ĠÐ¿ÐµÑĢÑģÐ¿ÐµÐºÑĤÐ¸Ð²": 2695,
      "Ð¸Ð»ÑĮÐ½Ð¾Ðµ": 2696,
      "Ð¡ÐºÐ¾ÑĢ": 2697,
      "ĠÐ¼ÐµÑĩÑĤÐ°Ñİ": 2698,
      "ĠÐ¸Ð½ÑģÑĥÐ»ÑĮÑĤ": 2699,
      "ĠÐºÐ¾ÑĤÐ¾ÑĢ": 2700,
      "ĠÑģÐµÑĢÐ¸Ð¹": 2701,
      "ÐµÑĪÐµÐ²": 2702,
      "ĠÑģÐ¼Ð°ÑĢÑĤÑĦÐ¾Ð½": 2703,
      "ĠÑĪÑĥÑĤ": 2704,
      "ĠÑĥÐ¶Ð¸Ð½": 2705,
      "ÐĳÑĥÐ´ÐµÑĤ": 2706,
      "ÐĳÑĥÐ´ÑĤÐ¾": 2707,
      "ĠÑģÐ½ÐµÐ³": 2708,
      "ĠÐ±ÑĭÑģÑĤÑĢÐµÐµ": 2709,
      "Ð¡Ð¾Ð²ÑĢÐµÐ¼ÐµÐ½Ð½Ð¾": 2710,
      "ĠÑĥÐ´Ð¾Ð±Ð½ÑĭÐµ": 2711,
      "ĠÐ¿Ð¾Ð¼Ð¾Ð³Ð°ÑĤÑĮ": 2712,
      "ĠÑįÐºÐ·Ð°Ð¼ÐµÐ½": 2713,
      "erced": 2714,
      "ĠÐ²ÐºÑĥÑģÑĭ": 2715,
      "ĠÐ·Ð°Ð¿ÑĥÑģÐºÐ°": 2716,
      "ĠÐ¾Ð´Ð¸Ð½": 2717,
      "Ð´Ð¸Ð¾": 2718,
      "ĠÐ¶Ð¸Ð·Ð½Ð¸": 2719,
      "ĠÐ¿Ð¾ÑģÐ¼Ð¾ÑĤÑĢÑİ": 2720,
      "ÐĻÐ¾Ñĥ": 2721,
      "ĠÐ¿Ð¾ÑĢÑıÐ´ÐºÐµ": 2722,
      "Ð£Ð´Ð¾Ð±Ð½ÐµÐµ": 2723,
      "ÐľÐ¾Ð»Ð¾Ð´ÑĨÑĭ": 2724,
      "ÑĥÐ»ÑĮÑĤÐ°ÑĤ": 2725,
      "ÐķÑģÐ»Ð¸": 2726,
      "ÐŁÐ¾Ð½Ð¸Ð¼Ð°Ñİ": 2727,
      "ĠÐ¿ÑĢÐ¾ÑĪÐ»": 2728,
      "ĠÐ¼Ð°ÑĪÐ¸Ð½Ð°": 2729,
      "ĠÐ¸Ð½ÑĤÐµÑĢÐµÑģÐ½ÑĭÐ¹": 2730,
      "ĠÐ¿Ð¾Ð»ÑĥÑĩÐ¸Ð»": 2731,
      "Ð¸ÑĩÐµÑģÐºÐ°Ñı": 2732,
      "Ð¡Ð¼Ð¾ÑĤÑĢÐµÐ»": 2733,
      "Ð°ÑĤÐµÐ»ÑĮÐ½ÑĭÐ¹": 2734,
      "ĠÑģÑĤÑĢÐ°Ð´Ð°Ð½Ð¸Ð¹": 2735,
      "ÐĿÐ°Ð´ÑĳÐ¶Ð½ÑĭÐµ": 2736,
      "++.": 2737,
      "ĠÐ·Ð°Ð±Ð¾Ð»ÐµÐ²": 2738,
      "ÐĹÐ°Ð¿Ð¸ÑĪÑĥ": 2739,
      "ĠÑĥÐ²Ð°Ð¶Ð°ÐµÐ¼": 2740,
      "ĠÐ¾ÑĤÐ»Ð¸ÑĩÐ½ÑĭÐµ": 2741,
      "ĠÑģÐ¾Ð²ÑĢÐµÐ¼ÐµÐ½Ð½ÑĭÐ¹": 2742,
      "ĠÐłÐ¸Ð¼Ðµ": 2743,
      "ÐļÐ°ÑĢÐ´Ð¸Ð¾": 2744,
      "ĠÐ¿Ð¾ÑĩÑĤÐ¸": 2745,
      "ĠÐ½Ð¸ÐºÐ°Ðº": 2746,
      "ĠÐ·Ð°Ð²Ð°Ð»": 2747,
      "ĠÑĩÐµÑģÑĤÐ½Ð¾": 2748,
      "ĠÐ¿ÑĢÐ¸Ð´Ñĥ": 2749,
      "ĠÐ³Ð»Ð¾ÑĤÐ°ÐµÑĪÑĮ": 2750,
      "ÐĹÐ°Ð²Ð¸Ð´ÑĥÑİ": 2751,
      "ÐĹÐ°Ð²ÑĤÑĢÐ°": 2752,
      "ÐļÐ°Ð¶Ð´Ð¾Ð¼Ñĥ": 2753,
      "ĠÐ¿Ð¾ÑģÐ»ÑĥÑĪÐ°ÑĤÑĮ": 2754,
      "ÐĿÐ°Ð²ÐµÑģÑĤÐ¸ÑĤÑĮ": 2755,
      "ĠÐ¼Ð°Ð¼Ñĭ": 2756,
      "ĠÐ·Ð°Ð¼ÐµÑĤ": 2757,
      "ĠÐ¿ÑĢÐ¾Ð³ÑĥÐ»": 2758,
      "ĠÐ¿Ð¾ÑħÑĥÐ´": 2759,
      "ĠÐ²Ð¾ÑģÑĤÑĢÐµÐ±Ð¾Ð²Ð°Ð½Ð°": 2760,
      "Ð®ÑĢÐ¸ÑģÑĤ": 2761,
      "ĠÐ¿ÑĢÐ¸Ð½Ð¸Ð¼Ð°ÐµÑĤ": 2762,
      "ĠÑģÐ»ÑĥÑĩÐ¸Ð»Ð¾ÑģÑĮ": 2763,
      "ĠÑģÐ¿Ð¾ÐºÐ¾Ð¹Ð½Ð¾": 2764,
      "Ð¸ÑĢÑĥÑĢÐ³": 2765,
      "ÐĲÐ½ÑĤÐ¸Ð±Ð¸Ð¾ÑĤÐ¸ÐºÐ°Ð¼Ð¸": 2766,
      "ÑģÑĤÐ°Ð½Ð¾Ð²": 2767,
      "ÐĶÑĢÐ°Ð¼Ð°": 2768,
      "ĠÐ²Ð¾Ð·ÑĮÐ¼Ñĥ": 2769,
      "ĠÐºÐ°ÑĦÐµ": 2770,
      "ĠÐ±ÐµÐ½Ð·Ð¸Ð½": 2771,
      "ĠÐ¼Ð¾Ð·Ð³": 2772,
      "ĠÑĩÑĥÐ¶Ð¸Ðµ": 2773,
      "ĠÑĢÐµÐ·ÑĥÐ»ÑĮÑĤÐ°ÑĤ": 2774,
      "ÐľÐ°ÑĢÐºÐµÑĤÐ¾Ð»Ð¾Ð³Ð¾Ð¼": 2775,
      "Ð°Ð·Ð¾ÑħÐ¸ÑģÑĤ": 2776,
      "ĠÐ¸Ð·Ð¼ÐµÐ½Ð¸ÑĤÑĮ": 2777,
      "ÑĥÑĢÐ½Ð°Ð»Ð¸ÑģÑĤ": 2778,
      "Ð·Ð´Ð¾ÑĢÐ¾Ð²ÐµÐ»": 2779,
      "ĠÑĪÑĥÐ¼Ð½ÑĭÐ¹": 2780,
      "ĠÐ½ÐµÐ¿ÑĢÐ¸ÑıÑĤÐ½Ð¾": 2781,
      "ĠÐ¸Ð¼Ð¼ÑĥÐ½Ð¸ÑĤÐµÑĤ": 2782,
      "ĠÐ¾Ð²Ð¾Ñī": 2783,
      "ĠZara": 2784,
      "ĠÐ½Ð¾Ð¼ÐµÑĢ": 2785,
      "ĠÑģÑģÑĭÐ»ÐºÑĥ": 2786,
      "ĠÑĤÐµÑģÐµÐ½": 2787,
      "ĠÐ±Ð¸Ð±Ð»Ð¸Ð¾ÑĤÐµÐº": 2788,
      "ĠÐ¼ÐµÐ½ÑĮÑĪÐµ": 2789,
      "ÐŁÑĢÐ¸ÑĩÐ¸Ð½Ð°": 2790,
      "ercedes": 2791,
      "#.": 2792,
      "60": 2793,
      "Data": 2794,
      "FA": 2795,
      "IFA": 2796,
      "Linux": 2797,
      "PlayStation": 2798,
      "SI": 2799,
      "Toyota": 2800,
      "ai": 2801,
      "al": 2802,
      "aw": 2803,
      "ei": 2804,
      "ix": 2805,
      "lo": 2806,
      "lu": 2807,
      "mi": 2808,
      "ol": 2809,
      "omi": 2810,
      "pp": 2811,
      "ty": 2812,
      "ter": 2813,
      "uaw": 2814,
      "ĠÐŀ": 2815,
      "ÐµÐµÑĤ": 2816,
      "ÑĤÐ°Ðº": 2817,
      "ÑĤÐ¸Ð²": 2818,
      "Ð¸ÐµÐ¼": 2819,
      "Ð¸ÐµÐ¹": 2820,
      "Ð¸Ð°Ð»ÑĮ": 2821,
      "ÑģÐ½Ð¾": 2822,
      "ÑģÐ¸Ñı": 2823,
      "ÑģÐ¸Ñģ": 2824,
      "ÑģÐ¸Ñħ": 2825,
      "ÑģÐµÑģÑĤÑĢÐ°": 2826,
      "Ð½ÐºÑĥ": 2827,
      "Ð»Ð°": 2828,
      "Ð»Ð°Ð´": 2829,
      "Ð»Ð°Ð¹Ð½": 2830,
      "ÑĥÐ²": 2831,
      "ÑĥÐºÐ¸": 2832,
      "ÑĥÐ°Ð»ÑĮÐ½Ð¾": 2833,
      "ÑĭÐ¿": 2834,
      "ĠÐ¿Ð°": 2835,
      "ĠÐ¿ÑĥÑĤÑĮ": 2836,
      "ĠÐ¿Ð°Ð¿Ñĭ": 2837,
      "ĠÐ½ÐµÐ¼": 2838,
      "ĠÐ½ÐµÑģ": 2839,
      "ÐĶÐ¾ÑģÑĤ": 2840,
      "ÐĶÐ°Ð²Ð½Ð¾": 2841,
      "ÐĶÐ¾Ð¶Ð´ÑĮ": 2842,
      "ĠÐ²ÐµÑĤ": 2843,
      "ĠÐ²ÑĭÐ¹": 2844,
      "ĠÐ²ÐµÑģÑĤÐ¸": 2845,
      "ĠÐ²ÐºÐ»ÑİÑĩ": 2846,
      "ÑĪÐ¸Ð±": 2847,
      "Ð´Ñĭ": 2848,
      "Ð´Ð¸ÑĢÐ¾Ð²": 2849,
      "Ð´Ð¶ÐµÑĤ": 2850,
      "ĠÑģÐ°Ð»": 2851,
      "ĠÑģÐ¸Ð»": 2852,
      "ĠÑģÑĦ": 2853,
      "ĠÑģÐ½Ð°": 2854,
      "ĠÑģÐ¸Ð½": 2855,
      "ĠÑģÐ¾Ð¿": 2856,
      "Ð°ÐºÐ°": 2857,
      "Ð°ÐºÑĤÐµÑĢ": 2858,
      "Ð°ÐºÑĤÐ¸": 2859,
      "ÐºÐ¾Ð¹": 2860,
      "ÐºÐµÐ¹": 2861,
      "ÐļÑĢÐ¾Ñģ": 2862,
      "ÐļÐ°ÑĪ": 2863,
      "Ð¢ÐµÐ¿": 2864,
      "Ð¢Ð¾Ð»ÑĮÐºÐ¾": 2865,
      "Ð½Ð¾ÑĪ": 2866,
      "ĠÐ´Ð¸Ñģ": 2867,
      "ĠÐ´ÑĭÑħ": 2868,
      "ĠÐ´Ð¾Ð»Ð»": 2869,
      "ĠÐ´ÑĥÑħ": 2870,
      "Ð¾Ð²Ð¾Ð»ÑĮ": 2871,
      "ÑİÐ´Ð¶ÐµÑĤ": 2872,
      "ĠÐºÐ°Ð¹": 2873,
      "ĠÐºÑĢÐ¾Ð²": 2874,
      "ÐµÐ»Ñĳ": 2875,
      "ÐµÐ»ÑģÐ¸": 2876,
      "ĠÑĤÐ¾Ð±": 2877,
      "ĠÑĤÑĳÐ¿Ð»": 2878,
      "ÐŁÑĢÐ¸Ð²": 2879,
      "ÐŁÐ¾Ð·": 2880,
      "ÐŁÐµÑĢÐµÐ´": 2881,
      "ĠÐ±Ð°Ð³": 2882,
      "ÑħÐ¾Ð¶Ñĥ": 2883,
      "Ð¾Ð»Ð¾Ð²": 2884,
      "Ð²Ð°Ð¶": 2885,
      "ÐļÐ°ÐºÐ¸Ðµ": 2886,
      "Ð¿Ð¾Ñĩ": 2887,
      "ÐĿÐµÐ´ÐµÐ»": 2888,
      "Ð¾ÑĢÐ¾Ð´": 2889,
      "Ð¡Ð¼": 2890,
      "Ð¡Ð¾Ð±": 2891,
      "Ð¡Ð¸Ð»ÑĮÐ½ÑĭÐ¹": 2892,
      "Ð¡Ð»Ð¸ÑĪÐºÐ¾Ð¼": 2893,
      "ÐµÐ¼Ð¾Ð½ÑĤ": 2894,
      "Ð¸Ð»Ðµ": 2895,
      "ĠÑĥÐ¿": 2896,
      "ĠÑĥÐ»Ð¸": 2897,
      "ÑĳÑģ": 2898,
      "Ð°Ð½Ð½Ð¾": 2899,
      "Ð°Ð½Ð°ÑĤ": 2900,
      "Ð°Ð½Ð¸Ð¸": 2901,
      "Ð°Ð½Ð½Ð¾Ð¹": 2902,
      "Ð¾Ð¶Ð¸Ð´": 2903,
      "Ð¾Ð±Ð¸Ð»ÑĮ": 2904,
      "ĠÑĩÐ°": 2905,
      "ĠÑĩÑĤ": 2906,
      "ĠÑıÐ¿Ð¾Ð½": 2907,
      "Ð°ÑĢÐºÑĤ": 2908,
      "Ð³Ð¾Ð´": 2909,
      "Ð³Ð¸Ð²Ð°ÐµÑĤ": 2910,
      "ÐµÑĪÑĮÑģÑı": 2911,
      "Ð»Ð¸Ð½": 2912,
      "Ð¾Ð¹ÑĤÐ¸": 2913,
      "ĠÐ»Ð°Ð´Ð½Ð¾": 2914,
      "ÑĨÐ¸Ð¸": 2915,
      "ÑĨÐ¸Ð¿": 2916,
      "ĠÑĢÐ°Ð¹": 2917,
      "Ð¸ÐºÐ¾Ð»ÑĮ": 2918,
      "Ð¥Ð¾ÑĩÐµÑĪÑĮ": 2919,
      "Ð´Ð°ÑĩÐ¸": 2920,
      "ÑīÐ°Ñı": 2921,
      "ÑīÐµÐµ": 2922,
      "ĠÐ¿Ð¾ÑĩÐ¸ÑĤÐ°ÑĤÑĮ": 2923,
      "Ð¾ÐºÐ¾": 2924,
      "Ð¾ÐºÐºÐµÐ¹": 2925,
      "ÑĢÑĥÑĪ": 2926,
      "ĠÐ³Ð»Ð°Ð²Ð½Ð¾Ðµ": 2927,
      "Ð¸Ð¼Ð¸": 2928,
      "Ð¸Ð¼Ð¿": 2929,
      "ĠÑħÐ¾ÐºÐºÐµÐ¹": 2930,
      "ÐµÑģÑĤÐµÑĢ": 2931,
      "ÐĴÐµÑĢÐ½Ð¾": 2932,
      "ÐĴÐ°Ñĥ": 2933,
      "Ð¸Ð´Ð½Ð¾": 2934,
      "ĠÑĢÐµÑĨ": 2935,
      "ĠÑĢÐ¾Ð¼Ð°Ð½": 2936,
      "ĠÑĢÐµÐ¼Ð¾Ð½ÑĤ": 2937,
      "ÐľÐ¾Ð´": 2938,
      "ÐľÐµÐ´": 2939,
      "ÐľÐµÑĩÑĤ": 2940,
      "Ð°Ð¶ÐµÑĪÑĮ": 2941,
      "ĠÐ²ÑĭÑĪ": 2942,
      "Ð£Ð²Ð°Ð¶": 2943,
      "ĠÐ¾ÑĤÐ´ÐµÐ»": 2944,
      "ĠÐ¾ÑĤÐ´Ð¾ÑħÐ½": 2945,
      "ĠÐ¾ÑĤÐ½Ð¾ÑĪ": 2946,
      "ĠÐ¾Ð±ÑĢÐ°ÑĤ": 2947,
      "Ð¸Ð·Ð½ÐµÑģ": 2948,
      "ĠÐ½ÐµÐ¾Ð¶Ð¸Ð´": 2949,
      "ĠÑģÐ¿ÑĢÐ°Ð²Ð»Ñı": 2950,
      "ĠÐ¶Ð°Ð»": 2951,
      "Ð¸ÑģÑĤÐ°": 2952,
      "Ð¾Ð»ÑĮÑĪÐ°Ñı": 2953,
      "Ð¾ÑģÐ¾Ð±": 2954,
      "ÐłÐ¾Ð¼Ð°Ð½": 2955,
      "ÐłÐµÐ´ÐºÐ¾": 2956,
      "ÐºÐ¸Ñħ": 2957,
      "Ð¸Ð±ÐµÑĢ": 2958,
      "ÐĽÑĥÑĩÑĪ": 2959,
      "ĠÑĨÐµÐ»ÑĮ": 2960,
      "ĠÑĥÑĩÐ¸ÑĤÑĮ": 2961,
      "ĠÐ¸Ð´ÑĳÐ¼": 2962,
      "ÑĥÐ¹ÑģÑĤÐ°": 2963,
      "ĠÐ¿ÑĢÐ¸Ð²ÑĭÐº": 2964,
      "ÐļÐ»Ð°ÑģÑģÐ½ÑĭÐ¹": 2965,
      "ÑģÐºÐ¸Ð¼": 2966,
      "ÐŁÑĢÐ¸ÑıÑĤÐ½Ð¾": 2967,
      "ĠApp": 2968,
      "ĠÐ±ÑĥÐ´ÑĤÐ¾": 2969,
      "ĠÐ±ÑĥÐ´ÑĥÑĤ": 2970,
      "ÐµÑħÐ°ÑĤÑĮ": 2971,
      "ĠÐºÑĥÐ¿Ð¸ÑĤÑĮ": 2972,
      "Ð°Ð³ÑĢÑĥ": 2973,
      "ĠÐ½Ð°Ð´ÐµÑĤÑĮ": 2974,
      "ĠÐ¾Ð½Ð»Ð°Ð¹Ð½": 2975,
      "Ð¤Ð¸Ð»ÑĮÐ¼": 2976,
      "ĠMSI": 2977,
      "ÐŃÑĤÐ°": 2978,
      "ĠCS": 2979,
      "ĠÐ´ÑĢÑĥÐ³Ð°": 2980,
      "Ð¾ÑĢÑĤÐ¸ÑĤÑĮ": 2981,
      "Ð¸ÑĢÑĥÑģ": 2982,
      "Ð¸ÑĢÑĥÑİ": 2983,
      "ĠÐ¿ÐµÑĢÐµÑģ": 2984,
      "ĠÐ¿Ð¾Ð½Ð¸Ð¼Ð°Ñİ": 2985,
      "ĠÐ¿ÑĢÐ¸ÑĢÐ¾Ð´": 2986,
      "ĠLG": 2987,
      "ĠÐ¿ÑĢÐ¾ÑģÑĤÐ¾": 2988,
      "ĠÐ²Ð°Ð¶Ð½Ð°": 2989,
      "ĠÐ²Ð°Ð¶Ð½Ð°Ñı": 2990,
      "ĠÐ²Ð°Ð¶Ð½ÐµÐµ": 2991,
      "ĠÐ·Ð°ÐºÐ°Ð·ÑĭÐ²": 2992,
      "ĠÑıÐ·ÑĭÐºÐ¸": 2993,
      "ĠÑĥÐ¶Ð°Ñģ": 2994,
      "ĠÐ´Ð¾ÑĢÐ¾Ð³Ð¾Ðµ": 2995,
      "ĠÐ¼ÐµÑĤÑĢÐ¾": 2996,
      "ĠÑįÑĤÐ¸Ð¼": 2997,
      "Ð¡Ð¾Ð²ÑĢÐµÐ¼ÐµÐ½Ð½ÐµÐµ": 2998,
      "ĠÐ§ÐµÐ»ÑģÐ¸": 2999,
      "ĠÐ¿Ð¾Ð¼Ð¾Ð³Ð°ÐµÑĤ": 3000,
      "ĠÐ¿Ð¾Ð¼Ð¾Ð³Ð»Ð¾": 3001,
      "ĠÐ¿Ð¾Ð¼Ð¾Ð³Ð°ÑİÑĤ": 3002,
      "ĠÐ²ÑĭÐ±Ð¸ÑĢÐ°Ñİ": 3003,
      "ĠÐ¾ÑĤÐ´ÑĭÑħÐ°ÑĤÑĮ": 3004,
      "ĠÐ¾Ð´ÐµÐ¶": 3005,
      "Ð´Ð¸Ð¾Ð»Ð¾Ð³Ð°": 3006,
      "ĠÐ±ÑĭÐ²ÑĪÐ°Ñı": 3007,
      "ĠÐ´Ð¾ÑģÑĤÐ°Ð²": 3008,
      "ĠÑĥÑĤÑĢÐ°": 3009,
      "ĠNikon": 3010,
      "ÐĿÑĥÐ¶Ð½ÑĭÐµ": 3011,
      "ĠÑĢÐ°Ð´Ñĭ": 3012,
      "ĠÐ²ÑĭÑħÐ¾Ð´Ð½Ð¾Ð¹": 3013,
      "ĠÐ±Ð»Ð¸Ð·": 3014,
      "ĠÐºÑĢÐ¾ÑģÑģÑĭ": 3015,
      "ĠÐ´ÑĢÑĥÐ·ÐµÐ¹": 3016,
      "ÐķÑģÑĤÑĮ": 3017,
      "ÑĢÐ°Ð²Ð»ÑıÐµÑĪÑĮÑģÑı": 3018,
      "ĠÐ¿ÑĥÑĤÐ¸": 3019,
      "ĠÑĤÐ²Ð¾Ñı": 3020,
      "ÐŁÐ¾Ð½ÑıÐ»": 3021,
      "ĠÑģÐ»ÑĥÑĪÐ°ÑĤÑĮ": 3022,
      "ĠÐ¾ÑģÑĤÐ°Ð»": 3023,
      "ĠÐ¼Ð°ÑĪÐ¸Ð½Ñĭ": 3024,
      "ĠÐ¼Ð°ÑĪÐ¸Ð½Ñĥ": 3025,
      "Ð¾Ð¶Ð°Ð»ÑĥÐ¹ÑģÑĤÐ°": 3026,
      "Ð£ÑĩÐ¸ÑĤÐµÐ»ÐµÐ¼": 3027,
      "ÐµÐ²ÑĤÐ°": 3028,
      "ĠÐ¾Ð±ÑģÑĥÐ´Ð¸Ð¼": 3029,
      "ĠÐĽÐ¾Ð½Ð´Ð¾Ð½Ðµ": 3030,
      "ĠHuaw": 3031,
      "ĠÐ²ÑĢÐµÐ¼ÐµÐ½Ð¸": 3032,
      "ĠÐºÑĢÑĥÑĤÐ°Ñı": 3033,
      "ĠÐ¶Ð¸Ð²Ð¾Ð¹": 3034,
      "ĠÐ¿Ð¸ÑĤÐ°ÑĤÑĮÑģÑı": 3035,
      "ÐłÐ°Ð±Ð¾ÑĤÐ°": 3036,
      "ÐłÐ°Ð±Ð¾ÑĤÐ°ÐµÑĤ": 3037,
      "ĠÐ¿Ð¾Ð²ÑĤÐ¾ÑĢ": 3038,
      "ÐļÑĢÑĥÑĤÑĭÐµ": 3039,
      "ÐĹÐ°Ð¿Ð¸ÑĪÐ¸": 3040,
      "iaomi": 3041,
      "ĠÐ¼Ð°ÑĤÐµÐ¼Ð°ÑĤ": 3042,
      "Ð¤Ð°Ð½ÑĤÐ°ÑģÑĤÐ¸ÐºÑĥ": 3043,
      "ĠÐ¾ÑĤÐ»Ð¸ÑĩÐ½ÑĭÐ¹": 3044,
      "ĠÐºÐ»Ð¸ÐµÐ½ÑĤ": 3045,
      "ĠÐĴÐ°ÑĢÑĪÐ°Ð²Ðµ": 3046,
      "ĠÐĴÐ°ÑĢÑĪÐ°Ð²Ñĭ": 3047,
      "ĠFIFA": 3048,
      "ĠÐ¿Ð¾Ð¿ÑĥÐ»ÑıÑĢ": 3049,
      "ĠÑģÐ¾ÑĥÑģ": 3050,
      "ĠÐºÐ°ÑĢÐ´Ð¸Ð¾Ð»Ð¾Ð³Ð°": 3051,
      "ĠÐ±Ð°ÑĢÐ¸ÑģÑĤÐ°": 3052,
      "Ð°Ð±Ð»ÐµÑĤÐºÐ°Ð¼Ð¸": 3053,
      "ĠÐ·Ð´Ð¾ÑĢÐ¾Ð²ÑĮÐµ": 3054,
      "ĠXiaomi": 3055,
      "ĠÐ³Ð¾Ð²Ð¾ÑĢÐ¸ÑĤ": 3056,
      "ÐĹÐ°Ð²ÑĤÑĢÐ°Ðº": 3057,
      "Ð¡Ð»ÑĥÑĪÐ°Ð¹": 3058,
      "ĠÐ¸Ð½ÑĦÐ°ÑĢÐºÑĤ": 3059,
      "ĠÐ¼ÑĥÐ·ÑĭÐºÑĥ": 3060,
      "ĠÐ¾Ð³Ð¾Ð½ÑĮ": 3061,
      "ĠÐ½Ð°ÐºÐ°Ð·": 3062,
      "ÐĺÐ³ÑĢÐ¾Ð²Ð¾Ð¹": 3063,
      "Ð¾ÐºÐ¸Ð¾": 3064,
      "ÐĴÐ¾ÑģÐ¿Ð°Ð»ÐµÐ½Ð¸Ðµ": 3065,
      "ÐĴÐ¾ÑģÑģÑĤÐ°Ð½Ð¾Ð²": 3066,
      "ĠÐŁÑĢÐ°Ð³Ðµ": 3067,
      "Ð¡Ð»Ð°Ð±ÐµÐµ": 3068,
      "ĠÐ¢Ð¾ÐºÐ¸Ð¾": 3069,
      "Ð»ÐµÑĢÐ³": 3070,
      "ĠÑģÑĩÐ°ÑģÑĤÑĮ": 3071,
      "ĠÐ½Ð°ÑģÑĤÐ¾Ð»ÐºÐ¸": 3072,
      "ĠÐ¾Ð±Ð½Ð¾Ð²Ð»ÑĳÐ½": 3073,
      "Ð¸ÑĨÐµÐ¹ÑģÐºÐ¸Ð¼": 3074,
      "ĠÐ¿ÐµÑĢÐµÐ¶Ð¸Ð²Ð°Ñİ": 3075,
      "ĠÐ¾ÑģÐ¾Ð±ÐµÐ½Ð½Ð¾": 3076,
      "ĠÐ°Ð»Ð»ÐµÑĢÐ³": 3077,
      "Ð¸ÑĤÐ¸Ð²Ð½Ð¾Ðµ": 3078,
      "ÐĿÐ°ÑĩÐ°Ð»": 3079,
      "ĠÐºÐ¾ÑĪÐµÐ»Ñĳ": 3080,
      "ĠÐ¸ÑģÐºÑĥÑģÑģÑĤÐ²Ð¾": 3081,
      "ÐŁÐ°ÑģÑĤÑĥ": 3082,
      "Ð¡ÑĤÑĢÐ¾Ð³Ð¸Ð¹": 3083,
      "ĠÐ¼ÐµÐ½ÑıÑĤÑĮ": 3084,
      "Ð§ÐµÑģÑĤÐ½Ð¾": 3085,
      "ĠÐ¿ÑĢÐ¸Ð»Ð¾Ð¶": 3086,
      "ÐĺÑģÑĤÐ¾ÑĢÐ¸Ñı": 3087,
      "ĠÐ³Ð°ÑģÑĤÑĢ": 3088,
      "ĠÑħÐ¾Ð´Ð¸Ð»": 3089,
      "ĠÑĢÐµÑĪÐ¸Ð»": 3090,
      "ÐĵÐ¾Ð²Ð¾ÑĢÑıÑĤ": 3091,
      "ĠÐ¿Ð»Ð°ÑĩÐµÑĤ": 3092,
      "ĠÐºÑĥÑĢÑĤÐºÐ°": 3093,
      "ĠÑĤÐµÐ¼Ð¿ÐµÑĢÐ°ÑĤÑĥÑĢÐ¾Ð¹": 3094,
      "ĠÐ¿Ð¾Ð±ÐµÐ´": 3095,
      "Ð°ÐºÑĨÐ¸Ð½Ð°": 3096,
      "ĠÑĤÐµÑĢÐ°Ð¿ÐµÐ²ÑĤÐ°": 3097,
      "ĠÐ±Ð¾Ð´ÑĢÐ¸ÑĤ": 3098,
      "ÐĿÐµÐ±Ð¾Ð»ÑĮÑĪÐ°Ñı": 3099,
      "ĠÑĥÐ²Ð°Ð¶Ð°ÐµÐ¼ÑĭÐµ": 3100,
      "ĠÐ¿ÑĢÐ¾Ð³ÑĥÐ»ÐºÐ¸": 3101,
      "ÑĤÐ°ÐºÑģÐ¸Ñģ": 3102,
      "ĠÐ²ÑĭÐ¹Ð´ÐµÑĤ": 3103,
      "ĠÑģÐ¸Ð½ÑĤÐ°ÐºÑģÐ¸Ñģ": 3104,
      "ÐļÐ°ÑĪÐµÐ»ÑĮ": 3105,
      "Ð¢ÐµÐ¿Ð»Ð¾": 3106,
      "ĠÐ´Ð¸ÑģÑĨÐ¸Ð¿": 3107,
      "ĠÐºÐ°Ð¹ÑĦ": 3108,
      "ĠÑĤÐ¾Ð±Ð¾Ð¹": 3109,
      "ĠÑĢÐµÑĨÐµÐ¿ÑĤ": 3110,
      "ĠÐ½ÐµÐ¾Ð¶Ð¸Ð´Ð°Ð½Ð½Ð¾": 3111,
      "ĠÑģÐ¿ÑĢÐ°Ð²Ð»ÑıÐµÑĤÑģÑı": 3112,
      "ĠApple": 3113,
      "ĠÐ·Ð°ÐºÐ°Ð·ÑĭÐ²Ð°ÑĤÑĮ": 3114,
      "ĠHuawei": 3115,
      "ĠÐºÐ¾ÑĪÐµÐ»ÑĳÐº": 3116,
      "#?": 3117,
      "19": 3118,
      "90": 3119,
      "ID": 3120,
      "TA": 3121,
      "VID": 3122,
      "ad": 3123,
      "az": 3124,
      "ala": 3125,
      "cs": 3126,
      "di": 3127,
      "et": 3128,
      "fl": 3129,
      "qlo": 3130,
      "tter": 3131,
      "und": 3132,
      "udi": 3133,
      "xy": 3134,
      "yund": 3135,
      "²Ð½Ð¾": 3136,
      "Ð«": 3137,
      "ĠW": 3138,
      "ĠÐ¾Ð¶": 3139,
      "ĠÑĢÐ°": 3140,
      "ĠÐ¾Ñĩ": 3141,
      "ĠÐ°Ð¹ÑĤÐ¸": 3142,
      "ĠHP": 3143,
      "ŃÐ¹": 3144,
      "Ð¾ÑĢÐ°Ð²": 3145,
      "Ð¾ÑıÐ½": 3146,
      "Ð°ÑĤÐ¾": 3147,
      "Ð°Ð½Ñĭ": 3148,
      "ĠÐ®": 3149,
      "ĠÐŃÐ¹": 3150,
      "ÑĤÐµ": 3151,
      "ÑĤÑĥ": 3152,
      "ÑĤÐ°Ð»ÑĮ": 3153,
      "ÑĢÐ¸Ð´": 3154,
      "ÑĢÐ¿ÑĢ": 3155,
      "ÑģÐµÐ¼": 3156,
      "Ð»Ð¸Ð¹": 3157,
      "Ð»ÑĳÐ·": 3158,
      "Ð»Ð°Ð´Ð½Ð¾": 3159,
      "ÑĭÐ¼Ð¸": 3160,
      "ÑĭÑģÐ»": 3161,
      "ĠÐ¿Ð¾Ð¶": 3162,
      "ĠÐ¿Ð¾ÑĤÑĢ": 3163,
      "ĠÐ¿Ð½ÐµÐ²": 3164,
      "ĠÐ¿Ð¾Ð¹Ð´ÑĳÐ¼": 3165,
      "ĠÐ¿Ð¾ÑĢÑĤÐ¸ÑĤÑĮ": 3166,
      "ĠÐ½Ð°Ð²": 3167,
      "ĠÐ½ÐµÐ²": 3168,
      "ĠÐ½Ð°Ð³ÑĢÑĥ": 3169,
      "ÐĶÐµÑĢÐ¶": 3170,
      "ÐĶÐ¾Ð¶Ð´": 3171,
      "ĠÐ²Ð¾": 3172,
      "ĠÐ²Ð°Ñģ": 3173,
      "ĠÐ²Ð¾Ð´": 3174,
      "ĠÐ²ÑģÑĤÐ°Ð²": 3175,
      "ĠÐ²ÑĢÐ°Ð³": 3176,
      "ĠÐ²Ð°Ð½Ð½Ð¾Ð¹": 3177,
      "ĠÐ²Ð°ÐºÑĨÐ¸Ð½Ð°": 3178,
      "ÑĪÐ¼Ð°ÑĢ": 3179,
      "ĠÑģÐ³": 3180,
      "ĠÑģÐµÑģÑĤ": 3181,
      "ĠÑģÑĥÐ¿": 3182,
      "ĠÑģÐ¾ÑģÑĤ": 3183,
      "ĠÑģÐ¾Ð¶Ð°Ð»": 3184,
      "ÐµÐ½Ñĭ": 3185,
      "ÐµÐ½Ð½Ð¾Ð³Ð¾": 3186,
      "Ð°ÐºÐµÑĢ": 3187,
      "ÐºÐ·": 3188,
      "Ð¢ÐµÐ»": 3189,
      "Ð¢Ð°Ð¼": 3190,
      "Ð¢Ð¾Ñĩ": 3191,
      "Ð¢Ð°Ð±Ð»ÐµÑĤÐºÐ¸": 3192,
      "ĠÐ´ÐµÑĤ": 3193,
      "ĠÐ´Ð¾Ð³Ð¾Ð²Ð¾ÑĢÐ¸Ð»Ð¸ÑģÑĮ": 3194,
      "ĠÐ´Ð½ÐµÐ²": 3195,
      "ĠÐ´Ð½ÐµÐ¹": 3196,
      "Ð¾Ð²ÑĮ": 3197,
      "Ð¾Ð²ÐµÑĢ": 3198,
      "Ð¾Ð²ÑĭÐ¹": 3199,
      "Ð¾Ð²Ð°Ð½Ð¸Ðµ": 3200,
      "Ð¾Ð²Ð¸Ð½Ñĥ": 3201,
      "ÑİÐºÐ·": 3202,
      "Ð¼Ð°ÑĤÑĭ": 3203,
      "ĠÐºÐ¾Ð»": 3204,
      "ÐµÐ»ÐµÐ²": 3205,
      "ÐµÑĢÐ½Ð¾Ðµ": 3206,
      "ÐµÑĢÐºÑĥ": 3207,
      "ÐµÑĢÐ¸Ð°Ð»": 3208,
      "ĠÑĤÐ¾Ð³Ð¾": 3209,
      "ĠÑĤÑĥÑĢ": 3210,
      "ĠÑĤÑĥÐ±": 3211,
      "ÐŁÐµÑĩ": 3212,
      "ÐŁÑıÑĤÑĮ": 3213,
      "ÐŁÐ¾Ð³Ð¾Ð´": 3214,
      "ÐŁÐ¾Ð¹Ð´ÑĳÐ¼": 3215,
      "ÐŁÐ¾Ð¶Ð°Ð»ÑĥÐ¹ÑģÑĤÐ°": 3216,
      "ĠÐ±Ð°Ð½": 3217,
      "ĠÐ±ÐµÐ³": 3218,
      "ĠÐ±ÐµÑģÑģ": 3219,
      "ĠÐ±Ñį": 3220,
      "ĠÐ±Ð°ÑĪ": 3221,
      "ĠÐ±ÑĢÐ°ÑĤÑĮ": 3222,
      "ĠÐ±ÑİÐ´Ð¶ÐµÑĤ": 3223,
      "ĠÐ±Ð¸Ð·Ð½ÐµÑģ": 3224,
      "ÑĤÑĮÑģÑı": 3225,
      "ÐĲÐ¹": 3226,
      "Ð°Ð»Ð¸Ð¿": 3227,
      "ÑħÐ»Ð°Ð´Ð½Ð¾": 3228,
      "Ð¾Ð»Ð¾": 3229,
      "Ð²Ð¸Ð¶": 3230,
      "Ð¿ÑĥÐ»ÑĮ": 3231,
      "Ð¿ÐµÐ½Ð´": 3232,
      "ÐĿÑĢÐ°Ð²": 3233,
      "ÐĿÐ¸ÑĩÐµÐ³Ð¾": 3234,
      "ÐŀÐ½Ð¸": 3235,
      "Ð¾ÑĢÐ¾Ð½": 3236,
      "Ð¡Ð°Ð¼": 3237,
      "Ð¡Ð°Ð´": 3238,
      "Ð¡ÐļÐĲ": 3239,
      "ĠÐ¼Ð¾Ð¹": 3240,
      "ĠÐ¼ÐµÐ±": 3241,
      "ĠÐ¼ÐµÑĪ": 3242,
      "ĠÐ¼Ð¾Ð»Ð¾Ð´": 3243,
      "ĠÐ¼Ð°Ð¼Ð°": 3244,
      "ĠÐ¼ÐµÑħÐ°Ð½Ð¸Ðº": 3245,
      "ĠÐ¼Ð°Ð·Ð¾ÑħÐ¸ÑģÑĤ": 3246,
      "ĠÐ·Ð°Ð±Ð¾ÑĤ": 3247,
      "ĠÐ·Ð°ÑĤÑı": 3248,
      "ĠÑĥÑĢÐ¾Ð²": 3249,
      "ÑĳÐ´": 3250,
      "ÑĳÐ±": 3251,
      "ÑĳÑĢÑĭ": 3252,
      "Ð¾Ð´ÑĢÐ¾Ðµ": 3253,
      "Ð±Ð¾Ð»": 3254,
      "Ð§ÑĥÐ²ÑģÑĤÐ²": 3255,
      "Ð§ÐµÑĢÐµÐ·": 3256,
      "Ð¾Ð½ÐµÑĨ": 3257,
      "Ð°Ð½Ñģ": 3258,
      "Ð¾Ð¶Ð°Ñİ": 3259,
      "Ð°Ð²Ð°ÑĤÑĮÑģÑı": 3260,
      "ÑĦÐ¾Ñģ": 3261,
      "ÑĦÐ¾ÑĢÑĤ": 3262,
      "ÑĦÐµÐ»ÐµÐ²": 3263,
      "ĠÑĩÐµÑĤ": 3264,
      "ĠÑĩÑĥÑĤÑĮ": 3265,
      "Ð°ÑĢÑĥ": 3266,
      "Ð°ÑĢÐ½ÑĭÐ¼": 3267,
      "Ð°ÑĢÐ¼Ð¾Ð½": 3268,
      "ĠÐ¿ÑĢÐ¾ÑħÐ¾Ð´Ð¸ÑĤ": 3269,
      "ĠÐ¿ÑĢÐ¾ÑħÐ»Ð°Ð´Ð½Ð¾": 3270,
      "Ð·Ð²": 3271,
      "ÑĢÐ°Ñī": 3272,
      "Ð»Ð¸Ð½Ð°": 3273,
      "Ð»Ð¸Ð½Ð¸ÐºÐµ": 3274,
      "ĠÐ»Ð¾Ð¼": 3275,
      "ĠÐ»ÐµÐ½Ð´": 3276,
      "ÑĨÐµÐ½": 3277,
      "ÑĨÐ¸Ð¾Ð½": 3278,
      "ĠÑĢÐ°Ð±": 3279,
      "ĠÑĢÐ°Ð²Ð½Ð¾": 3280,
      "ÐµÑģÐµÐ´": 3281,
      "Ð¸ÐºÐ»Ð¸Ð½Ð¸ÐºÐµ": 3282,
      "ĠÐ¿ÑĢÐ¸ÐºÐ¾Ð»ÑĮ": 3283,
      "ĠÐ¿ÑĢÐ¾Ð²ÐµÑĢ": 3284,
      "Ð°ÑĤÑĢÐ°": 3285,
      "Ð¥ÐĽ": 3286,
      "Ð´Ð°Ñİ": 3287,
      "ÑīÐ¸ÑĤ": 3288,
      "ÑīÐ¸Ðº": 3289,
      "ĠÐµÐ´": 3290,
      "ĠÐ¿Ð¾ÐµÑħÐ°ÑĤÑĮ": 3291,
      "Ð¾ÐºÑģ": 3292,
      "ÑĢÑĥÐº": 3293,
      "ĠÐ³Ð¸Ð¿": 3294,
      "ĠÐ³Ð°ÑĢÐ¼Ð¾Ð½": 3295,
      "Ð¸ÑıÑĤ": 3296,
      "ĠÐ½Ð¾Ð²Ð¾Ð¹": 3297,
      "Ð¸Ð¼Ð¾ÑģÑĤÐ¸": 3298,
      "ĠÑħÐ¾ÑĤÑı": 3299,
      "ĠÑħÑĥÐ¶Ðµ": 3300,
      "ĠÑħÐ°ÐºÐµÑĢ": 3301,
      "ÐĴÐ¾Ð´Ð¸ÑĤÐµÐ»ÑĮ": 3302,
      "ÐºÐ°Ñĩ": 3303,
      "ĠÑģÑĤÐ¸Ð»ÑĮÐ½Ð¾": 3304,
      "ĠÑĢÑİÐºÐ·": 3305,
      "ĠÐ´ÐµÐ»Ð°Ð¼": 3306,
      "ĠÐ±Ð¾Ð»ÐµÑİ": 3307,
      "Ð°Ð´Ð¾": 3308,
      "Ð°Ð´ÑĢÐ¸Ð´": 3309,
      "ÑĥÐ´ÐºÐ°": 3310,
      "ÐľÐ¾Ð³Ñĥ": 3311,
      "ÐľÐµÑħÐ°Ð½Ð¸Ðº": 3312,
      "Ð°Ð¶Ñĥ": 3313,
      "Ð¸ÑģÐ¸ÑĤ": 3314,
      "Ð»ÑİÑģÑĮ": 3315,
      "ĠÑģÐ»Ð°Ð´": 3316,
      "Ð¸ÑĪÑĮÑģÑı": 3317,
      "ĠÐ²ÑĭÑĥÑĩ": 3318,
      "ĠÐ²ÑĭÐ·Ð´": 3319,
      "ĠÐ²ÑĭÑģÐ¾Ðº": 3320,
      "onda": 3321,
      "Ð£ÑģÐ¿": 3322,
      "Ð£Ð½Ð¸Ð²ÐµÑĢ": 3323,
      "Ð£Ð´Ð°ÑĩÐ¸": 3324,
      "ĠÐ¾ÑĤÑĩÑĳÑĤ": 3325,
      "ĠÑĤÐ°ÐºÑģÐ¸": 3326,
      "Ð¾ÑģÑĤÐµÐ¹": 3327,
      "ĠÐ¾Ð±ÑĥÐ²": 3328,
      "Ð¸Ð·Ð½ÑĮ": 3329,
      "ÐĳÐµÑĢ": 3330,
      "ÐĳÐ¾Ð»ÑĮ": 3331,
      "ÐĳÑĭÐ²Ð°ÐµÑĤ": 3332,
      "ÐĳÐ¾Ð´ÑĢÐ¾Ðµ": 3333,
      "ĠÑģÐ¿Ð°ÑĤÑĮ": 3334,
      "ĠÑģÐ¿Ð¾ÑģÐ¾Ð±": 3335,
      "ĠÐ¶Ð°ÑĢ": 3336,
      "ĠÐ¶Ð´Ð°ÑĤÑĮ": 3337,
      "ĠÐ¶ÑĥÑĢÐ½Ð°Ð»Ð¸ÑģÑĤ": 3338,
      "ĠÑĦÐ¸ÑĢ": 3339,
      "ĠÑĦÐ°Ð½Ð°ÑĤ": 3340,
      "ÑĤÐ¸ÑĩÐ½Ð¾": 3341,
      "ÑįÐ½ÑĤ": 3342,
      "ÐłÐ°Ð´": 3343,
      "ine": 3344,
      "ĠÑģÐ²ÐµÐ¶": 3345,
      "ĠÐ¿ÑĢÐ¾ÑĦÐ¸Ð»": 3346,
      "ĠÐ»ÑİÐ±Ð¾Ð²ÑĮ": 3347,
      "ÐĽÐµÐ³": 3348,
      "ÐĽÐµÐºÐ°ÑĢÑģÑĤÐ²Ð°": 3349,
      "ÐĽÐ°Ð´Ð½Ð¾": 3350,
      "ĠÐ·Ð½Ð°Ñİ": 3351,
      "ĠÐ²ÐµÑĩÐ½ÑĭÐ¹": 3352,
      "ĠÑģÐ¼Ð¾ÑĤÑĢÑİ": 3353,
      "ĠÑģÐ¼Ð¾ÑĤÑĢÐµÑĤÑĮ": 3354,
      "ÑĭÑĪÐ°Ð»": 3355,
      "ĠÐ¸Ð´Ñĥ": 3356,
      "ĠÐ¸Ð´ÑĤÐ¸": 3357,
      "ÐŀÑĤÐµÑĨ": 3358,
      "ĠÐ·Ð°ÑīÐ¸ÑĤ": 3359,
      "ÑģÑĤÑĢÐ¾Ð¹": 3360,
      "ĠÑĢÐ°Ð·Ð°": 3361,
      "ĠÐ¾ÑĪÐ¸Ð±": 3362,
      "ĠÐ¿ÑĢÐ¸Ð²ÐµÐ·": 3363,
      "ÐĵÐ¾ÑĢÐ¾Ð´": 3364,
      "ÑĭÑĩÐºÐ°": 3365,
      "ĠÐ½ÑĥÐ¶ÐµÐ½": 3366,
      "ĠÐ³Ð¾ÑĢÑĭ": 3367,
      "ĠÐºÐ¾Ð½ÑģÑĥÐ»ÑĮÑĤ": 3368,
      "ÐĸÐ´Ñĥ": 3369,
      "ÐĸÑĳÑģÑĤÐºÐ¾": 3370,
      "ÐĸÐµÑģÑĤÑĮ": 3371,
      "ÐĸÐ¸Ð·Ð½ÑĮ": 3372,
      "ĠÐ¿Ð¾Ð»Ð¾Ð²Ð¸Ð½Ñĥ": 3373,
      "ĠÐ¿Ð¾Ð»Ð¸ÐºÐ»Ð¸Ð½Ð¸ÐºÐµ": 3374,
      "ĠÐ¿Ð¾ÐºÐ¾Ð¹": 3375,
      "ĠÐŁÐŀ": 3376,
      "Ð¡Ð»ÑĭÑĪÐ°Ð»": 3377,
      "ĠÐ±ÑĥÐ´ÑĥÑī": 3378,
      "ÑħÐ¾Ð´Ð¸Ð»": 3379,
      "ÑĭÐ²Ð°ÑĤÑĮ": 3380,
      "ÐµÑħÐ¸": 3381,
      "ĠÑģÐºÐ¾ÑĢÐ¾": 3382,
      "ĠÑģÐºÐ¸Ð´": 3383,
      "ĠÑģÐºÑĥÑĩ": 3384,
      "Ð¸ÑĢÐ¾Ð²Ð°Ð½": 3385,
      "ÑĥÐ»Ðµ": 3386,
      "ÑģÐ¿Ð¾ÑĢÑĤ": 3387,
      "Ð¡Ð¿ÑĢÐ°Ð²Ð»ÑıÐµÑĪÑĮÑģÑı": 3388,
      "ĠÐºÐ»Ð°ÑģÑģÐ½Ð°Ñı": 3389,
      "ÐŀÐºÐ¾Ð»Ð¾": 3390,
      "ĠÐ¿Ð°ÑĢÐºÐµ": 3391,
      "ĠÐ´Ð¾ÑĢÐ¾Ð¶Ðµ": 3392,
      "ÐµÐ¶Ð°ÑĤÑĮ": 3393,
      "ĠCro": 3394,
      "ĠÐ´ÑĢÑĥÐ³Ð¾Ð¹": 3395,
      "ĠÐ´ÑĢÑĥÐ³Ð¸Ð¼": 3396,
      "Ð¸ÑĩÐ½ÑĭÐµ": 3397,
      "ÑĥÑĢÑģ": 3398,
      "ÑıÐ¶ÑĳÐ»": 3399,
      "ĠÐ¿Ð¾Ð½Ð¸Ð¼": 3400,
      "ÐµÐ·Ð´Ð¸ÑĤÑĮ": 3401,
      "ĠGTA": 3402,
      "ĠGala": 3403,
      "ĠÐ¿ÑĢÐ¾ÑģÑĤÑĭÐ»": 3404,
      "ĠNet": 3405,
      "Ð½Ð¸ÑĨÐ°": 3406,
      "ĠÐ¿Ð¸ÑģÐ°ÑĤÑĮ": 3407,
      "ĠÐ°Ð¿ÑĤ": 3408,
      "ĠÐ°Ð¿Ð¿ÐµÐ½Ð´": 3409,
      "ĠÑĦÐ¸Ð»ÑĮÐ¼Ð¾Ð²": 3410,
      "ĠÑĪÐ°Ñħ": 3411,
      "ĠÑĥÐ²Ð»ÐµÐº": 3412,
      "Ð¸Ð·Ð°Ð¹Ð½ÐµÑĢ": 3413,
      "ÐĳÑĥÐ´Ñĥ": 3414,
      "ĠÐ±ÑĢÐ°ÑĤÐ°": 3415,
      "ĠÐ¿Ð¾Ð»ÐµÐ·Ð½ÑĭÐ¹": 3416,
      "ĠÐĿÐ°Ð´Ð¾": 3417,
      "ÑĮÑİÑĤÐµÑĢ": 3418,
      "ĠÐ¿ÑĢÐ¾Ð³ÑĢÐ°Ð¼Ð¼Ð¸ÑģÑĤÐ°Ð¼": 3419,
      "ĠÐ¿ÑĢÐ°Ð²Ð¸Ð»": 3420,
      "ĠÑģÐ´ÐµÐ»Ð°Ñİ": 3421,
      "ĠÑĤÐµÑģÑĤÐ¸ÑĢÐ¾Ð²ÑīÐ¸Ðº": 3422,
      "ĠÐľÐ°Ð´ÑĢÐ¸Ð´": 3423,
      "Ð¡Ð¾Ð²ÑĢÐµÐ¼ÐµÐ½Ð½Ð¾Ðµ": 3424,
      "ĠÑĩÐ¸ÑĤÐ°ÑĤÑĮ": 3425,
      "ĠÐ³Ð¾ÑĤÐ¾Ð²Ð¸ÑĤÑĮ": 3426,
      "ÐĳÐ¾Ð»ÐµÐµ": 3427,
      "ĠÐ²ÑĭÐ±Ð¸": 3428,
      "ĠÐ¾ÑĤÐ´ÑĭÑħÐ°": 3429,
      "ĠÐ¾ÑĤÐ´ÑĭÑħÐ°Ñİ": 3430,
      "ĠÑįÐºÑģÐº": 3431,
      "ĠÑįÐºÑĢÐ°Ð½": 3432,
      "ĠÐ°Ð½Ð³Ð»Ð¸Ð¹": 3433,
      "ĠÐĽÐ¸Ð²ÐµÑĢ": 3434,
      "ĠÐ·Ð°Ð¿Ð¸ÑģÑĮ": 3435,
      "ĠÑģÑĤÑĢÐ°Ð½": 3436,
      "ĠÐ¾Ð¿ÑĭÑĤÐ½ÑĭÐ¹": 3437,
      "ĠÐ¿Ð¾Ð¿ÑĢÐ¾Ð±ÑĥÐµÐ¼": 3438,
      "ĠÐ´ÐµÑĤÑģÑĤÐ²Ð¾": 3439,
      "ÐĴÑĭÐ·Ð´Ð¾ÑĢÐ¾Ð²ÐµÐ»": 3440,
      "ĠÐºÐ¾Ð¼ÑĦÐ¾ÑĢÑĤ": 3441,
      "ÐĿÑĥÐ¶Ð½Ñĭ": 3442,
      "ÑĢÐ°Ð´Ð°Ñİ": 3443,
      "ĠÑĢÐ°Ð´Ð¾ÑģÑĤÑĮ": 3444,
      "ĠÐ¿Ð¾ÑĢÐ°": 3445,
      "ĠÐ¿Ð¾Ð·Ð¶Ðµ": 3446,
      "ĠÑģÐ¾Ð±Ð»Ñİ": 3447,
      "ĠÑģÐ¾Ð±ÐµÑģÐµÐ´": 3448,
      "Ð½Ð¾ÑģÑĤÑĮÑİ": 3449,
      "ĠÐ±Ð»Ð¸Ð¶Ð°Ð¹ÑĪ": 3450,
      "Ð¡ÑĤÑĢÐ°Ð´Ð°Ñİ": 3451,
      "ĠÐ¿Ð»Ð°Ð½Ð¸ÑĢÑĥÑİ": 3452,
      "ĠÐ²ÐµÑģÑĮ": 3453,
      "ĠÐ±Ð¸Ð»ÐµÑĤ": 3454,
      "ĠÑĤÐµÑħÐ½Ð¾Ð»Ð¾Ð³Ð¸Ð¹": 3455,
      "ĠDar": 3456,
      "ĠÐ¿Ð¾Ð³Ð¾Ð´Ñĭ": 3457,
      "ĠÑģÑĤÐ¸Ð»ÑĮÐ½ÑĭÐµ": 3458,
      "Ð»Ð¸Ð²Ð¾": 3459,
      "ĠÐ½ÐµÐ´ÐµÐ»Ð¸": 3460,
      "ĠÐºÑĢÑĥÑĤÑĭÐµ": 3461,
      "ĠÐ¸Ð½ÑĤÐµÑĢÐµÑģÐ½Ð¾Ð³Ð¾": 3462,
      "ĠÐ¼ÑĭÑģÐ»": 3463,
      "ĠÐ¼Ð°Ð»Ð¾": 3464,
      "ĠÑģÑĤÐ°ÑĤÑĮÐ¸": 3465,
      "ĠÐ¶Ð¸Ð²ÑĳÑĤ": 3466,
      "ÐŀÑĤÐ»Ð¸ÑĩÐ½Ð°Ñı": 3467,
      "Ð¸ÑĩÐµÑģÐºÐ¾Ðµ": 3468,
      "ĠÐ²ÑģÑĤÑĢÐµÑĤÐ¸ÑĤÑĮ": 3469,
      "Ð½Ð¾Ð²ÐµÐ½Ð¸Ðµ": 3470,
      "ĠÐ¿Ð¸Ð»Ð¾ÑĤÐ¾Ð¼": 3471,
      "ĠÐ»ÑİÐ´ÐµÐ¹": 3472,
      "ĠÑģÑĤÑĢÐ°Ð´Ð°Ð½Ð¸Ñı": 3473,
      "ĠÐľÐ¸Ð»Ð°Ð½Ðµ": 3474,
      "ÐºÐµÑĤÐ±Ð¾Ð»": 3475,
      "ĠÐ´ÐµÑĢÐ¶Ð¸ÑĤ": 3476,
      "Ð¾Ð»Ð½ÑĨÐµ": 3477,
      "ĠÐ¼ÑĥÐ·": 3478,
      "ĠÐ¼Ð°ÑĤÑĩ": 3479,
      "ĠÑĥÑģÐ¿ÐµÐ»": 3480,
      "ĠÑĥÑģÐ¿ÐµÑħÐ¸": 3481,
      "ĠÑĥÐ²Ð°Ð¶Ð°ÑİÑĤ": 3482,
      "ĠÐĲÑĦÐ¸Ð½": 3483,
      "ĠÐĳÐ°ÑĢÑģÐµÐ»Ð¾Ð½Ðµ": 3484,
      "ĠÐ·Ð°Ð´Ð°ÑĩÐ¸": 3485,
      "ĠÑģÑİÑĢÐ¿ÑĢ": 3486,
      "ÐŁÐ¾Ð´Ð¾ÑĢÐ¾Ð¶Ð°Ð»": 3487,
      "ĠFlu": 3488,
      "ÐŁÐ¾ÑģÐ¼Ð¾ÑĤÑĢ": 3489,
      "ĠÐ¿Ð¾ÑĩÐµÐ¼Ñĥ": 3490,
      "ĠVol": 3491,
      "ĠÐ½Ð¸ÐºÑĥÐ´Ð°": 3492,
      "ĠÐ·Ð°Ð²Ð¸Ð´ÑĥÑİ": 3493,
      "ĠÑĥÐ½Ð¸Ð²ÐµÑĢÐµ": 3494,
      "Ð¡Ð»ÑĥÑĪÐ°Ñİ": 3495,
      "ĠÐ¸Ð½ÑĦÐµÐº": 3496,
      "ÑĭÐ»ÑĮ": 3497,
      "ĠÐ½Ð°ÐºÐ¾Ð½ÐµÑĨ": 3498,
      "ÐµÐ½Ð¸ÐµÐ¼": 3499,
      "ÐļÐ°Ð¶Ð´ÑĭÐ¹": 3500,
      "ĠÐ·Ð°ÑĢÐ¿Ð»Ð°ÑĤ": 3501,
      "ĠÐ¿ÑĢÐµÐ´Ð¿Ð¾Ñĩ": 3502,
      "ĠÐŁÑĢÐ°Ð³Ñĥ": 3503,
      "ĠÐ°Ð½ÑĤÐ¸Ð±Ð¸Ð¾ÑĤ": 3504,
      "ĠÑģÑĩÐ°ÑģÑĤÐ»Ð¸Ð²": 3505,
      "ĠÐ¸ÑģÑĤÐ¾ÑĢÐ¸Ð¸": 3506,
      "ĠÐ·Ð²ÐµÑĢÑĮ": 3507,
      "ĠÑĥÐ´Ð¸Ð²": 3508,
      "ĠÑĥÐ´Ð¾Ð²Ð¾Ð»ÑĮ": 3509,
      "ĠÑĥÐ³Ð»": 3510,
      "ĠÐ²ÑĭÐ¸Ð³ÑĢÐ°Ð»Ð¸": 3511,
      "Ð¤Ð°ÑĢÐ¼Ð°ÑĨÐµÐ²ÑĤÐ¾Ð¼": 3512,
      "ĠÐ¿ÐµÑĢÐµÐ¶Ð¸Ð²Ð°Ð¹": 3513,
      "ĠÐºÐ¾Ð¼Ð°Ð½Ð´Ð¸ÑĢÐ¾Ð²": 3514,
      "Ð´Ð¾ÑħÐ½ÑĥÑĤÑĮ": 3515,
      "ĠÐ¿ÑĢÐ¾Ð´ÑĥÐºÑĤÐ¾Ð²": 3516,
      "ĠÐ¿ÑĢÐ¾Ð´ÑĥÐºÑĤÑĭ": 3517,
      "ĠÐ´ÐµÐ¹ÑģÑĤÐ²Ð¸Ñı": 3518,
      "ĠUnity": 3519,
      "ĠUniqlo": 3520,
      "ÑıÑģÐ°Ñİ": 3521,
      "ĠÐ¿Ð¸ÑĨÑĨÐ°": 3522,
      "ĠÐ²Ð½Ð¸Ð¼Ð°ÑĤÐµÐ»ÑĮÐ½ÑĭÐ¹": 3523,
      "ÑĢÐ°Ð±Ð¾ÑĤÑĩÐ¸Ðº": 3524,
      "ĠÑĩÐ¸ÑģÑĤÑĭÐ¹": 3525,
      "Ð¡Ð»Ð¾Ð¶Ð½ÑĭÐ¹": 3526,
      "ĠÐ¿Ð¾Ð½ÑĢÐ°Ð²Ð¸Ð»ÑģÑı": 3527,
      "ĠÑģÐµÑĢÐ´ÑĨÐ°": 3528,
      "ĠÐºÐ¾Ð¼Ð¿Ð°Ð½Ð¸Ð¸": 3529,
      "ĠÐºÐ¾Ð¼Ð¿ÑĮÑİÑĤÐµÑĢ": 3530,
      "ÐļÐ¾Ð¼ÐµÐ´Ð¸Ñı": 3531,
      "ÐļÐ¾Ð¼ÐµÐ´Ð¸Ñİ": 3532,
      "Ð¨ÑĥÐ¼": 3533,
      "ĠÑģÐµÑĢÑĮÑĳÐ·Ð½Ð°Ñı": 3534,
      "ÐļÐ¾ÑĪÐ¼Ð°ÑĢ": 3535,
      "ĠÐ´ÑĥÑĪÐ¸": 3536,
      "ĠÐºÑĥÑģÐ°ÐµÑĤÑģÑı": 3537,
      "ĠÐ±ÐµÑģÐ¿Ð»Ð°ÑĤ": 3538,
      "ĠÐ¼ÑĥÐ´ÑĢÐ¾": 3539,
      "ĠÐ½Ð°ÑĪÐµÐ¹": 3540,
      "ĠÑģÑĤÑĢÐ°Ñħ": 3541,
      "ĠÑĢÑĭÐ½ÐºÐµ": 3542,
      "ĠÑĨÐ²ÐµÑĤÑĭ": 3543,
      "ĠÐĴÐµÐ½Ñĥ": 3544,
      "ÐĲÐºÑĤÑĳÑĢÐ¾Ð¼": 3545,
      "ĠÐ°ÑĤÐ¼Ð¾ÑģÑĦÐµÑĢÐ°": 3546,
      "Nike": 3547,
      "ĠÑģÐ¾Ð»Ð¸Ð´Ð½Ð¾": 3548,
      "ÐµÐ½Ð°Ð²Ð¸Ð¶Ñĥ": 3549,
      "ĠÐ±Ð°ÑģÐºÐµÑĤÐ±Ð¾Ð»": 3550,
      "ĠÐ±ÑĢÐ¾Ð½ÑħÐ¸ÑĤ": 3551,
      "ĠÐ¼Ð¾Ð»Ð¾ÐºÐ¾": 3552,
      "ĠÐ¼Ð¾Ð½ÑģÑĤÑĢ": 3553,
      "ĠÐ¿ÑĢÐ¸Ð³Ð¾ÑĤÐ¾Ð²": 3554,
      "ÑĢÑĥÐºÑĤÑĭ": 3555,
      "ĠÐ¶ÐµÐ»ÑĥÐ´ÐºÐ°": 3556,
      "ÐĵÐ¸Ð±ÐºÐ¸Ð¹": 3557,
      "ĠÐºÐ¾Ð½ÑĤÑĢÐ¾Ð»": 3558,
      "Ð¡ÐºÐ¾ÑĢÐµÐµ": 3559,
      "ĠÐ¿ÑĢÐ¾ÑĪÐ»Ð¾Ð¹": 3560,
      "ĠÐ·Ð°Ð±Ð¾Ð»ÐµÐ²Ð°Ð½Ð¸Ðµ": 3561,
      "ĠÐ¿Ð¾ÑħÑĥÐ´ÐµÐ»": 3562,
      "Ð®ÑĢÐ¸ÑģÑĤÐ¾Ð¼": 3563,
      "ĠÐ¿Ð°ÑĦÐ¾Ñģ": 3564,
      "ĠÐ½ÐµÐ¼ÐµÑĨ": 3565,
      "ĠÐ´ÑĭÑħÐ°ÑĤÐµÐ»ÑĮ": 3566,
      "ÐŁÑĢÐ¸Ð²ÑĭÑĩÐºÐ°": 3567,
      "ÐŁÐ¾Ð·Ð¸ÑĤÐ¸Ð²Ð½Ð¾Ðµ": 3568,
      "ÐĿÐµÐ´ÐµÐ»Ñİ": 3569,
      "Ð¡Ð¾Ð±Ð¸ÑĢÐ°Ñİ": 3570,
      "ĠÑĩÐ°ÑīÐµ": 3571,
      "ÐľÐµÑĩÑĤÐ°": 3572,
      "ĠÐ²ÑĭÑĪÐ»Ð¾": 3573,
      "Ð£Ð²Ð°Ð¶Ð°Ñİ": 3574,
      "ĠÐ¾ÑĤÐ½Ð¾ÑĪÐµÐ½Ð¸Ñı": 3575,
      "ĠÐ¿Ð¾Ð¿ÑĥÐ»ÑıÑĢÐ½Ð°Ñı": 3576,
      "ÐĴÐ¾ÑģÑģÑĤÐ°Ð½Ð¾Ð²Ð¸Ð»ÑģÑı": 3577,
      "ĠÐ¾Ð±Ð½Ð¾Ð²Ð»ÑĳÐ½Ð½ÑĭÐ¹": 3578,
      "ĠÐ´Ð¸ÑģÑĨÐ¸Ð¿Ð»Ð¸Ð½Ð°": 3579,
      "flix": 3580,
      "yundai": 3581,
      "Ð¾ÑĢÐ°Ð²Ð»Ð¸Ð²": 3582,
      "ĠÐŃÐ¹ÑĦÐµÐ»ÐµÐ²": 3583,
      "ĠÐ¿Ð¾ÑĤÑĢÑıÑģÐ°Ñİ": 3584,
      "ĠÐ¿Ð½ÐµÐ²Ð¼Ð¾Ð½": 3585,
      "ÐĶÐ¾Ð¶Ð´Ð»Ð¸Ð²Ð¾": 3586,
      "ĠÐ²ÑģÑĤÐ°Ð²Ð°ÑĤÑĮ": 3587,
      "Ð¢ÐµÐ»ÐµÐ²Ð¸Ð·Ð¾ÑĢÑĭ": 3588,
      "Ð¢Ð¾ÑĩÐ½Ð¾": 3589,
      "ÐµÑĢÐºÑĥÐ»ÑĳÐ·": 3590,
      "ĠÑĤÑĥÐ±ÐµÑĢÐºÑĥÐ»ÑĳÐ·": 3591,
      "ÐŁÐµÑĩÐ°Ð»ÑĮÐ½Ð¾": 3592,
      "ÐŁÐ¾Ð³Ð¾Ð´Ð°": 3593,
      "ÐĿÑĢÐ°Ð²ÑıÑĤÑģÑı": 3594,
      "Ð¡Ð°Ð´Ð¾Ð¼": 3595,
      "ĠÐ¼ÐµÑĪÐ°ÐµÑĤ": 3596,
      "ĠÐ»ÐµÐ½Ð´Ð¸Ð½Ð³": 3597,
      "ĠÐ²ÑĭÐ·Ð´Ð¾ÑĢÐ°Ð²Ð»Ð¸Ð²": 3598,
      "Ð£Ð½Ð¸Ð²ÐµÑĢÑģ": 3599,
      "ĠCrocs": 3600,
      "ĠGalaxy": 3601,
      "ĠNetflix": 3602,
      "ĠÑĪÐ°ÑħÐ¼Ð°ÑĤÑĭ": 3603,
      "ĠÐ°Ð½Ð³Ð»Ð¸Ð¹ÑģÐºÐ¸Ð¹": 3604,
      "ĠÐĽÐ¸Ð²ÐµÑĢÐ¿ÑĥÐ»ÑĮ": 3605,
      "ĠDart": 3606,
      "ĠÑģÑİÑĢÐ¿ÑĢÐ¸Ð·": 3607,
      "ĠFlutter": 3608,
      "ĠÐ·Ð°ÑĢÐ¿Ð»Ð°ÑĤÐ°": 3609,
      "10": 3610,
      "EA": 3611,
      "KEA": 3612,
      "Mercedes": 3613,
      "Maz": 3614,
      "OG": 3615,
      "OVID": 3616,
      "Sony": 3617,
      "UX": 3618,
      "ag": 3619,
      "au": 3620,
      "aft": 3621,
      "ber": 3622,
      "bok": 3623,
      "ch": 3624,
      "cer": 3625,
      "ee": 3626,
      "ev": 3627,
      "icr": 3628,
      "os": 3629,
      "oft": 3630,
      "pun": 3631,
      "tch": 3632,
      "wag": 3633,
      "yber": 3634,
      "ĠÑĤÐ¾ÑĢ": 3635,
      "ĠÐ°Ð²ÑĤÐ¾Ð¼": 3636,
      "ĠÑĢÐ¾ÑģÑĤ": 3637,
      "Ð¾ÑĤÐ¾": 3638,
      "Ð¾ÐµÐ´": 3639,
      "Ð°Ð¸Ð¼": 3640,
      "ĠÐĺ": 3641,
      "ÑĤÑı": 3642,
      "ÑĤÐµÐ»ÑĮÐ½Ð¾": 3643,
      "ÑĤÐ¾Ð¼Ñĥ": 3644,
      "Ð¸Ñī": 3645,
      "Ð¸ÐµÑĤÐ°": 3646,
      "Ð¸Ð°ÑĤÑĢÐ°": 3647,
      "ÑĢÐµ": 3648,
      "ÑĢÐµÑĤ": 3649,
      "ÑĢÐµÑģÑģ": 3650,
      "ÑĢÐµÐ¿": 3651,
      "ÑĢÐ¾Ð»Ð¾Ð³Ð°": 3652,
      "ÑĢÑıÐ´": 3653,
      "ÑģÐµÑĤ": 3654,
      "ÑģÑĥÑĤ": 3655,
      "ÑģÐ°ÑĨÐ¸Ñı": 3656,
      "Ð½Ñĥ": 3657,
      "Ð½Ð¸ÑĪÑĮ": 3658,
      "Ð½ÑĥÑĤ": 3659,
      "Ð½Ð¸ÐºÐ°": 3660,
      "Ð½ÑĳÐ¼": 3661,
      "Ð½Ð¾Ð²Ð°": 3662,
      "Ð»Ð¾ÑĤ": 3663,
      "Ð»ÐµÐ¼": 3664,
      "Ð»Ð¸ÑĤ": 3665,
      "Ð»ÑģÑı": 3666,
      "Ð»ÑĥÐ±": 3667,
      "Ð»Ð¾ÑģÑĮ": 3668,
      "ÑĥÐµÑĤ": 3669,
      "ÑĥÐ¾Ð¼": 3670,
      "ÑĥÐºÐ°": 3671,
      "ÑĥÐ°Ð»ÑĮ": 3672,
      "ÑĥÑģÑĤÐ°Ð²": 3673,
      "ÑĭÑĤÑĮ": 3674,
      "ÑĭÑĩÐ½Ð¾": 3675,
      "ÑĭÑĤÐ½Ð¾": 3676,
      "ÑĮÐµÑĢÐ°": 3677,
      "ÑıÐ²": 3678,
      "ÑĩÐ½ÑĭÐ¹": 3679,
      "ÑĩÐµÑģÑĤÐµÑĢ": 3680,
      "ĠÐ¿Ð°Ð¼": 3681,
      "ĠÐ¿ÐµÐ´": 3682,
      "ĠÐ¿Ð°Ð´": 3683,
      "ĠÐ¿ÐµÐ²": 3684,
      "ĠÐ¿Ð¾Ð»ÑĮÐ·": 3685,
      "ĠÐ¿ÑĭÑĤ": 3686,
      "ĠÐ¿Ð°Ð¿Ð°": 3687,
      "ĠÐ¿Ð»Ð¾ÑħÐ¾": 3688,
      "ĠÐ¿ÑģÐ¸Ñħ": 3689,
      "ĠÐ¿ÑĭÐ»ÑĮ": 3690,
      "ĠÐ½Ð¾Ð³": 3691,
      "ĠÐ½Ð°Ð»": 3692,
      "ĠÐ½ÐµÐ¹": 3693,
      "ĠÐ½ÐµÐ»ÑĮ": 3694,
      "ĠÐ½ÑĭÑĤÑĮ": 3695,
      "ÐĶÐ°Ð»": 3696,
      "ÐĶÐ²": 3697,
      "ÐĶÐ¾ÐºÑĥÐ¼ÐµÐ½ÑĤ": 3698,
      "ÐĶÐ¸ÐµÑĤÐ°": 3699,
      "ĠÐ²ÐµÐ»": 3700,
      "ĠÐ²Ð¾ÑĤ": 3701,
      "ĠÐ²Ð°Ð»": 3702,
      "ĠÐ²ÐµÐ´": 3703,
      "ĠÐ²Ð¸Ð·": 3704,
      "ĠÐ²Ð¿ÐµÑĢ": 3705,
      "ĠÐ²Ð¸ÑĢÑĥÑģ": 3706,
      "ĠÐ²Ð½ÑĥÑĤ": 3707,
      "ÑĪÐ¸": 3708,
      "Ð´ÑıÐ¼": 3709,
      "ĠÑģÐ¾Ð½": 3710,
      "ĠÑģÐ¸Ð´": 3711,
      "ĠÑģÑĢÐ°Ð²": 3712,
      "ĠÑģÐ¸ÑģÑĤ": 3713,
      "ĠÑģÐ¸Ð»ÑĮÐ½Ð¾": 3714,
      "ĠÑģÐ°Ñħ": 3715,
      "ĠÑģÑĩÐ¸ÑĤÐ°ÑĤÑĮ": 3716,
      "ĠÑģÐ¾Ð»Ð½ÐµÑĩÐ½Ð¾": 3717,
      "ĠÑģÐ»Ð¸ÑĪÐºÐ¾Ð¼": 3718,
      "ĠÑģÑĭÐ¿": 3719,
      "ĠÑģÑħÐ¾Ð¶Ñĥ": 3720,
      "ĠÑģÐ¸Ð¼Ð¿": 3721,
      "ĠÑģÑĨÐµÐ½": 3722,
      "ĠÑģÐºÐ°Ñĩ": 3723,
      "ĠÑģÑĥÑģÑĤÐ°Ð²": 3724,
      "ÐµÐ½Ð¸Ð²": 3725,
      "ÐµÐ½Ð½Ð°Ñı": 3726,
      "ÐµÐ½ÑĩÐµÑģ": 3727,
      "Ð°ÐºÐ°Ð»": 3728,
      "ÐºÐµÑĢ": 3729,
      "ÐºÐ°Ð½": 3730,
      "ÐºÐ¾Ð»ÑĮÐºÐ¾": 3731,
      "ÐºÐ°Ð½ÑĤ": 3732,
      "ÐºÐµÐ½Ð´Ð°": 3733,
      "ĠÐ´Ð¾Ð»": 3734,
      "ĠÐ´Ð°Ð²": 3735,
      "ĠÐ´ÑĭÑĪ": 3736,
      "ĠÐ´ÐµÑĪÐµÐ²": 3737,
      "Ð¾Ð²Ð°ÑĤ": 3738,
      "Ð¾Ð²Ð¸Ð´": 3739,
      "Ð¼Ð¾Ð»Ð¾Ð³Ð°": 3740,
      "ĠÐºÑĥ": 3741,
      "ĠÐºÐ°Ð»": 3742,
      "ĠÐºÐ¸ÑĪ": 3743,
      "ĠÐºÑĥÑĪ": 3744,
      "ĠÐºÑĥÑħ": 3745,
      "ĠÐºÐ¸Ð±ÐµÑĢ": 3746,
      "ĠÐºÐ¾Ð²Ð¸Ð´": 3747,
      "ÐµÑĢÑģÑĤ": 3748,
      "ÐµÑĢÐ¾Ð¹": 3749,
      "ÐµÑĢÐ¸Ð¼": 3750,
      "ĠÑĤÐµÑĢ": 3751,
      "ĠÑĤÐ¸ÑĪ": 3752,
      "ĠÑĤÐµÐ¼Ñĥ": 3753,
      "ĠÑĤÑĢÐ°ÑĤ": 3754,
      "ĠÑĤÐ°Ð±Ð»ÐµÑĤÐºÐ¸": 3755,
      "ĠÑĤÐ°Ð±Ð»ÐµÑĤÐºÐ°Ð¼Ð¸": 3756,
      "ĠÑĤÐ¾ÐºÑģ": 3757,
      "ĠÑĤÑıÐ¶ÑĳÐ»": 3758,
      "ĠÑĤÐºÐ°Ð½": 3759,
      "ÐŁÐ¾ÑģÑĤ": 3760,
      "ĠÐ¸Ð¿": 3761,
      "ĠÐ¸Ð¼Ð¸": 3762,
      "ĠÐ±Ð¾": 3763,
      "ĠÐ±Ð¾ÑĢÐ¾": 3764,
      "ĠÐ±Ð¾ÐµÐ²": 3765,
      "ÐĲÐ½Ð°Ð»": 3766,
      "Ð¸Ð²Ð°ÑĤÑĮ": 3767,
      "Ð¸Ð²Ð°Ñİ": 3768,
      "Ð¸Ð²Ð½ÑĭÐµ": 3769,
      "Ð¸Ð²Ð°Ð½Ð¸Ðµ": 3770,
      "Ð¸Ð²Ð½Ð¾ÑģÑĤÑĮ": 3771,
      "Ð¾Ð»Ð¾Ñĩ": 3772,
      "Ð¾Ð»Ð¾Ñģ": 3773,
      "Ð¾Ð»ÑĳÑĤ": 3774,
      "Ð²ÑģÑı": 3775,
      "Ð²Ð¾Ð·": 3776,
      "Ð²ÑĳÑĢ": 3777,
      "ÐļÐ°ÐºÑĥÑİ": 3778,
      "Ð¿Ð¾Ð»": 3779,
      "Ð¿Ð¾Ð¼Ð½": 3780,
      "ÐŀÑģ": 3781,
      "ÐŀÐ´": 3782,
      "ÐŀÐĴ": 3783,
      "ÐŀÐ²ÑģÑı": 3784,
      "ÑĢÐ°Ð¹": 3785,
      "Ð¾Ð¼Ð°Ð½ÑĤ": 3786,
      "Ð¾ÑĢÐ¸Ð¹": 3787,
      "Ð°ÑģÐ½Ð¾": 3788,
      "Ð°ÑģÐ½Ð¾ÑģÑĤÑĮ": 3789,
      "Ð¡Ñĩ": 3790,
      "Ð¡ÐµÐ¼": 3791,
      "Ð¡ÐµÑĢÐ¸Ð°Ð»": 3792,
      "ĠÐ¼ÑĥÐ»ÑĮÑĤ": 3793,
      "ĠÐ¼ÐµÐ¼Ñĭ": 3794,
      "ĠÐ·Ð½": 3795,
      "ĠÐ·Ð°Ñģ": 3796,
      "ĠÐ·ÑĢÑı": 3797,
      "ĠÑĥÑģÑĤ": 3798,
      "ĠÑĥÑħ": 3799,
      "ĠÑĥÐ¼Ð¸": 3800,
      "ĠÑĥÑİÑĤ": 3801,
      "ÑĳÐ·Ñĭ": 3802,
      "Ð¾Ð´Ð°Ð½": 3803,
      "Ð±Ñĭ": 3804,
      "Ð±ÐµÑĢ": 3805,
      "Ð±ÐµÐ·": 3806,
      "Ð¾Ð½Ð¸Ñı": 3807,
      "Ð°Ð½ÐµÑĤ": 3808,
      "Ð°Ð½ÑĩÐµÑģÑĤÐµÑĢ": 3809,
      "Ð¾Ð¶ÐµÑĪÑĮ": 3810,
      "Ð¸ÑĤÐ¸Ðº": 3811,
      "Ð¸ÑĤÐ¸ÐºÐ¸": 3812,
      "Ð¾Ð±Ð¾ÑĢÐ¾": 3813,
      "Ð¾Ð±ÑĥÑģ": 3814,
      "Ð¾Ð±ÑīÐµ": 3815,
      "Ð¾Ð±Ð±Ð¸": 3816,
      "ÑĦÐ¸Ñģ": 3817,
      "ÑĦÐ¸Ð»ÑĮÐ¼": 3818,
      "ĠÑĩÐ°Ñģ": 3819,
      "ĠÑĩÑĥÐ²ÑģÑĤÐ²": 3820,
      "ĠÑĩÐ¸Ð»Ðµ": 3821,
      "ĠÑıÐ·Ð²": 3822,
      "ĠÐ½Ð°ÑĢÑĥÑĪ": 3823,
      "ĠÐ½Ð°ÑģÑĤÑĢÐ¾Ð¹": 3824,
      "ĠÐ½Ð°Ð¾Ð±Ð¾ÑĢÐ¾": 3825,
      "Ð°ÑĢÐ°ÑİÑģÑĮ": 3826,
      "Ð°ÑĢÐ°ÐºÑĤÐµÑĢ": 3827,
      "ĠÐ¿ÑĢÐ¾Ñī": 3828,
      "Ð·Ñı": 3829,
      "Ð¶Ð°Ð¹": 3830,
      "Ð¾Ð¹Ð´Ñĥ": 3831,
      "ĠÐ»ÑĥÑĩÑĪ": 3832,
      "ĠÐ»ÐµÐ½Ð¸Ð²": 3833,
      "ÐµÐ½ÑĮÐµ": 3834,
      "ÑĨÐ¾Ð¼": 3835,
      "ÑĨÐ¸Ñİ": 3836,
      "ÑĨÑģÐµÑĤ": 3837,
      "Ð½Ð°ÑĤÐµÐ»ÑĮÐ½Ð¾": 3838,
      "Ð»ÑıÑĤ": 3839,
      "Ð»ÑıÑİ": 3840,
      "ÐµÐ´Ð¶": 3841,
      "Ð¸ÐºÐ»ÑİÑĩ": 3842,
      "Ð¸ÐºÑģÐ°ÑĨÐ¸Ñı": 3843,
      "ĠÐ¿ÑĢÐ¸Ð·": 3844,
      "ĠÐ¿ÑĢÐµÑģÑģ": 3845,
      "ĠÐ¿ÑĢÐ¸ÑĪ": 3846,
      "ĠÐ¿ÑĢÐ°ÐºÑĤ": 3847,
      "ĠÐ¿ÑĢÐ¾Ð³ÑĢÐ°Ð¼Ð¼": 3848,
      "ĠÐ¿ÑĢÑıÐ¼": 3849,
      "ĠÐ¿ÑĢÐ°ÐºÑĤÐ¸": 3850,
      "Ð°ÑĤÐ¸ÑĤ": 3851,
      "Ð°ÑĤÐµÐ»ÐµÐ¼": 3852,
      "Ð´Ð°Ñĩ": 3853,
      "ÑīÐ°ÑİÑĤ": 3854,
      "ÐĺÐ¼": 3855,
      "ÐĺÐ·": 3856,
      "ÐĺÑģÐ¿": 3857,
      "ĠÐµÑĳ": 3858,
      "ĠÐ¿Ð¾ÐµÐ´": 3859,
      "ĠÐ¿Ð¾ÑĪÑĳÐ»": 3860,
      "Ð°ÑİÑīÐµÐµ": 3861,
      "ÑĢÑĥÑİ": 3862,
      "ĠÐ³ÐµÐ¹": 3863,
      "ĠÐ³ÐµÐ¿": 3864,
      "ĠÐ³Ð¾Ð»Ð¾Ð²": 3865,
      "ĠÐ³ÐµÑĢÐ¾Ð¹": 3866,
      "ÐµÐ¹ÐºÐµÑĢ": 3867,
      "Ð»Ð°ÑģÐ¸ÑĪÑĮ": 3868,
      "ĠÐ½Ð¾Ð²Ð°Ñı": 3869,
      "ĠÐ½Ð¾Ð²ÑĭÑħ": 3870,
      "ĠÐ½Ð¾Ð²Ð¾ÑģÑĤÑĮ": 3871,
      "ĠÐ½Ð¾Ð²Ð¾ÑģÑĤÐµÐ¹": 3872,
      "ÐĹÐ°ÑĤÑı": 3873,
      "ÐĹÐ°Ð»Ð¸Ð¿": 3874,
      "ĠÑħÐ¾Ð»Ð¾Ð´": 3875,
      "ĠÑħÐ²Ð°ÑĤ": 3876,
      "ĠÑħÐ¾Ð¶Ñĥ": 3877,
      "ĠÑħÐ¾ÑĩÐµÑĪÑĮ": 3878,
      "ĠÑħÐ¸ÑĢÑĥÑĢÐ³": 3879,
      "ĠÑħÐ°ÑĢÐ°ÐºÑĤÐµÑĢ": 3880,
      "Ð¯ÑģÐ½Ð¾": 3881,
      "ĠÑĢÐ°Ð±Ð¾ÑĤÐ°ÑİÑĤ": 3882,
      "ÐºÐ°Ñħ": 3883,
      "ĠÑģÑĤÑĢÐ¾": 3884,
      "ĠÑģÑĤÑĥÐ´": 3885,
      "ÑģÑĤÐ²ÐµÐ½Ð½ÑĭÐ¹": 3886,
      "ÑģÑĤÐ²Ð¸ÐµÐ¼": 3887,
      "ĠÑĢÐµÑģÑĤ": 3888,
      "ĠÑĢÐµÐº": 3889,
      "ĠÑĢÐ¸Ñģ": 3890,
      "ĠÑĢÐ¾Ð»Ð»": 3891,
      "ĠÑĢÐ¸ÑģÐº": 3892,
      "ĠÑĢÐµÐ´ÐºÐ¾": 3893,
      "ĠÐ´ÐµÐ»Ð°Ñİ": 3894,
      "ĠÐ±Ð¾Ð»ÑĮÐ½Ð¾": 3895,
      "Ð¾Ð¿Ð°ÑģÐ½Ð¾ÑģÑĤÑĮ": 3896,
      "ÐµÐ·Ð¸": 3897,
      "ÑĢÐ°Ð²Ð¸Ð»Ð¾ÑģÑĮ": 3898,
      "ĠÐºÐ°ÐºÑĥÑİ": 3899,
      "ÑĥÐ´Ð¾Ð¶": 3900,
      "ÐµÐºÐ¾": 3901,
      "ĠPro": 3902,
      "ÐľÐµÑĤ": 3903,
      "ÐľÐ°ÑĪ": 3904,
      "ÐľÐ¾ÑĢÐµ": 3905,
      "Ð¸ÑģÐ¾ÐµÐ´": 3906,
      "ĠÑģÐ»Ð¸Ð·": 3907,
      "ĠÑģÐ»ÑĳÐ·Ñĭ": 3908,
      "ĠÐ²ÑĭÑģÐ¿": 3909,
      "ĠÐ²ÑĭÑĢÐ°ÑģÑĤ": 3910,
      "ĠÐ²ÑĭÑĢÐ°Ð¶": 3911,
      "ĠÐ²ÑĭÐ³Ð¾Ð´": 3912,
      "ĠÑĤÐ°ÐºÐ¾Ð¹": 3913,
      "ĠÑĤÐ°ÐºÐ¸Ñħ": 3914,
      "ÑĤÐµÑĢÐ°Ð¿": 3915,
      "ĠÐ¾Ð±ÑĬ": 3916,
      "ĠÐ¾Ð±Ð¸Ð»ÑĮÐ½Ð¾Ðµ": 3917,
      "ĠÐ¾Ð±Ð¾Ð»Ð¾Ñĩ": 3918,
      "Ð¸Ð·Ð¼": 3919,
      "Ð¸Ð·Ð¸ÑĤÑĮ": 3920,
      "Ð¸Ð·Ð¼Ñĥ": 3921,
      "ĠÐ½ÐµÐ¾Ð±": 3922,
      "ÐĳÐ»": 3923,
      "ÐĳÐĲ": 3924,
      "ÐĳÑĥÑħÐ³Ð°Ð»ÑĤÐµÑĢ": 3925,
      "ÐĳÐ¾ÐµÐ²": 3926,
      "Ð¸ÑģÑĤÐ¾Ð¹": 3927,
      "Ð¾ÑģÐ¸Ð¿": 3928,
      "ĠÑĦÑĢÐ¾Ð½": 3929,
      "ĠÑĦÐ¾ÑĤÐ¾": 3930,
      "ĠÑĦÐ¸ÐºÑģÐ°ÑĨÐ¸Ñı": 3931,
      "ÑĤÐ¸Ð½Ñĭ": 3932,
      "ÑįÑĤÐ¾Ð¼Ñĥ": 3933,
      "ÐłÐ¾Ð¼Ð°Ð½ÑĤ": 3934,
      "ĠÐ²ÑģÐ¿Ð¾Ð¼Ð½": 3935,
      "âĢ¦": 3936,
      "ĠÑįÐ½": 3937,
      "ĠÐ´ÑĥÐ¼Ð°ÑİÑĤ": 3938,
      "ÐĽÐ¾Ð¼": 3939,
      "ÐĽÐµÐ¶": 3940,
      "ÐĽÐµÐ¹ÐºÐµÑĢ": 3941,
      "ĠÑĨÐµÐ»": 3942,
      "ĠÑĨÐµÐ»Ð¸": 3943,
      "ĠÐ²ÐµÑĩÐ½ÑĭÐµ": 3944,
      "ĠÐ²ÐµÑĩÐ½Ð¾Ðµ": 3945,
      "ÐµÐ»ÑĮÑīÐ¸Ðº": 3946,
      "ĠÑĥÑĩÑĤÑĥ": 3947,
      "ĠÑĥÑĩÑĳÐ±": 3948,
      "ĠÐ¸Ð´ÐµÐ¹": 3949,
      "ÐµÐ¿ÑĢÐµÑģÑģ": 3950,
      "ÐŀÑĤÐ´Ð¾Ñħ": 3951,
      "Ð¸Ð»ÑĮÐ½ÑĭÐµ": 3952,
      "Ð¸Ð»ÑĮÐ½Ñİ": 3953,
      "ÐļÐ»Ð°ÑģÑģÐ½ÑĭÐµ": 3954,
      "ĠÑģÐ»ÑĭÑĪÐ°ÑĤÑĮ": 3955,
      "ĠÐ¿Ð¾Ð´ÑĬ": 3956,
      "ĠÐ¿Ð¾Ð´ÑħÐ¾Ð´Ð¸ÑĤ": 3957,
      "ĠÐ¿Ð¾Ð´ÑĢÑıÐ´": 3958,
      "ĠÐ´ÑĢÑĥÐ¶": 3959,
      "ÐºÑĥÑĢÐµÐ½": 3960,
      "ÐŁÑĢÐ¸Ð³": 3961,
      "ÐŁÑĢÐ¸ÐºÐ»ÑİÑĩ": 3962,
      "ĠÐºÐ¾Ð½ÐºÑĥÑĢÐµÐ½": 3963,
      "ĠAcer": 3964,
      "ĠÐ¿Ð¾ÐºÐ°Ð¶Ñĥ": 3965,
      "ÑĭÐ²Ð°ÐµÑĤÑģÑı": 3966,
      "ĠÐĶÑĥÐ¾Ð¼": 3967,
      "ĠÑģÐºÐ°Ð·Ð°Ð»": 3968,
      "Ð°Ð»ÑĮÐ½Ð¸Ðº": 3969,
      "Ð¸ÑĨÐ¸ÑĤ": 3970,
      "ÑĳÑĤÐºÐ¾": 3971,
      "ÑĤÑĢÐ¸ÑĤ": 3972,
      "ĠÑģÐ°Ð¼Ð¾Ð»ÑĳÑĤ": 3973,
      "Ð¾Ð»Ð¾Ð³Ð¸Ð¸": 3974,
      "ÑģÐ¿ÐµÑĢÐ¸Ð¼": 3975,
      "ĠÐ»ÐµÑĩÐ¸ÑĤ": 3976,
      "ĠÐ²ÑĢÐ°ÑĩÑĥ": 3977,
      "Ð¾Ð²Ð¾ÑĢÐ¸Ð»": 3978,
      "ĠÐ¾Ð±ÑģÐ»": 3979,
      "ĠROG": 3980,
      "ĠRee": 3981,
      "Ð¸Ð¶Ðµ": 3982,
      "craft": 3983,
      "ĠJS": 3984,
      "Ð¤Ñĥ": 3985,
      "Ð¤ÑįÐ½ÑĤ": 3986,
      "Ð¤ÑĢÑĥÐºÑĤÑĭ": 3987,
      "ĠMercedes": 3988,
      "ĠMine": 3989,
      "ĠMicr": 3990,
      "ĠÐ³Ð¾ÑĢÐ¾Ð´Ð°": 3991,
      "ĠCOVID": 3992,
      "ĠCyber": 3993,
      "ĠÐ´ÑĢÑĥÐ³Ð¸Ñħ": 3994,
      "Ð´ÑĥÑħ": 3995,
      "ĠÐ±Ð¾Ð»ÑĮÐ½Ð¸ÑĨ": 3996,
      "ĠÐ´ÐµÐ½ÑĮÐ³Ð¸": 3997,
      "Ð¸ÑĢÑĥÐµÑĪÑĮ": 3998,
      "ĠÐ¿ÐµÑĢÐ²": 3999,
      "Ð¾Ð²Ð°ÑĤÑĮÑģÑı": 4000,
      "ÐłÐµÐ³ÑĥÐ»ÑıÑĢÐ½ÑĭÐ¹": 4001,
      "ĠÐ½Ð°Ð·ÑĭÐ²Ð°ÐµÑĤÑģÑı": 4002,
      "ĠÐ¿ÑĢÐ¸ÑħÐ¾Ð´Ð¸": 4003,
      "ĠÐ½Ð¾ÑĥÑĤÐ±ÑĥÐºÐ°": 4004,
      "Ð¾Ð²ÑĢÐµÐ¼ÐµÐ½Ð½Ð¾": 4005,
      "ĠÐ¿Ð»Ð°Ð½ÑĪ": 4006,
      "ĠÐ²ÑĩÐµÑĢÐ°ÑĪ": 4007,
      "ÐŁÐ¾ÑĩÑĤÐ¸": 4008,
      "ÐµÑĨÐ¸Ð¸": 4009,
      "ÑıÐ»ÑģÑı": 4010,
      "ÐĿÐ°Ð´ÐµÑİÑģÑĮ": 4011,
      "ÑĳÐ»ÑĭÐ¹": 4012,
      "ÐŀÐ±ÐµÑīÐ°ÑİÑĤ": 4013,
      "ĠÐ²Ð°Ð¶Ð½Ð¾Ðµ": 4014,
      "Ð¾Ð²Ð°Ð½Ñĭ": 4015,
      "ÐµÑĪÐ½Ð¾": 4016,
      "ĠÐ¼Ð¾Ð¶ÐµÑĪÑĮ": 4017,
      "ĠÐ½ÐµÐ´Ð²Ð¸Ð¶": 4018,
      "ĠÑĪÐ°Ð³": 4019,
      "ĠÑģÐ¿Ð¾ÑĢÑĤÐ¾Ð¼": 4020,
      "ĠÐ¡ÑĤ": 4021,
      "Ð¸Ð½Ð°Ñħ": 4022,
      "ĠÐ²ÐµÑĢÑģÐ¸Ñı": 4023,
      "ĠÐ¿ÑĢÐ¾Ð±ÐµÐ¶": 4024,
      "ĠÐ¾ÑĤÐ²ÐµÑĤ": 4025,
      "ĠÐĿÐĲ": 4026,
      "ĠÐĿÐĳÐĲ": 4027,
      "ĠÐ¿ÑĢÐ¾Ð³ÑĢÐ°Ð¼Ð¼Ð¸ÑģÑĤÐ¾Ð²": 4028,
      "ĠÑĦÑĥÑĤÐ±Ð¾Ð»ÐºÑĥ": 4029,
      "ĠÑĦÑĥÑĤÐ±Ð¾Ð»Ð¸ÑģÑĤÐ¾Ð¼": 4030,
      "ÐŀÐ¿Ð°ÑģÐ½Ð¾": 4031,
      "ĠÐ¾ÑĦÑĤÐ°Ð»ÑĮ": 4032,
      "Ð°ÐµÐ¼ÑģÑı": 4033,
      "Ð½ÐºÐ¾Ð¹": 4034,
      "Ð¾Ð²Ð°Ð»ÑģÑı": 4035,
      "ĠÐ³Ð¾ÑĤÐ¾Ð²Ð»ÑİÑģÑĮ": 4036,
      "ĠÑįÑĤÐ¾ÑĤ": 4037,
      "ĠÐ´Ð¸ÐµÑĤÐ°": 4038,
      "ĠÐ´Ð¾Ð±ÑĢÑĭÐ¹": 4039,
      "ĠÑĤÑĢÐ¾Ð¼Ð±": 4040,
      "ĠÑĥÐ´Ð¾Ð±Ð½ÐµÐµ": 4041,
      "ĠÑĥÐ´Ð¾Ð±ÑģÑĤÐ²Ð¾": 4042,
      "Ð¡ÐºÐ¸Ð½ÐµÑĪÑĮ": 4043,
      "ĠÐĴÐ¸Ð»ÑĮÐ½Ñİ": 4044,
      "ĠÐ±ÐµÑĢÑĳÐ¼": 4045,
      "Ð¾Ð±Ð¾Ð´ÐµÐ½": 4046,
      "ĠÐ²ÑĭÐ±Ð¾ÑĢÑĭ": 4047,
      "ĠÑįÐºÐ¾Ð»Ð¾Ð³": 4048,
      "ĠÑįÐºÑģÐ¿ÐµÑĢÐ¸Ð¼": 4049,
      "ĠÐ²ÐºÑĥÑģÐ½ÑĭÐ¹": 4050,
      "ĠÐ·Ð°Ð¿Ð°Ñħ": 4051,
      "ĠÐ¾Ð´Ð½Ð¾Ð¹": 4052,
      "ĠÐ¾Ð¿ÑĭÑĤ": 4053,
      "ĠÐ¿ÑĢÐ¾ÐµÐºÑĤÑĥ": 4054,
      "ĠÐļÐ¥ÐĽ": 4055,
      "ĠÐ´Ð¾ÑģÑĤÐ°Ð»": 4056,
      "ĠÐ¿Ð¾ÑĤÐ¾Ð¼Ñĥ": 4057,
      "ÐĺÐ½ÑĤÐµÑĢÐµÑģÐ½Ð¾Ðµ": 4058,
      "ĠÐ³ÑĢÐµÐµÑĤ": 4059,
      "ĠÐ·Ð°Ð½Ð¸Ð¼Ð°ÑİÑĤÑģÑı": 4060,
      "ĠÐ¿Ð¾Ð·Ð¸ÑĤÐ¸Ð²": 4061,
      "Ð¡ÑĤÐ°ÑĢ": 4062,
      "ĠÐ½Ð°ÑĩÐ°Ð»ÑĮÐ½Ð¸Ðº": 4063,
      "ÐŁÐ¾Ð»Ð¸ÑĨÐµÐ¹ÑģÐºÐ¸Ð¼": 4064,
      "ĠÐ½Ð°Ð´ÑĳÐ¶Ð½Ð¾": 4065,
      "ĠDota": 4066,
      "ĠData": 4067,
      "ĠÐ½ÐµÐ¿Ð»Ð¾Ñħ": 4068,
      "ÐĳÑĭÐ»": 4069,
      "ĠÑģÐµÑĢÐ¸Ð°Ð»Ð¾Ð²": 4070,
      "ĠÐĳÐ°ÑĢÑģÐ°": 4071,
      "ĠÑĤÐ²Ð¾Ð¸": 4072,
      "ÐŁÐ¾Ð½ÑıÑĤ": 4073,
      "ÐŁÐ¾Ð½ÑĢÐ°Ð²Ð¸Ð»Ð¾ÑģÑĮ": 4074,
      "ĠÑģÐ»ÑĥÑĪÐ°Ñİ": 4075,
      "ĠÑĩÐµÐ¼Ð¾Ð´Ð°Ð½": 4076,
      "Ð°Ð·Ð°Ð»Ð¾ÑģÑĮ": 4077,
      "ĠHyundai": 4078,
      "ĠÐ½ÐµÐ´ÐµÐ»Ðµ": 4079,
      "ĠÑģÐ°Ð¹ÑĤÑĭ": 4080,
      "Ð£ÑĩÐ¸ÑĪÑĮ": 4081,
      "Ð¸ÑĩÐµÑģÐºÐ¸Ðµ": 4082,
      "ĠÐ²ÑģÑĤÑĢÐµÑĤÐ¸ÑĤÑĮÑģÑı": 4083,
      "ĠÑģÐµÐ¼ÑĮÑı": 4084,
      "ÐµÑĢÑĤÐ¾Ð½Ð¸Ñı": 4085,
      "ĠÐ»ÑİÐ´ÑıÐ¼": 4086,
      "Ð°ÑĤÐµÐ»ÑĮÐ½Ð°Ñı": 4087,
      "ĠÑģÑĤÑĢÐ°Ð´Ð°ÑĤÑĮ": 4088,
      "ÐłÐ°Ð±Ð¾ÑĤÐ°Ñİ": 4089,
      "ÐĿÐ°Ð´ÑĳÐ¶Ð½ÑĭÐ¹": 4090,
      "ÐĿÐ°Ð´ÑĳÐ¶Ð½Ð°Ñı": 4091,
      "ÐĿÐ°Ð´ÑĳÐ¶Ð½Ð¾ÑģÑĤÑĮ": 4092,
      "ĠÐľÐ¸Ð»Ð°Ð½Ð°": 4093,
      "ĠÐºÑĢÐ¾ÑģÑģÐ¾Ð²ÐµÑĢÐ°": 4094,
      "ĠÐ°ÑĢÑĤÑĢÐ¸ÑĤ": 4095,
      "ĠÐ¿Ð¾Ð²ÑĭÑĪ": 4096,
      "ĠÐ·Ð°Ð±ÑĥÐ´ÑĮ": 4097,
      "ĠÐ¿Ð¾Ð´Ð°ÑĢÐºÐ°": 4098,
      "ÐĹÐ°Ð¿Ð¸ÑĪÐµÑĪÑĮ": 4099,
      "ĠÑĢÑĥÐºÐ¸": 4100,
      "ĠÑĢÑĥÐ»Ð¸ÑĤ": 4101,
      "ĠÑĢÑĥÐ»ÑıÑĤ": 4102,
      "ĠÐ¼Ð°ÑĤÑĩÐ¸": 4103,
      "ĠÐ¿Ð¾ÑģÑĤÑĥÐ¿": 4104,
      "ĠÐŁÐ°ÑĢÐ¸Ð¶Ð°": 4105,
      "ĠÑĥÐ²Ð°Ð¶Ð°Ñİ": 4106,
      "ĠÐĲÑĦÐ¸Ð½Ð°Ñħ": 4107,
      "kswag": 4108,
      "ĠÑģÑħÐ¾Ð´Ð¸Ð¼": 4109,
      "ĠÑģÐ¾Ð²ÑĢÐµÐ¼ÐµÐ½Ð½ÑĭÐµ": 4110,
      "Ð¾Ð½ÑĩÐ°ÑĤÐµÐ»ÑĮÐ½Ð¾": 4111,
      "ĠÐ¾ÑĤÐºÑĢ": 4112,
      "ĠÐ¾ÑĤÐºÐ°Ð·": 4113,
      "ĠÐ¾ÑĤÐºÐ»Ð°Ð´": 4114,
      "ĠÐĴÐ°ÑĢÑĪÐ°Ð²Ñĥ": 4115,
      "ĠFor": 4116,
      "ĠÐ¿Ð¾Ð¼Ð½Ð¸ÑĪÑĮ": 4117,
      "ĠÑģÐ¾ÑĨÑģÐµÑĤ": 4118,
      "ÐļÐ°ÑĢÑĤÐ¸Ð½Ñĭ": 4119,
      "ĠÐ±Ð°ÑĢÐ¼ÐµÐ½": 4120,
      "ĠÐ²Ð¾ÑģÑĤÑĢÐµÐ±Ð¾Ð²Ð°Ð½Ñĭ": 4121,
      "orta": 4122,
      "ĠVI": 4123,
      "ĠÐ³Ð»Ð°Ð·Ð°": 4124,
      "ĠÐ³Ð¾Ð²Ð¾ÑĢÐ¸Ð»Ð¸": 4125,
      "ÐĹÐ°Ð²Ð¸ÑģÐ¸ÑĤ": 4126,
      "ĠÐ¿ÑĢÐ°Ð²Ð¸Ð»ÑĮÐ½Ð¾Ðµ": 4127,
      "ĠÐ¼ÑĥÐ·ÑĭÐºÐ¸": 4128,
      "ĠÐ¼ÑĥÐ·ÑĭÐºÐ°Ð½ÑĤ": 4129,
      "ĠÐ°ÐºÑĤÑĥÐ°Ð»ÑĮ": 4130,
      "ĠÐ°ÐºÑĤÐ¸Ð²Ð½Ð¾ÑģÑĤÑĮ": 4131,
      "ÐµÑĢÐ°Ð¿Ð¸Ñı": 4132,
      "ÐŁÐ»Ð°ÐºÐ°Ð»": 4133,
      "Ð§Ð°ÑģÑĤÐ¾": 4134,
      "ÐĺÐ³ÑĢÐ°Ñİ": 4135,
      "ĠÑĢÐµÐ¶Ðµ": 4136,
      "ÐĽÐµÑĩÐ¸ÑĤÑģÑı": 4137,
      "ĠÐ¿Ð¾ÑģÐ»ÑĥÑĪÐ°Ñİ": 4138,
      "ĠÑĩÐµÐ»Ð¾Ð²ÐµÐºÐ°": 4139,
      "ĠÐ¾ÐºÐ¾Ð½ÑĩÐ°ÑĤÐµÐ»ÑĮÐ½Ð¾": 4140,
      "Ð¾ÑĤÐµÐºÐ°": 4141,
      "Ð¿ÑĢÐ¾Ð³ÑĢÐ°Ð¼Ð¼Ð¸ÑģÑĤ": 4142,
      "ÐĿÐ°Ð²ÐµÑĢÐ½Ð¾Ðµ": 4143,
      "ĠÐ¼Ð¾Ð´ÐµÐ»ÑĮ": 4144,
      "ĠÐ¼Ð°Ð¼Ðµ": 4145,
      "ĠÑĥÐ³Ð¾Ð²Ð¾ÑĢÐ¸Ð»": 4146,
      "ĠÐ¸Ð·ÑĥÑĩÐ°Ð»": 4147,
      "ĠÐ±Ð»Ð°Ð³Ð¾Ð´Ð°ÑĢÐ½Ð¾ÑģÑĤÐ¸": 4148,
      "ĠÐ¾ÑģÐ¾Ð±ÐµÐ½Ð½Ð¾Ð³Ð¾": 4149,
      "ĠÑĤÑĢÐµÐ½Ð¸ÑĢÐ¾Ð²ÐºÐ¸": 4150,
      "ĠÐ²Ð¾ÑģÑĤÑĢÐµÐ±Ð¾Ð²Ð°Ð½Ð½ÑĭÐ¹": 4151,
      "Ġ30": 4152,
      "ĠÐ¿Ð¸ÑĤÑĮÑĳ": 4153,
      "ĠÐ¿Ð¸ÑĨÑĨÑĥ": 4154,
      "ĠÐ²Ð½Ð¸Ð¼Ð°Ð½Ð¸Ðµ": 4155,
      "ĠÑģÐ´Ð°Ð»": 4156,
      "ĠÐ¼ÐµÐ´ÑģÐµÑģÑĤÑĢÐ°": 4157,
      "ĠÐ¼ÐµÑģÑĤÐ¾": 4158,
      "Ð¾Ð½ÑĤÐ°Ð½": 4159,
      "ĠÑģÐ¿Ð°ÑģÐ°ÐµÑĤ": 4160,
      "ÐĿÐ°ÑĩÐ°ÑĤÑĮ": 4161,
      "ĠÐ´Ð¾ÑĢÐ¾Ð³Ð¸Ðµ": 4162,
      "ĠÐ´Ð¾ÑĢÐ¾Ð³Ð°Ñı": 4163,
      "ĠÐ¿Ð¾Ð½ÑĢÐ°Ð²Ð¸Ð»Ð¾ÑģÑĮ": 4164,
      "ĠÑģÐµÑĢÐ´ÑĨÐµ": 4165,
      "ĠÑĥÐ»ÑĭÐ±Ð°ÑĤÑĮÑģÑı": 4166,
      "ĠÐ¾ÑĢÐ³Ð°Ð½Ð¸Ð·Ð¼Ð°": 4167,
      "ĠIT": 4168,
      "ĠIKEA": 4169,
      "ĠÐ½ÐµÑĢÐ²Ñĭ": 4170,
      "ĠÐ²Ð¾Ð·Ð´ÑĥÑħ": 4171,
      "ĠÐ¸ÑģÑĤÐ¸Ð½Ð°": 4172,
      "Ð¾Ð¼Ð±Ð°": 4173,
      "ĠÐ¼Ð¾Ð¸": 4174,
      "ĠÐ¼Ð¾ÑīÐ½Ð¾": 4175,
      "ĠÑĦÐ¸Ð·Ð¸ÑĩÐµÑģÐºÐ°Ñı": 4176,
      "ĠÑĨÐ²ÐµÑĤ": 4177,
      "ÐŁÑĢÐ¾Ð³ÑĢÐ°Ð¼Ð¼Ð¸ÑģÑĤÐ¾Ð¼": 4178,
      "ĠÐºÐ¾ÑĤÐ¾ÑĢÐ¾Ðµ": 4179,
      "ĠÑįÐºÐ¾Ð½Ð¾Ð¼Ð¸ÑĤÑĮ": 4180,
      "ĠÑįÐºÐ¾Ð½Ð¾Ð¼Ð¸ÐºÑĥ": 4181,
      "ĠÐ¾Ð´Ð½Ð¾Ð²ÑĢÐµÐ¼ÐµÐ½Ð½Ð¾": 4182,
      "ĠÐ¾Ð¿Ð°ÑģÐ½Ð°Ñı": 4183,
      "ĠÐºÐ²Ð°ÑĢÑĤÐ¸ÑĢÐ°": 4184,
      "ĠÐ°Ð²ÑĤÐ¾Ð±ÑĥÑģ": 4185,
      "ÑĢÑıÐ½ÐºÐ¾Ð¹": 4186,
      "ĠÐ½Ð°Ð¿Ð¸ÑĪ": 4187,
      "ĠÑģÑĬÐµÐ·Ð´Ð¸ÑĤÑĮ": 4188,
      "ÐĿÐµÐ¿Ð»Ð¾Ñħ": 4189,
      "ÐĿÐµÐ¿Ð»Ð¾ÑħÐ¾": 4190,
      "Ð¡Ð²ÐµÐ¶": 4191,
      "Ð¡Ð²Ð¾Ð±Ð¾Ð´ÐµÐ½": 4192,
      "ĠÑĥÐ¼ÐµÐ½Ð¸Ðµ": 4193,
      "Ð¡Ð¿Ð¾ÐºÐ¾Ð¹Ð½Ð¾Ðµ": 4194,
      "ĠÐ¿ÐµÑĢÐµÐ½ÑĳÑģ": 4195,
      "ĠÐ¿ÐµÑĢÑģÐ¿ÐµÐºÑĤÐ¸Ð²Ð½Ð°Ñı": 4196,
      "ĠÐºÐ¾ÑĤÐ¾ÑĢÑĭÐµ": 4197,
      "ĠÑĪÑĥÑĤÐ¸ÑĤ": 4198,
      "ĠÐ¾Ð²Ð¾ÑīÐ°Ð¼Ð¸": 4199,
      "ĠÐ±Ð¸Ð±Ð»Ð¸Ð¾ÑĤÐµÐºÐµ": 4200,
      "ĠÐ½ÐµÑģÐºÐ¾Ð»ÑĮÐºÐ¾": 4201,
      "ÐĶÐ¾ÑģÑĤÑĥÐ¿": 4202,
      "ĠÐ²ÐµÑĤÑĢÑıÐ½ÐºÐ¾Ð¹": 4203,
      "ĠÐ²ÐºÐ»ÑİÑĩÑĥ": 4204,
      "ĠÑģÐ°Ð»Ð°ÑĤ": 4205,
      "ĠÑģÐ¸Ð»Ð°": 4206,
      "ĠÑģÐ¾Ð¿ÑĢÐ¾Ð²": 4207,
      "ÐļÑĢÐ¾ÑģÑģÑĭ": 4208,
      "ĠÐ´Ð¾Ð»Ð»Ð°ÑĢ": 4209,
      "ĠÐºÑĢÐ¾Ð²Ð¸": 4210,
      "ĠÑĤÑĳÐ¿Ð»Ð¾Ðµ": 4211,
      "ÐŁÐµÑĢÐµÐ´Ð°Ð²Ð°Ð¹": 4212,
      "ĠÑĥÐ»Ð¸ÑĨÐµ": 4213,
      "ĠÑĩÑĤÐ¾Ð±Ñĭ": 4214,
      "ĠÑıÐ¿Ð¾Ð½ÑģÐºÐ¸Ðµ": 4215,
      "ĠÑĢÐ°Ð¹Ð¾Ð½Ðµ": 4216,
      "ÐľÐ¾Ð´Ð½Ð¾": 4217,
      "ĠÐ¾ÑĤÐ´ÐµÐ»Ðµ": 4218,
      "ĠÐ¾Ð±ÑĢÐ°ÑĤÐ¸ÑĤÑĮÑģÑı": 4219,
      "ÐĽÑĥÑĩÑĪÐ¸Ðµ": 4220,
      "ĠÐ´Ð¾ÑģÑĤÐ°Ð²ÐºÑĥ": 4221,
      "ĠÐ±Ð»Ð¸Ð·ÐºÐ¾": 4222,
      "ĠÐ¾ÑģÑĤÐ°Ð»Ð¾ÑģÑĮ": 4223,
      "ĠÐ¼Ð°ÑĤÐµÐ¼Ð°ÑĤÐ¸ÐºÐ¸": 4224,
      "ĠÑģÐ¾ÑĥÑģÐ¾Ð¼": 4225,
      "ÐĹÐ°Ð²ÑĤÑĢÐ°ÐºÐ°Ð»": 4226,
      "ĠÑģÑĩÐ°ÑģÑĤÑĮÑı": 4227,
      "ĠÐ¿ÑĢÐ¸Ð»Ð¾Ð¶ÐµÐ½Ð¸Ð¹": 4228,
      "ĠÐ³Ð°ÑģÑĤÑĢÐ¸ÑĤ": 4229,
      "ĠÐ¿Ð¾Ð±ÐµÐ´Ð¸ÑĤÑĮ": 4230,
      "ĠÐºÐ°Ð¹ÑĦÑĥÑİ": 4231,
      "ĠWi": 4232,
      "ĠÐ¾ÑĩÐµÑĢÐµÐ´": 4233,
      "Ð¾ÑıÐ½Ð¸Ðµ": 4234,
      "Ð°ÑĤÐ¾ÑĩÐ½Ð¾": 4235,
      "ĠÐ¿Ð¾Ð¶Ð°ÑĢÐ½ÑĭÐ¼": 4236,
      "ĠÐ½Ð°Ð³ÑĢÑĥÐ·": 4237,
      "ĠÐ²Ð¾Ð´Ñĥ": 4238,
      "ĠÐ²ÑĢÐ°Ð³Ð¸": 4239,
      "ĠÑģÐ³Ð¾ÑĢ": 4240,
      "ĠÑģÐµÑģÑĤÑĢÑĭ": 4241,
      "ĠÑģÐ¾Ð¶Ð°Ð»ÐµÐ½Ð¸Ñİ": 4242,
      "ĠÐ´Ð½ÐµÐ²Ð½Ð¸Ðº": 4243,
      "ĠÑĤÑĥÑĢÐ¸Ð·Ð¼Ñĥ": 4244,
      "ĠÐ±ÐµÑģÑģÐ¾Ð½": 4245,
      "ĠÐ±ÑįÐºÐµÐ½Ð´Ð°": 4246,
      "Ð¾ÑĢÐ¾Ð½Ñĭ": 4247,
      "ĠÐ¼Ð¾Ð»Ð¾Ð´ÑĨÑĭ": 4248,
      "ĠÐ·Ð°Ð±Ð¾ÑĤÐ¸ÑĤÑĮÑģÑı": 4249,
      "Ð§ÑĥÐ²ÑģÑĤÐ²ÑĥÑİ": 4250,
      "ĠÑĩÐµÑĤÐ²ÑĳÑĢ": 4251,
      "ĠÐ³Ð¸Ð¿ÐµÑĢÑĤÐ¾Ð½Ð¸Ñı": 4252,
      "ĠÐ²ÑĭÑĥÑĩÐ¸ÑĤÑĮ": 4253,
      "ĠÐ²ÑĭÑģÐ¾ÐºÐ¾Ð¹": 4254,
      "ĠÐ¾Ð±ÑĥÐ²Ð¸": 4255,
      "ÐĳÐµÑĢÑĳÐ¼": 4256,
      "ĠÑĦÐ¸ÑĢÐ¼Ðµ": 4257,
      "ÐĽÐµÐ³ÐºÐ¾": 4258,
      "ĠÐ¾ÑĪÐ¸Ð±ÐºÐ¸": 4259,
      "ĠÐ¿ÑĢÐ¸Ð²ÐµÐ·ÑĥÑĤ": 4260,
      "ĠÐºÐ¾Ð½ÑģÑĥÐ»ÑĮÑĤÐ°Ð½ÑĤ": 4261,
      "ĠÐ±ÑĥÐ´ÑĥÑīÐµÐ³Ð¾": 4262,
      "ĠÑįÐºÑģÐºÑĥÑĢÑģ": 4263,
      "ĠÑģÑĤÑĢÐ°Ð½Ñĥ": 4264,
      "ĠÐ±Ð»Ð¸Ð¶Ð°Ð¹ÑĪÐ¸Ð¹": 4265,
      "ĠVolkswag": 4266,
      "ĠÐ¿ÑĢÐµÐ´Ð¿Ð¾ÑĩÐ¸ÑĤÐ°Ñİ": 4267,
      "ĠÐ°Ð½ÑĤÐ¸Ð±Ð¸Ð¾ÑĤÐ¸ÐºÐ¸": 4268,
      "ĠÑĥÐ´Ð¸Ð²Ð»ÑıÐµÑĤ": 4269,
      "ĠÑĥÐ´Ð¾Ð²Ð¾Ð»ÑĮÑģÑĤÐ²Ð¸ÐµÐ¼": 4270,
      "ĠÑĥÐ³Ð»Ñĥ": 4271,
      "ÑĢÐ°Ð±Ð¾ÑĤÑĩÐ¸ÐºÐ¾Ð¼": 4272,
      "Ð¨ÑĥÐ¼Ð¸ÑĤ": 4273,
      "ĠÐ±ÐµÑģÐ¿Ð»Ð°ÑĤÐ½Ð¾": 4274,
      "ĠÐ¼ÑĥÐ´ÑĢÐ¾ÑģÑĤÑĮ": 4275,
      "ĠÐ¿Ð¾ÑĤÑĢÑıÑģÐ°ÑİÑīÐ¸Ð¹": 4276,
      "ĠÐ²ÑĭÐ·Ð´Ð¾ÑĢÐ°Ð²Ð»Ð¸Ð²Ð°Ð¹": 4277,
      "ĠÑģÑİÑĢÐ¿ÑĢÐ¸Ð·Ð¾Ð²": 4278,
      "Mazda": 4279,
      "osoft": 4280,
      "punk": 4281,
      "ĠÐ°Ð²ÑĤÐ¾Ð¼Ð¾Ð±Ð¸Ð»ÑĮ": 4282,
      "Ð°Ð¸Ð¼Ð½Ð¾": 4283,
      "ÑģÑĥÑĤÑģÑĤÐ²Ð¸Ðµ": 4284,
      "ĠÐ¿Ð°Ð¼ÑıÑĤÑĮ": 4285,
      "ĠÐ¿ÐµÐ´Ð¸Ð°ÑĤÑĢÐ°": 4286,
      "ĠÐ½ÐµÐ»ÑĮÐ·Ñı": 4287,
      "ÐĶÐ°Ð»ÐµÐºÐ¾": 4288,
      "ÐĶÐ¾ÐºÑĥÐ¼ÐµÐ½ÑĤÐ°Ð»ÑĮÐ½ÑĭÐ¹": 4289,
      "ĠÐ²ÐµÐ»Ð¾ÑģÐ¸Ð¿": 4290,
      "ĠÐ²Ð°Ð»ÑıÐ»ÑģÑı": 4291,
      "ĠÐ²Ð¸Ð·ÑĥÐ°Ð»ÑĮÐ½Ð¾": 4292,
      "ĠÐ²Ð¿ÐµÑĢÑĳÐ´": 4293,
      "ĠÐ²Ð½ÑĥÑĤÑĢÐ¸": 4294,
      "ĠÑģÑĢÐ°Ð²Ð½": 4295,
      "ĠÑģÑĭÐ¿ÑĮ": 4296,
      "ĠÑģÐ¸Ð¼Ð¿ÑĤ": 4297,
      "ĠÐºÐ°Ð»Ð¾ÑĢÐ¸Ð¹": 4298,
      "ĠÐºÑĥÑĪÐ°Ð»": 4299,
      "ĠÑĤÑĢÐ°ÑĤÐ¸Ð»": 4300,
      "ÐŁÐ¾ÑģÑĤÐ°ÑĢÐ°ÑİÑģÑĮ": 4301,
      "ĠÐ¸Ð¿Ð¾ÑĤÐµÐºÐ°": 4302,
      "ĠÐ±Ð¾ÑĢÐ¾ÑĤÑĮÑģÑı": 4303,
      "ĠÐ±Ð¾ÐµÐ²Ð¸Ðº": 4304,
      "ÐŀÐ²ÑģÑıÐ½ÐºÑĥ": 4305,
      "Ð¡ÐµÐ¼ÐµÐ¹": 4306,
      "ĠÐ¼ÑĥÐ»ÑĮÑĤÑĦÐ¸Ð»ÑĮÐ¼": 4307,
      "ĠÑĥÑİÑĤÐ½ÑĭÐ¹": 4308,
      "Ð±ÐµÐ·Ð¾Ð¿Ð°ÑģÐ½Ð¾ÑģÑĤÑĮ": 4309,
      "ĠÐ½Ð°Ð¾Ð±Ð¾ÑĢÐ¾ÑĤ": 4310,
      "ĠÐ³ÐµÐ¹Ð¼ÐµÑĢ": 4311,
      "ĠÐ³ÐµÐ¿Ð°ÑĤÐ¸ÑĤ": 4312,
      "ÐĹÐ°Ð»Ð¸Ð¿Ð°ÑĤÐµÐ»ÑĮÐ½Ð°Ñı": 4313,
      "ĠÑģÑĤÑĥÐ´ÐµÐ½ÑĤÐ¾Ð²": 4314,
      "ĠÑĢÐ¾Ð»Ð»Ñĭ": 4315,
      "Ð¸ÑģÐ¾ÐµÐ´Ð¸Ð½": 4316,
      "ĠÑģÐ»Ð¸Ð·Ð¸ÑģÑĤÐ¾Ð¹": 4317,
      "ĠÐ²ÑĭÑĢÐ°Ð¶ÐµÐ½Ð¸Ðµ": 4318,
      "ĠÐ¾Ð±ÑĬÑıÑģ": 4319,
      "ĠÐ¾Ð±Ð¾Ð»Ð¾ÑĩÐºÐ¸": 4320,
      "ÐĳÐ¾ÐµÐ²Ð¾Ðµ": 4321,
      "ÐłÐ¾Ð¼Ð°Ð½ÑĤÐ¸ÐºÐ°": 4322,
      "ĠÐ²ÑģÐ¿Ð¾Ð¼Ð½Ð¸Ð»": 4323,
      "ÐĽÐµÐ¶Ð°Ð»": 4324,
      "ÐĽÐµÐ¹ÐºÐµÑĢÑģ": 4325,
      "ÐŀÑĤÐ´Ð¾ÑħÐ½Ð¸": 4326,
      "ĠÐ¿Ð¾Ð´ÑĬÑĳÐ¼": 4327,
      "ÐŁÑĢÐ¸ÐºÐ»ÑİÑĩÐµÐ½ÑĩÐµÑģ": 4328,
      "ĠÐĶÑĥÐ¾Ð¼Ð¾": 4329,
      "ĠReebok": 4330,
      "Ð¤ÑįÐ½ÑĤÐµÐ·Ð¸": 4331,
      "ĠMinecraft": 4332,
      "ĠMicrosoft": 4333,
      "ĠCyberpunk": 4334,
      "ĠÐ±Ð¾Ð»ÑĮÐ½Ð¸ÑĨÐµ": 4335,
      "ĠÐ½ÐµÐ´Ð²Ð¸Ð¶Ð¸Ð¼Ð¾ÑģÑĤÐ¸": 4336,
      "ĠÐ¾ÑĦÑĤÐ°Ð»ÑĮÐ¼Ð¾Ð»Ð¾Ð³Ð°": 4337,
      "ĠÑĤÑĢÐ¾Ð¼Ð±Ð¾Ð·": 4338,
      "ĠÐĴÐ¸Ð»ÑĮÐ½ÑİÑģ": 4339,
      "ĠÑįÐºÑģÐ¿ÐµÑĢÐ¸Ð¼ÐµÐ½ÑĤÐ¾Ð²": 4340,
      "ĠÐ¿Ð¾Ð·Ð¸ÑĤÐ¸Ð²Ðµ": 4341,
      "ĠÐ¼ÑĥÐ·ÑĭÐºÐ°Ð½ÑĤÐ¾Ð¼": 4342,
      "ĠÑĩÐµÑĤÐ²ÑĳÑĢÐºÑĥ": 4343,
      "ĠVolkswagen": 4344,
      "07": 4345,
      "30": 4346,
      "Audi": 4347,
      "Dev": 4348,
      "ED": 4349,
      "ES": 4350,
      "En": 4351,
      "For": 4352,
      "GO": 4353,
      "Honda": 4354,
      "Kia": 4355,
      "LED": 4356,
      "Op": 4357,
      "PS": 4358,
      "Sk": 4359,
      "Tesla": 4360,
      "bo": 4361,
      "bat": 4362,
      "eg": 4363,
      "ex": 4364,
      "ge": 4365,
      "ic": 4366,
      "ion": 4367,
      "ies": 4368,
      "lt": 4369,
      "mbat": 4370,
      "of": 4371,
      "ra": 4372,
      "ss": 4373,
      "te": 4374,
      "tni": 4375,
      "us": 4376,
      "¦Ð¡ÐļÐĲ": 4377,
      "Ð¬": 4378,
      "Ġ5": 4379,
      "ĠÐ°Ð±": 4380,
      "ĠÐ¾Ð·": 4381,
      "Ġ60": 4382,
      "Ġ10": 4383,
      "ĠEn": 4384,
      "Ð¾Ñĥ": 4385,
      "Ð¾Ñı": 4386,
      "Ð¾ÑĩÐµÐ½ÑĮ": 4387,
      "Ð¾ÑıÑĤ": 4388,
      "Ð¾ÑĢÐ°Ð¶": 4389,
      "Ð°ÑĳÑĤÑģÑı": 4390,
      "Ð°ÑĢÐ°Ð¹": 4391,
      "ĠÐ¦Ð¡ÐļÐĲ": 4392,
      "ÐµÑĢÐ¾": 4393,
      "ÐµÐµÐ¼": 4394,
      "ÐµÑĦ": 4395,
      "ÐµÐ¾Ñħ": 4396,
      "ÐµÐ°Ð½Ñĭ": 4397,
      "ÐµÐ°Ð½Ñģ": 4398,
      "ÑĤÐ°Ð»": 4399,
      "ÑĤÐµÐ´": 4400,
      "ÑĤÐ°Ð¼Ð¸": 4401,
      "ÑĤÐµÐ½Ð´Ð°": 4402,
      "Ð¸ÑĢÐ¾": 4403,
      "Ð¸ÐµÑģ": 4404,
      "Ð¸Ð°Ð´": 4405,
      "Ð¸ÑĥÐ¼": 4406,
      "Ð¸ÐµÐ²": 4407,
      "Ð¸ÑĢÐ°ÑĤÑĮ": 4408,
      "Ð¸ÐµÐ½Ð°": 4409,
      "ÑĢÑģ": 4410,
      "ÑĢÐ²": 4411,
      "ÑĢÐ¸Ð»": 4412,
      "ÑĢÐµÑģ": 4413,
      "ÑĢÐµÐ½Ð¸Ðµ": 4414,
      "ÑĢÐ¾Ð·": 4415,
      "ÑĢÐµÐ²": 4416,
      "ÑĢÐ¸ÑĢÐ¾Ð²": 4417,
      "ÑĢÐµÐ¶": 4418,
      "ÑĢÑħÐ¸ÑĤÐµÐºÑĤÐ¾ÑĢ": 4419,
      "ÑĢÐ¼Ð°ÑĢ": 4420,
      "ÑģÐµÐ¹": 4421,
      "ÑģÐ°Ð±": 4422,
      "ÑģÐ²Ð¾": 4423,
      "ÑģÐ¼ÐµÐ½": 4424,
      "ÑģÐ¸Ð½Ñĭ": 4425,
      "ÑģÐºÐ¾Ðµ": 4426,
      "ÑģÐ¸ÑģÑĤÐ¾Ð¼": 4427,
      "Ð½ÐµÐ¼": 4428,
      "Ð½Ð°Ð¹": 4429,
      "Ð½Ð¸Ð±": 4430,
      "Ð½ÐµÐ³Ð¾": 4431,
      "Ð½ÐµÐ½Ð¸Ñı": 4432,
      "Ð½Ð¸Ð¶": 4433,
      "Ð½ÐµÐ½Ð¸Ð¹": 4434,
      "Ð½Ð¾Ð»Ð¾Ð³Ð¸Ð¸": 4435,
      "Ð»Ð¸Ð»": 4436,
      "Ð»ÐµÑĩ": 4437,
      "Ð»Ð°ÑĤ": 4438,
      "Ð»Ð¾ÐºÐ¸": 4439,
      "Ð»ÐµÐ¼Ñĭ": 4440,
      "Ð»Ð¸Ð¼Ð¿": 4441,
      "ÑĥÐ°ÑĨÐ¸Ñı": 4442,
      "ÑĭÐ³": 4443,
      "ÑĭÑī": 4444,
      "ÑĮÑĪÐµ": 4445,
      "ÑĮÑĳÐ¼": 4446,
      "ÑĮÐ¼Ð°": 4447,
      "ÑıÑħ": 4448,
      "ÑĩÐ°Ðº": 4449,
      "ÑĩÐ½Ð°Ñı": 4450,
      "ÑĩÐ¸ÐºÐ¸": 4451,
      "ĠÐ¿Ð°Ð»": 4452,
      "ĠÐ¿Ð¸Ð»": 4453,
      "ĠÐ¿ÐµÑĩ": 4454,
      "ĠÐ¿Ð°ÑĤ": 4455,
      "ĠÐ¿ÐµÐ¿": 4456,
      "ĠÐ¿Ð»Ð¾Ñħ": 4457,
      "ĠÐ¿Ð¾Ð¶Ð°Ð»": 4458,
      "ĠÐ¿Ð¾Ð¹Ð´": 4459,
      "ĠÐ¿Ð¾Ð¹ÑĤÐ¸": 4460,
      "ĠÐ¿Ð¸Ñī": 4461,
      "ĠÐ¿Ð¾Ð¹Ð´Ñĥ": 4462,
      "ĠÐ½ÐµÐº": 4463,
      "ĠÐ½ÑĳÐ¼": 4464,
      "ĠÐ½Ð¸Ð¼Ð¸": 4465,
      "ĠÐ½ÑĥÐ»Ðµ": 4466,
      "ĠÐ½ÐµÐ½Ð°Ð²Ð¸Ð¶Ñĥ": 4467,
      "ÑģÑĤÐ°ÑĢ": 4468,
      "ÑģÑĤÑĢÑĥÐº": 4469,
      "ÐĶÐ¾Ð¼": 4470,
      "ÐĶÐ°Ð¹": 4471,
      "ÐĶÑĢÑĥ": 4472,
      "ÐĶÐ¾Ð²Ð¾Ð»ÐµÐ½": 4473,
      "ÐĶÐµÑģÑı": 4474,
      "ÐĶÐµÑĪÐµÐ²": 4475,
      "ÐĶÐ¸Ð·Ð°Ð¹Ð½ÐµÑĢ": 4476,
      "ĠÐ²Ð¸ÑĤ": 4477,
      "ĠÐ²Ð¾Ð¹": 4478,
      "ĠÐ²ÐµÐ³": 4479,
      "ĠÐ²Ð¾Ð¿": 4480,
      "ĠÐ²ÐµÐ¶": 4481,
      "ĠÐ²ÑĤÐ¾ÑĢ": 4482,
      "ĠÐ²ÑĳÐ·": 4483,
      "ĠÐ²ÑĢÐµÐ´": 4484,
      "ĠÐ²Ð´Ð¾Ñħ": 4485,
      "ĠÐ²Ð²ÐµÑĢ": 4486,
      "ĠÐ²Ð¾Ð»Ð¾Ñģ": 4487,
      "ÑĪÐ¸Ð²": 4488,
      "ÑĪÐ½Ð°Ñı": 4489,
      "ÑĪÐ½Ð¸ÐºÐ¾Ð¼": 4490,
      "ÑĪÐ»Ð°": 4491,
      "Ð´Ð¾ÑģÑĤ": 4492,
      "Ð´ÐµÑģÑģ": 4493,
      "Ð´ÑĳÐ¼": 4494,
      "Ð´ÐµÐ½Ð¸Ñı": 4495,
      "Ð´Ð¸Ð·Ð°Ð¹Ð½ÐµÑĢ": 4496,
      "ĠÑģÐ½Ð¾": 4497,
      "ĠÑģÐ¾Ð¼": 4498,
      "ĠÑģÐ¸ÑĤ": 4499,
      "ĠÑģÐµÐ´": 4500,
      "ĠÑģÑĥÐ¼": 4501,
      "ĠÑģÐ¸Ð»ÑĮ": 4502,
      "ĠÑģÐ½Ñı": 4503,
      "ĠÑģÑĢÐµÐ´": 4504,
      "ĠÑģÐ¸Ð»ÑĮÐ½ÑĭÐ¹": 4505,
      "ĠÑģÐ¾Ð¼Ð½": 4506,
      "ĠÑģÑĥÐ´ÑĮ": 4507,
      "ĠÑģÐ´Ð°Ñİ": 4508,
      "ĠÑģÐ¾Ð»Ð½ÑĨÐµ": 4509,
      "ĠÑģÐ°ÑĢÐ°Ð¹": 4510,
      "ĠÑģÐµÐ°Ð½Ñģ": 4511,
      "ÐµÑĤÑĥ": 4512,
      "ÐµÑĤÐµÐ»": 4513,
      "ÐµÑĤÐ¾Ð¹": 4514,
      "ÐµÑĤÑĢÐ¾Ð²": 4515,
      "ÐµÑĤÐºÑĥ": 4516,
      "ÐµÑĤÐ¾Ð»Ð¾Ð³": 4517,
      "ÐµÐ½Ðµ": 4518,
      "ÐµÐ½Ð°Ð»": 4519,
      "ÐµÐ½ÐµÐ¼": 4520,
      "ÐºÐ¾Ð³": 4521,
      "ÐºÐ¾ÑĢ": 4522,
      "ÐºÑĢÑĭ": 4523,
      "ÐºÐ»ÑĥÐ±": 4524,
      "ÐºÑĢÐµÑģ": 4525,
      "ÐļÐĺ": 4526,
      "ÐļÐ¾Ð³Ð¾": 4527,
      "ÐļÑĥÑģ": 4528,
      "ÐļÑĥÑĢ": 4529,
      "ÐļÐ°Ñĩ": 4530,
      "ÐļÐ°Ð¼ÐµÑĢÐ°": 4531,
      "ÐļÐ¸Ð±ÐµÑĢ": 4532,
      "ÐļÐ°Ð·Ð°Ð»Ð¾ÑģÑĮ": 4533,
      "Ð¢Ð°": 4534,
      "Ð¢Ð¾Ð¿": 4535,
      "Ð¢ÑĥÑĤ": 4536,
      "Ð¢ÐµÑħ": 4537,
      "Ð¢ÑĢÑĥÐ´": 4538,
      "Ð¢ÑĳÐ¿Ð»": 4539,
      "Ð¢Ð°Ð±Ð»ÐµÑĤÐºÐ°Ð¼Ð¸": 4540,
      "Ð¢ÑĢÐ¸Ð»": 4541,
      "ĠÐ´Ð¾Ð³": 4542,
      "ĠÐ´Ð¸Ð²": 4543,
      "ĠÐ´ÐµÐ´": 4544,
      "ĠÐ´Ð¸Ð½": 4545,
      "ĠÐ´Ð¸Ð·": 4546,
      "ĠÐ´ÐµÑĪ": 4547,
      "ĠÐ´Ð¾Ð»Ð³Ð¾": 4548,
      "ĠÐ´Ð½ÑĳÐ¼": 4549,
      "ĠÐ´ÐµÐ¿ÑĢÐµÑģÑģ": 4550,
      "ÑĢÐ¾ÑīÐµ": 4551,
      "Ð¾Ð²Ð¾Ð¼": 4552,
      "Ð¾Ð²Ð¾Ðµ": 4553,
      "Ð¾Ð²ÑĥÑİ": 4554,
      "Ð¾Ð²ÑģÐµÐ¼": 4555,
      "ÑİÑĤÐ½Ð¾": 4556,
      "Ð¼Ð¾": 4557,
      "Ð¼ÑĥÑģÑĮ": 4558,
      "Ð¼Ð°Ð·Ð¾ÑħÐ¸ÑģÑĤ": 4559,
      "ĠÐºÐ¸Ð»": 4560,
      "ĠÐºÐ°ÑĤ": 4561,
      "ĠÐºÐ¸Ð½": 4562,
      "ĠÐºÐ¸Ñģ": 4563,
      "ĠÐºÐ¸Ð¿": 4564,
      "ĠÐºÐ°ÑĪ": 4565,
      "ĠÐºÑĥÐ»ÑĮÑĤ": 4566,
      "ĠÐºÐ°Ð¶ÐµÑĤÑģÑı": 4567,
      "ĠÐºÐ¾ÑģÐ¼Ð¾Ð½Ð°Ð²ÑĤÐ¾Ð¼": 4568,
      "ĠÐºÑĢÐ°ÑģÐ¾ÑĤÐ°": 4569,
      "ÐµÐ»Ð»": 4570,
      "ÐµÐ»Ð¾Ð¼": 4571,
      "ÐµÐ»Ð¾Ñĩ": 4572,
      "ÐµÐ»Ð¸Ñĩ": 4573,
      "ÐµÐ»Ð¸ÑĪÑĮÑģÑı": 4574,
      "ÐµÑĢÑı": 4575,
      "ÐµÑĢÑĪ": 4576,
      "ÐµÑĢÑħ": 4577,
      "ÐµÑĢÐµÐ¼": 4578,
      "ÐµÑĢÐ³": 4579,
      "ÐµÑĢÐ¾Ð¿ÑĢ": 4580,
      "ÐµÑĢÑıÐ»": 4581,
      "ÐµÑĢÐµÑĪ": 4582,
      "ÐµÑĢÑĤÐ²": 4583,
      "ÐµÑĢÐ½Ð¸ÐºÐ¸": 4584,
      "ĠÑĤÐ°": 4585,
      "ĠÑĤÐµ": 4586,
      "ĠÑĤÐ¾Ð»": 4587,
      "ĠÑĤÐµÐ¼": 4588,
      "ĠÑĤÐ¾Ð½": 4589,
      "ĠÑĤÐ¸Ð¼": 4590,
      "ĠÑĤÐ¸Ñħ": 4591,
      "ĠÑĤÐ²Ð¾ÑĢ": 4592,
      "ÐŁÐĽ": 4593,
      "ÐŁÐ¸ÑĨ": 4594,
      "ÐŁÐ¾ÑĢÑĤ": 4595,
      "ÐŁÐ¾ÐºÐ¾Ð¹": 4596,
      "ÐŁÑģÐ¸Ñħ": 4597,
      "ÐŁÐ°ÑĢÑĥ": 4598,
      "ÐŁÐµÑĢÐµÑĪ": 4599,
      "ĠÐ±Ð¾Ð³": 4600,
      "ĠÐ±Ð¾ÑĢ": 4601,
      "ĠÐ±Ð°Ð±": 4602,
      "ĠÐ±ÑĢÐ°Ðº": 4603,
      "ĠÐ±Ð°ÐºÑĤÐµÑĢ": 4604,
      "ĠÐ±Ð¾Ð¼Ð±Ð°": 4605,
      "ÐĲÐł": 4606,
      "ÐĲÑģÑĤÑĢ": 4607,
      "ÐĲÑĢÑħÐ¸ÑĤÐµÐºÑĤÐ¾ÑĢ": 4608,
      "Ð¾Ð³Ð°Ð¼": 4609,
      "Ð¾Ð³Ð¸Ðµ": 4610,
      "Ð¾ÑĤÐ¸Ð²": 4611,
      "Ð¾ÑĤÐ½ÑĭÐ¹": 4612,
      "Ð¾ÑĤÐ½ÑĭÑħ": 4613,
      "Ð¸Ð²Ð¾": 4614,
      "Ð¸Ð²Ð°ÑİÑĤ": 4615,
      "Ð°Ð»Ð¾": 4616,
      "Ð°Ð»ÐµÐ½": 4617,
      "Ð°Ð»Ð°Ð½Ñģ": 4618,
      "ÑħÐ¸ÑĢÑĥÑĢÐ³": 4619,
      "Ð¾Ð»Ð¸Ðº": 4620,
      "Ð¾Ð»ÑĮÐ½Ð¾": 4621,
      "Ð¾Ð»ÐµÑģÑĤÐµÑĢ": 4622,
      "Ð¾Ð»Ð¶Ð°Ð¹": 4623,
      "Ð²Ð°Ð½": 4624,
      "Ð²ÑĭÐµ": 4625,
      "Ð²Ð¸Ñħ": 4626,
      "Ð²ÐµÐ½ÑĤ": 4627,
      "Ð²ÐµÑĤÑĭ": 4628,
      "Ð²Ð°Ð½Ð¸Ñı": 4629,
      "ÐļÐ°ÐºÐ¸Ñħ": 4630,
      "Ð¿Ð°": 4631,
      "Ð¿Ð¸Ð¾Ð½": 4632,
      "ÐĿÐ°ÑĢ": 4633,
      "ÐĿÐµÑģ": 4634,
      "ÐĿÐ°Ð·": 4635,
      "ÐĿÐµÐ½Ð°Ð²Ð¸Ð¶Ñĥ": 4636,
      "ÐĿÐ¾Ð²ÑĥÑİ": 4637,
      "ÐŀÐĶ": 4638,
      "ÐŀÐĻ": 4639,
      "ÐŀÑĦÐ¸Ñģ": 4640,
      "Ð¾Ð¼Ñĭ": 4641,
      "Ð¾Ð¼ÐµÐ½Ð´": 4642,
      "Ð¾Ð¼ÐµÑĤÑĢÐ¾Ð²": 4643,
      "Ð¾ÑĢÐ°": 4644,
      "Ð¾ÑĢÐ°Ð½": 4645,
      "Ð¾ÑĢÐµÐ¿": 4646,
      "Ð¾ÑĢÐ½Ð¾Ð³Ð¾": 4647,
      "Ð¾ÑĢÐµÑĤÑĮ": 4648,
      "Ð¾ÑĢÐºÐµ": 4649,
      "Ð°ÑģÑĮ": 4650,
      "Ð¡Ð¾Ð½": 4651,
      "Ð¡Ð¸Ð´": 4652,
      "Ð¡Ð¾ÑģÑĤ": 4653,
      "Ð¡Ð¸Ð»ÑĮ": 4654,
      "Ð¡ÑĩÐ¸ÑĤ": 4655,
      "Ð¡ÐµÑĢÑĮÑĳÐ·": 4656,
      "Ð¡Ð¸Ð¶Ñĥ": 4657,
      "Ð¡ÑħÐ¾Ð¶Ñĥ": 4658,
      "Ð¡Ð¾Ð»Ð½ÑĨÐµ": 4659,
      "Ð¡Ð¾Ð²ÑģÐµÐ¼": 4660,
      "ĠÐ¼Ð¾Ð¼": 4661,
      "ĠÐ¼ÐµÐ¼": 4662,
      "ĠÐ¼Ð¸Ðº": 4663,
      "ĠÐ¼Ð¾Ñĩ": 4664,
      "ĠÐ¼ÐµÐ¶": 4665,
      "ĠÐ¼Ð°ÑģÐºÐ¸": 4666,
      "ĠÐ¼Ð°ÑĢÐºÐµÑĤ": 4667,
      "ĠÐ¼Ð°ÑĢÐºÐµÑĤÐ¾Ð»Ð¾Ð³": 4668,
      "ĠÐ¼ÐµÑĢÐ¾Ð¿ÑĢ": 4669,
      "ĠÐ¼Ð¾ÑĤÐ¸Ð²": 4670,
      "ĠÐ¼Ð¾ÑĢÐµÐ¿": 4671,
      "ÐµÐ¼ÐµÐ½ÑĤ": 4672,
      "ÐµÐ¼ÑıÐ½": 4673,
      "Ð¸Ð»Ð°": 4674,
      "ĠÐ·Ð¾Ð½": 4675,
      "ĠÐ·Ð°Ð¹": 4676,
      "ĠÐ·Ð²ÑĥÑĩ": 4677,
      "Ð½ÑĭÐ¼Ð¸": 4678,
      "ĠÑĥÐº": 4679,
      "ĠÑĥÐ¼Ð¾Ð¼": 4680,
      "ĠÑĥÐ¼Ðµ": 4681,
      "ÑĢÐ¸Ð²ÑĥÑĢ": 4682,
      "ÑĳÐ½ÑĭÐ¼": 4683,
      "ÑĳÐ²ÑĭÐµ": 4684,
      "Ð¾Ð´ÑĩÐ¸Ðº": 4685,
      "Ð±Ð°": 4686,
      "Ð±Ð¾ÑĢ": 4687,
      "Ð±Ð¸ÑĤ": 4688,
      "Ð±ÑĥÐ»Ðµ": 4689,
      "Ð±Ð»Ð¾ÐºÐ¸": 4690,
      "Ð§ÑĤ": 4691,
      "Ð§Ð°Ð¹": 4692,
      "Ð§ÑĳÑĤÐºÐ¾": 4693,
      "Ð¾Ð½Ð¸": 4694,
      "Ð¾Ð½Ð¸ÑĤ": 4695,
      "Ð¾Ð½Ð°Ð²": 4696,
      "Ð¾Ð½Ð°Ð²ÑĤÐ¾Ð¼": 4697,
      "Ð¾Ð½ÐµÐ¼ÐµÐ½ÑĤ": 4698,
      "Ð°Ð½Ð½ÑĭÐ¹": 4699,
      "Ð°Ð½ÐµÐµ": 4700,
      "Ð°Ð½Ð½Ð¾Ðµ": 4701,
      "Ð°Ð½Ð¸Ñİ": 4702,
      "Ð°Ð½Ð¸ÑĢÑĥÑİ": 4703,
      "Ð°Ð½ÑģÐ¿Ð¾ÑĢÑĤ": 4704,
      "Ð¾Ð¶Ð¸": 4705,
      "Ð¾Ð¶Ð´Ð°": 4706,
      "Ð¸ÑĤÐ°ÑĤÑĮ": 4707,
      "Ð¸ÑĤÐºÐ°": 4708,
      "Ð¸ÑĤÐµÐ»ÑĮÐ½Ð¾": 4709,
      "Ð¸ÑĤÐ°ÑĨÐ¸Ñı": 4710,
      "Ð¸ÑĤÐ½ÐµÑģ": 4711,
      "Ð¸ÑĤÐ°ÑĢÑĥ": 4712,
      "Ð¾Ð±ÑĢÐµÑĤ": 4713,
      "Ð¾Ð±ÑĮÑĳÐ¼": 4714,
      "Ð°Ð²Ð¸ÑĤÑĮ": 4715,
      "Ð°Ð²Ð°ÑĤÑĮ": 4716,
      "ÑĦÐµÐ¹": 4717,
      "ÑĦÐµÐº": 4718,
      "ĠÑĩÑĥÐ´": 4719,
      "ĠÑĩÐ°ÐµÐ¼": 4720,
      "ĠÑĩÐµÑĢÐµÐ·": 4721,
      "ĠÑıÑģÐ½Ð¾": 4722,
      "ĠÑıÑĢÐ¼Ð°ÑĢ": 4723,
      "ĠÑıÐ±Ð»Ð¾ÐºÐ¸": 4724,
      "ĠÐ½Ð°ÑĥÑĪ": 4725,
      "ĠÐ½Ð°ÑĪÑĳÐ»": 4726,
      "ĠÐ½Ð°ÑĥÐºÐ¸": 4727,
      "Ð°ÑĢÐ´": 4728,
      "Ð°ÑĢÐ³": 4729,
      "Ð°ÑĢÐ½Ð¾Ðµ": 4730,
      "Ð°ÑĢÐ»Ð°ÑĤ": 4731,
      "ĠÐ¿ÑĢÐ¾ÑĤÐ¸Ð²": 4732,
      "ĠÐ¿ÑĢÐ¾ÑħÐ¾Ð´Ð¸Ð»": 4733,
      "ĠÐ¿ÑĢÐ¾ÑıÐ²": 4734,
      "Ð·Ð¾ÑĢ": 4735,
      "Ð·ÑĭÐ²": 4736,
      "Ð°Ð¼Ð±ÑĥÐ»Ðµ": 4737,
      "Ð³ÑĢ": 4738,
      "Ð³ÐµÑĢ": 4739,
      "Ð³Ð»Ñı": 4740,
      "Ð³Ð¾Ð»Ð¾Ð²": 4741,
      "Ð³Ð°ÑĢÐ´": 4742,
      "ÑĢÐ°ÐµÑĪÑĮ": 4743,
      "ÑĢÐ°ÑİÑĤ": 4744,
      "ÐµÑĩÑĮ": 4745,
      "ÐµÑĩÐºÑĥ": 4746,
      "ÐµÐ½ÑĮÑİ": 4747,
      "ÐµÐ½ÑĮÐºÐ¸Ð¹": 4748,
      "Ð½Ð°ÑĤÑĮ": 4749,
      "Ð°Ð¹Ð»": 4750,
      "Ð°Ð¹Ð½Ð°": 4751,
      "Ð°Ð¹Ð¼Ð¾ÑĢ": 4752,
      "ÐµÐ´ÐµÐ»ÑĮ": 4753,
      "Ð¸ÐºÐ°ÑĤ": 4754,
      "Ð¸ÐºÐ¾Ð·": 4755,
      "Ð¸ÐºÐ°ÑĢÐ½Ð¾Ðµ": 4756,
      "ĠÐ¿ÑĢÐ¾ÐºÐ°ÑĤ": 4757,
      "ĠÐ¿ÑĢÐ¸ÑģÐ¾ÐµÐ´Ð¸Ð½": 4758,
      "Ð°ÑĤÐµÐ¹": 4759,
      "Ð¥ÑĢÐ¾Ð½": 4760,
      "Ð¥Ð¾ÑĤÑı": 4761,
      "Ð¥ÑĥÐ¶Ðµ": 4762,
      "ÐµÐ³Ð°Ð»": 4763,
      "ÐµÐ³Ð°ÑĤÑĮ": 4764,
      "ÐµÐ³Ð¸ÑģÑĤ": 4765,
      "ÐµÐ³Ð¾ÑĢÐµÑĤÑĮ": 4766,
      "ÐĺÑģÑĤ": 4767,
      "ÐĺÐ¼ÐµÐ½Ð½Ð¾": 4768,
      "ĠÐµÐ´Ð°": 4769,
      "ĠÐµÐ¼Ñĥ": 4770,
      "ĠÐ¿Ð¾ÑģÑĤÑĢÐ¾": 4771,
      "ĠÐ¿Ð¾ÑįÑĤÐ¾Ð¼Ñĥ": 4772,
      "Ð¾ÐºÑĥ": 4773,
      "Ð¾ÐºÐ»Ð°ÑģÑģ": 4774,
      "ÑĢÑĥÐ¶": 4775,
      "ĠÐ³Ð»Ñı": 4776,
      "ĠÐ³Ð°Ð´": 4777,
      "ĠÐ³Ð¾ÑģÑĤÐ¸": 4778,
      "ĠÐ³ÑĢÐ°Ð¼": 4779,
      "ĠÐ³Ð²Ð¾Ð·": 4780,
      "ĠÐ³Ð¸ÑĤÐ°ÑĢÑĥ": 4781,
      "ĠÐ³Ð°Ð¹Ð¼Ð¾ÑĢ": 4782,
      "ÐµÐ¹Ð»Ð¸ÑģÑĤ": 4783,
      "ÐµÐ¹Ð½ÑĭÐ¼": 4784,
      "ÐµÐ¹Ð»ÐµÑĢ": 4785,
      "ĠÐ½Ð¾Ð²Ð¾Ð¼": 4786,
      "ĠÐ½Ð¾Ð²Ð¾Ð¼Ñĥ": 4787,
      "ÐĹÐ°Ð±": 4788,
      "ÐĹÐ½Ð°ÐºÐ¾Ð¼": 4789,
      "ÐĹÑĥÐ±": 4790,
      "ÐĹÐ¸ÑĢÐ¾": 4791,
      "Ð¸Ð¼Ð°ÑĤÑĮ": 4792,
      "Ð¸Ð¼Ð¾Ð³Ð¾": 4793,
      "Ð¸Ð½Ð°Ð»": 4794,
      "Ð¸Ð½ÑģÐº": 4795,
      "Ð¸Ð½ÑģÑĤÐ²ÐµÐ½Ð½ÑĭÐ¹": 4796,
      "ĠÑħÐ¾Ñĩ": 4797,
      "ĠÑħÑĢÐ¾Ð½": 4798,
      "ĠÑħÐ¸ÑĢÑĥÑĢ": 4799,
      "ĠÑħÐ¾Ð±Ð±Ð¸": 4800,
      "ĠÑħÑĥÐ´Ð¾Ð¶": 4801,
      "ĠÑħÐ¾Ð»ÐµÑģÑĤÐµÑĢ": 4802,
      "ÐĴÐ·": 4803,
      "ÐĴÑĢÐ°Ñĩ": 4804,
      "ÐĴÐ½Ð¸Ð¼": 4805,
      "ÐĴÐ«": 4806,
      "ÐµÐ±Ð¾Ð»": 4807,
      "ÐµÐ±Ð»ÐµÐ½Ð¸Ðµ": 4808,
      "ÐµÐ±ÑĥÐµÑĤ": 4809,
      "Ð¯Ð¸Ñĩ": 4810,
      "ÐºÐ°ÑģÑĤ": 4811,
      "ĠÑģÑĤÐ¸Ñħ": 4812,
      "ĠÑģÑĤÐ¸Ð»Ðµ": 4813,
      "ĠÑģÑĤÐµÐ½Ñĭ": 4814,
      "ĠÑģÑĤÐ°Ð½ÐµÑĤ": 4815,
      "ĠÑģÑĤÐ¾ÑĢÐ¾Ð½Ñĭ": 4816,
      "ĠÑģÑĤÐ¾Ð»Ð¸Ðº": 4817,
      "ĠÑģÑĤÐ°ÑĤÐµÐ¹": 4818,
      "Ð¸Ð´ÐµÑģÑı": 4819,
      "ÑģÑĤÐ²Ñĥ": 4820,
      "ĠÑĢÐ°Ðº": 4821,
      "ĠÐ´ÐµÐ»Ðµ": 4822,
      "ĠÐ´ÐµÐ»Ð°ÑİÑĤ": 4823,
      "ĠÐ±Ð¾Ð»ÐµÐ»ÑĮÑīÐ¸Ðº": 4824,
      "Ð¾Ð¿ÑĭÑĤÐ½Ð¾": 4825,
      "Ð°Ð´ÑĨ": 4826,
      "ÐµÐ·Ð½Ð¾": 4827,
      "ÑĢÐ°Ð²Ð»ÐµÐ½Ð¸Ðµ": 4828,
      "ĠÐºÐ°ÐºÐ¾Ð¼": 4829,
      "ĠÐºÐ°ÐºÐ¸Ðµ": 4830,
      "ĠÐºÐ°ÐºÐ¸Ð¼": 4831,
      "ĠÐºÐ°ÐºÐ°Ñı": 4832,
      "ÑĥÐ´Ðµ": 4833,
      "ÐµÐºÑĥ": 4834,
      "ĠPan": 4835,
      "ĠPhone": 4836,
      "ĠPES": 4837,
      "ÐľÐµÐ´Ð»": 4838,
      "Ð°Ð¶ÐµÑĤ": 4839,
      "Ð°Ð¶ÑĳÑĢÑĭ": 4840,
      "Ð¸ÑģÐµÐ¿ÑĤ": 4841,
      "Ð¸ÑģÑģÐ°Ð±": 4842,
      "Ð¾ÑĩÐµÐº": 4843,
      "Ð°Ð·Ð°ÑĤÑĮ": 4844,
      "Ð°Ð·ÑĥÐµÐ¼": 4845,
      "ĠÐ²ÑĭÐ¶": 4846,
      "ĠÐ²ÑĭÐºÐ»ÑİÑĩ": 4847,
      "ĠÐ²ÑĭÐ·Ð´Ð¾ÑĢÐ¾Ð²ÐµÐ»": 4848,
      "ĠÐ²ÑĭÐ´Ð¾ÑħÐ½ÑĥÑĤÑĮ": 4849,
      "ĠÐ²ÑĭÑĤÑı": 4850,
      "ĠÐ²ÑĭÐ»ÐµÑĩ": 4851,
      "ĠÐ²ÑĭÐ²Ð¸Ñħ": 4852,
      "ĠÐ²ÑĭÐ·ÑĭÐ²": 4853,
      "ĠÐ²ÑĭÐ³Ð»Ñı": 4854,
      "onic": 4855,
      "Ð£Ð³Ð¾Ð»Ð¾Ð²": 4856,
      "Ð¾ÑĤÑĢÐµÐ±Ð»ÐµÐ½Ð¸Ðµ": 4857,
      "ÑĥÑĤÐºÐ¾": 4858,
      "ĠÐ¾ÑĤÑĢÐ°Ð¶": 4859,
      "ĠÐ¾ÑĤÑģÑĥÑĤÑģÑĤÐ²Ð¸Ðµ": 4860,
      "Ð¼Ð¾ÑĤÑĢÑı": 4861,
      "Ð¼Ð¾ÑĤÑĢÐµÑĤÑĮ": 4862,
      "ĠÑĤÐ°ÐºÑĥÑİ": 4863,
      "Ð¾ÑģÑĤÐ¾Ð½": 4864,
      "Ð¾ÑģÑĤÐ¸ÑĪÑĮÑģÑı": 4865,
      "ĠÐ¾Ð±ÑīÐ¸Ð¹": 4866,
      "ĠÐ¾Ð±ÐµÑī": 4867,
      "ĠÐ¾Ð±Ð¾Ð¶Ð°Ñİ": 4868,
      "ĠÐ¾Ð±ÑĭÑĩÐ½Ð¾": 4869,
      "ĠÐ¾Ð±Ð·Ð¾ÑĢ": 4870,
      "Ð¸Ð·Ð°ÑĨÐ¸Ñı": 4871,
      "ĠÐ½ÐµÑĳ": 4872,
      "ĠÐ½ÐµÐ¾Ð±Ñĭ": 4873,
      "ÐĳÐŀ": 4874,
      "ÐĳÐµÐ³Ð°Ð»": 4875,
      "ĠÑģÐ¿ÐµÑĨ": 4876,
      "ĠÑģÐ¿Ð°Ð»Ð¸": 4877,
      "Ð¸ÑģÑĤÐ¸ÐºÐ¸": 4878,
      "ĠÑĦÐ°Ð½ÑĤÐ°ÑģÑĤ": 4879,
      "ĠÑĦÑĢÑĥÐºÑĤ": 4880,
      "ĠÑĦÐ¸ÑĤÐ½ÐµÑģ": 4881,
      "ĠÑĦÐ°Ð¹Ð»": 4882,
      "ÐµÑģÑģÐ¸Ð¾Ð½": 4883,
      "ĠÐ²Ð¸Ð´Ð¸ÑĪÑĮ": 4884,
      "ĠÐ²Ð¸Ð´ÑıÑĤ": 4885,
      "ÑĤÐ¸ÑĢÑĥÑİ": 4886,
      "ÑĢÐµÐ½Ð¸Ñı": 4887,
      "ĠÐ²ÑģÐµÐ³Ð¾": 4888,
      "ĠÑģÐ²Ð¾Ð¹": 4889,
      "ĠÐ¿ÑĢÐ¾ÑĦÐ¸": 4890,
      "ĠÑħÐ¾ÑĢÐ¾ÑĪÐµÐµ": 4891,
      "âĢĻ": 4892,
      "ÐŀÐ±Ð¾Ð¶Ð°Ñİ": 4893,
      "Ð°Ð»ÑĮÐ½Ð¾Ðµ": 4894,
      "ĠÐ´ÑĥÐ¼Ð°Ð»": 4895,
      "ĠÐ»ÑİÐ±Ð¾Ð³Ð¾": 4896,
      "ĠÐ»ÑİÐ±Ð¾Ð¿ÑĭÑĤÐ½Ð¾": 4897,
      "ÐĽÐ¾Ð¶Ð¸ÑĤÑĮÑģÑı": 4898,
      "ÐĽÑĳÐ³": 4899,
      "ĠÐ²ÐµÑĩÐ½ÑĭÑħ": 4900,
      "ÐµÐ»ÑĮÐºÐ°": 4901,
      "ÐµÐ»ÑĮÑģÐ¸Ð½Ñĭ": 4902,
      "ÐµÐ»ÑĮÑĩÐ°Ðº": 4903,
      "ÑĭÑĪÐºÐ°": 4904,
      "ĠÑĥÑĩÐ¸ÑĤ": 4905,
      "ĠÑĥÑĩÐ¸ÑĪÑĮ": 4906,
      "ÐĿÐ°ÑĪÐ¸": 4907,
      "ÐµÐ²Ð¾": 4908,
      "ÐµÐ²Ð°ÐµÑĤ": 4909,
      "ÐµÐ²Ð¾Ð´ÑĩÐ¸Ðº": 4910,
      "ÐŀÑĤÐ´Ð¾ÑħÐ½ÑĥÑĤÑĮ": 4911,
      "ÐŀÑĤÐºÑĢÑĭ": 4912,
      "ĠÐ·Ð°ÑĩÐµÐ¼": 4913,
      "ĠÐ·Ð°ÑĢÐ°Ð±Ð¾ÑĤ": 4914,
      "ĠÐ·Ð°ÑħÐ¾Ð´Ð¸Ð»": 4915,
      "Ð¸Ð»ÑĮÐ½Ð¸ÐºÐ¸": 4916,
      "ĠÑĢÐ°Ð·ÑĥÐ¼": 4917,
      "ĠÑĢÐ°Ð·Ð¾Ð±ÑĮÑĳÐ¼": 4918,
      "ÐļÐ»Ð°ÑģÑģÐ½Ð°Ñı": 4919,
      "ÐĵÑĢÐ°ÑĦÐ¸ÐºÐ°": 4920,
      "Ð¸Ð³Ð¸ÐµÐ½Ð°": 4921,
      "Ð¸Ð³Ð¾Ð²Ð¾Ðµ": 4922,
      "Ð°Ð¼Ð¸Ð½Ñĭ": 4923,
      "ĠÐ½ÑĥÐ¶Ð½ÑĭÐ¹": 4924,
      "ĠÐ¿Ð¾Ð´Ð½Ñı": 4925,
      "ĠÐ¿Ð¾Ð´ÑĢÐ¾ÑģÑĤ": 4926,
      "ĠÐ¿Ð¾Ð´Ð¾ÑĢÐ¾Ð¶Ð°Ð»": 4927,
      "ĠÐ¿Ð¾Ð´Ð¾Ð¹ÑĤÐ¸": 4928,
      "ĠÐ¿Ð¾Ð´ÐºÐ°ÑģÑĤ": 4929,
      "ĠSer": 4930,
      "ÑģÐºÐ°Ð·ÑĥÐµÐ¼": 4931,
      "ĠÐ³Ð¾ÑĢÐ»Ð¾": 4932,
      "ÐŁÑĢÐ¾Ð´": 4933,
      "ÐŁÑĢÐµÐ¿Ð°ÑĢ": 4934,
      "ĠÐºÐ¾Ð½Ñģ": 4935,
      "ĠÐ½Ð°ÑģÑĤÑĢÐ¾Ð¸ÑĤÑĮ": 4936,
      "ÐĸÐ°Ð»": 4937,
      "ÐĸÑĥÑĢÐ½Ð°Ð»Ð¸ÑģÑĤ": 4938,
      "ĠAudi": 4939,
      "ÑģÐ»Ð¸ÑĪÐºÐ¾Ð¼": 4940,
      "ĠÐ¿Ð¾Ð»Ðµ": 4941,
      "ĠÐ¿Ð¾Ð»Ð¾Ð¶": 4942,
      "ĠÐ¿Ð¾Ð»Ð¸ÑĨÐµÐ¹ÑģÐºÐ¸Ð¼": 4943,
      "ĠÐ¿Ð¾Ð»ÐµÐ¶Ð°ÑĤÑĮ": 4944,
      "ĠÐ¿Ð¾Ð»Ð¸ÑĤÐ¸ÐºÐ¸": 4945,
      "ÐĶÐ¾Ð±Ð°Ð²": 4946,
      "ĠÐ¸Ð³ÑĢÑĥ": 4947,
      "ÑħÐ¾Ð´Ñĭ": 4948,
      "ÑħÐ¾Ð´Ð¸ÑĤÑĮ": 4949,
      "ĠTh": 4950,
      "ÑĭÐ²Ð°Ñİ": 4951,
      "ÑĭÐ²Ð°ÑİÑĤ": 4952,
      "ĠÑģÐºÐ°Ð¶ÐµÑĪÑĮ": 4953,
      "ĠÑģÐºÐ°ÑĢÐ»Ð°ÑĤ": 4954,
      "ĠÑģÐºÐ°Ð¶ÐµÑĤ": 4955,
      "Ð°Ð»ÑĮÐ½ÑĭÐµ": 4956,
      "Ð¸ÑĨÐ¸Ð½Ñĭ": 4957,
      "ÑĳÐ¼ÑģÑı": 4958,
      "ÑĳÐ¼ÐºÐµ": 4959,
      "Ð¸ÑĢÐ¾Ð²Ð°Ð½Ð¸Ñı": 4960,
      "ĠÑģÐ°Ð¼Ð¾Ðµ": 4961,
      "ĠÑģÐ°Ð¼Ð¾Ð¼Ñĥ": 4962,
      "ĠÐºÑĥÐ¿Ð¸": 4963,
      "Ð°Ð¶Ð´Ñĭ": 4964,
      "ĠÐ»ÐµÑĩÐ¸ÑĤÑģÑı": 4965,
      "ĠÐ¿Ð»ÐµÐ´": 4966,
      "ĠÐ¿Ð»Ð°Ð½Ñĭ": 4967,
      "ĠÐ¿Ð»ÐµÐ¼ÑıÐ½": 4968,
      "ĠÐ¿Ð»ÐµÐ¹Ð»Ð¸ÑģÑĤ": 4969,
      "ĠÐ²ÑĢÐ°ÑĩÐµÐ¹": 4970,
      "Ð¡Ð¿ÐµÑĨ": 4971,
      "ÑĥÑĪÐµÐ½Ð¸Ðµ": 4972,
      "ÑĥÑĪÐºÐ¸": 4973,
      "ĠÐ½Ð°Ð´ÐµÐ¶": 4974,
      "ĠÐºÐ»Ð°ÑģÑģÐ½ÑĭÐµ": 4975,
      "ĠRen": 4976,
      "ĠRed": 4977,
      "ĠÐ¾Ð½Ð°": 4978,
      "ĠÐ·Ð½Ð°ÐºÐ¾Ð¼ÑģÑĤÐ²Ñĥ": 4979,
      "Ð¸Ð¶Ð´Ñĭ": 4980,
      "ĠÐ¿Ð°ÑĢÐ°": 4981,
      "ĠÐ¿Ð°ÑĢÐµÐ½ÑĮ": 4982,
      "ĠÑģÐ²Ð¾ÐµÐ¹": 4983,
      "ĠÑģÐ²Ð¾Ð¸Ñħ": 4984,
      "Ð¤Ð¾ÑĤÐ¾Ð³ÑĢÐ°ÑĦ": 4985,
      "Ð¤Ð¾Ð½ÑĤÐ°Ð½": 4986,
      "Ð¤Ð¸Ð³Ð¾Ð²Ð¾Ðµ": 4987,
      "ĠMat": 4988,
      "ĠMorta": 4989,
      "ÑĥÐºÑĤÐ°Ð¼Ð¸": 4990,
      "ÐĿÐ¾ÑĢÐ¼Ð°Ð»ÑĮÐ½Ð¾Ðµ": 4991,
      "ĠÐ³Ð¾ÑĢÐ¾Ð´Ñĥ": 4992,
      "ÐŃÐº": 4993,
      "Ð¸ÑĩÑĮ": 4994,
      "Ð¸ÑĩÐ½ÑĭÐ¹": 4995,
      "Ð¸ÑĩÐµÑģÑĤÐ²": 4996,
      "ÑĥÑĢÑĭ": 4997,
      "ÐŁÑĢÐ¾ÐµÐºÑĤ": 4998,
      "ÐµÑıÐ»ÑģÑı": 4999,
      "ĠÐºÐ°Ð¶Ð´Ð¾Ð¼": 5000,
      "ĠÐºÐ°Ð¶Ð´ÑĥÑİ": 5001,
      "ÐĺÐ½ÑĦÐµÐº": 5002,
      "ĠÑģÑĤÐ°ÑĢÐ°Ñı": 5003,
      "ĠÑģÑĤÐ°ÑĢÑĥÑİ": 5004,
      "ĠÑģÑĤÐ°ÑĢÑĭÑħ": 5005,
      "ĠÐ¿ÐµÑĢÐ²Ð¾Ð¹": 5006,
      "ĠÐ¿ÐµÑĢÐµÐ»Ð¾Ð¼": 5007,
      "ĠÐ¿ÐµÑĢÐµÐ³Ð¾ÑĢÐµÑĤÑĮ": 5008,
      "ĠÐ¿ÐµÑĢÐµÐ±Ð¾Ð»": 5009,
      "ĠÐ¿ÐµÑĢÐµÐ²Ð¾Ð´ÑĩÐ¸Ðº": 5010,
      "ĠÐ½Ð¾ÑĢÐ¼Ð°Ð»ÑĮÐ½ÑĭÐ¹": 5011,
      "ĠÐ½Ð°Ð·Ð²Ð°Ð½Ð¸Ñı": 5012,
      "Ð°ÐºÑĤÐ¸ÐºÐ°": 5013,
      "Ð¡ÐºÐ¾ÑĢÐ¾": 5014,
      "Ð¡ÐºÑĥÑĩ": 5015,
      "ĠÐ¼ÐµÑĩÑĤÐ°ÑĤÑĮ": 5016,
      "ĠÐĳÐ¾ÑģÑĤÐ¾Ð½": 5017,
      "ĠÐ¿Ð¾Ð½ÐµÐ´ÐµÐ»ÑĮ": 5018,
      "ĠÐ½Ð°ÑģÐ¼Ð¾ÑĢ": 5019,
      "ĠÐ¸Ð½ÑģÑĤÑĢÑĥÐº": 5020,
      "ĠÐ¿ÑĢÐ¸Ð¾Ð±ÑĢÐµÑĤ": 5021,
      "ÐĴÑģÐµÐ³Ð´Ð°": 5022,
      "ĠÐ¿Ð»Ð°Ð½Ð¾Ð²": 5023,
      "ĠÐ¿Ð»Ð°Ð½Ð¸ÑĢÐ¾Ð²Ð°ÑĤÑĮ": 5024,
      "ĠÐºÐ¾ÑĦÐµÐ¹": 5025,
      "Ð¼Ð¸ÑĢÐµÐ½Ð¸Ðµ": 5026,
      "ÐŁÐ¾ÑĩÐ¸ÑĤÐ°ÑĤÑĮ": 5027,
      "Ð¿ÐµÑĢÐ¾Ð½Ð¸": 5028,
      "Ð´ÐµÐ»Ð°": 5029,
      "ĠÐ¿ÑĢÐ¾ÑģÑĤÐ¾Ð¹": 5030,
      "ĠÐ¿ÑĢÐ¾ÑģÑĤÑĥÐ´Ð°": 5031,
      "ĠÐłÐĲ": 5032,
      "ĠÑģÐµÑĢÐ¸Ñİ": 5033,
      "Ð¾Ð²Ð°ÑĤÐ¾": 5034,
      "Ð½Ð¸ÑĨÑĥ": 5035,
      "ĠÑģÐ¼ÐµÑĢ": 5036,
      "ĠÑģÐ¼ÐµÑĪ": 5037,
      "ĠÑģÐ¼ÐµÑİÑģÑĮ": 5038,
      "ĠÑģÐ¼ÑĭÑģÐ»": 5039,
      "ĠÑģÐ¼ÐµÐ»ÑĮÑĩÐ°Ðº": 5040,
      "ĠÑģÐ¼ÐµÑıÐ»ÑģÑı": 5041,
      "ĠÐ·Ð°ÐºÐ°Ð·": 5042,
      "ĠÐ¿Ð¾ÐµÐ·Ð´ÐºÑĥ": 5043,
      "ĠÐ¿Ð¾ÐµÐ·Ð´ÐºÐµ": 5044,
      "ĠÐ¿Ð¸ÑģÐ°ÑĤÐµÐ»ÐµÐ¼": 5045,
      "ĠÐºÑĢÐ°ÑģÐ¸Ð²Ð°Ñı": 5046,
      "ĠÐ°Ð¿ÐµÐ»ÑĮÑģÐ¸Ð½Ñĭ": 5047,
      "ĠÑĦÐ¸Ð»ÑĮÐ¼Ð°": 5048,
      "Ð½Ð¸ÐºÐ¾Ð²": 5049,
      "ĠÐ½ÐµÐ´ÐµÐ»ÑĮ": 5050,
      "Ð°Ð·ÑĭÐ²Ð°Ð»ÑģÑı": 5051,
      "ĠÑĤÐµÐ»ÐµÑĦÐ¾Ð½Ð¾Ð²": 5052,
      "ĠÑĪÐ¸ÐºÐ°ÑĢÐ½Ð¾Ðµ": 5053,
      "ĠÑĥÐ²Ñĭ": 5054,
      "ĠÑĥÐ²ÐµÐ»Ð¸Ñĩ": 5055,
      "ÐĳÑĥÐ´ÐµÐ¼": 5056,
      "ĠÑģÐ¿Ð¾ÑĢÑĤÐ¸Ð²Ð½ÑĭÐµ": 5057,
      "ĠÐ²Ð¿ÐµÑĩÐ°ÑĤÐ»Ð¸Ð»": 5058,
      "Ð¾ÑīÑĮ": 5059,
      "ĠÐ¡Ð°Ð±": 5060,
      "Ð¸Ð½Ð°ÑĤÑĮ": 5061,
      "ĠÐ¼ÐµÑĤÐºÐ¾": 5062,
      "ĠÐ¿ÑĢÐ¾Ð±Ð»ÐµÐ¼Ñĭ": 5063,
      "ĠÑįÑĤÐ¾Ð³Ð¾": 5064,
      "ÐĽÑİÐ±Ð¸ÑĪÑĮ": 5065,
      "ĠÐ¿Ð¾Ð»ÐµÐ·ÐµÐ½": 5066,
      "ĠÐºÐ¾Ð»Ð»ÐµÐ³Ðµ": 5067,
      "ĠÐºÐ¾Ð»Ð»ÐµÐ³Ð°Ð¼Ð¸": 5068,
      "ĠÐĿÑĮÑİ": 5069,
      "ĠÐĿÐ¾Ð²ÑĭÐ¹": 5070,
      "ĠÐĿÐŀÐĴ": 5071,
      "ĠÐ²Ð·Ð°Ð¸Ð¼Ð½Ð¾": 5072,
      "ĠÑģÐ½Ð¾Ð¼": 5073,
      "ĠÑģÐ½Ð¸Ð·Ð¸ÑĤÑĮ": 5074,
      "ÐŁÐ¸Ð»Ð¾ÑĤÐ¾Ð¼": 5075,
      "ĠÑĢÐ°ÑģÑģÐº": 5076,
      "ĠÑĢÐ°ÑģÑģÐºÐ°Ð·ÑĭÐ²Ð°Ð¹": 5077,
      "ĠÑĢÐ°ÑģÑħÐ¾Ð´Ñĭ": 5078,
      "ĠÐ¿Ð¾ÑģÐ»ÐµÐ´": 5079,
      "ĠÐ¿ÑĢÐ°Ð²Ð¾": 5080,
      "ĠÐ¿ÑĢÐ°Ð²Ð´Ñĭ": 5081,
      "ĠÐ²Ð°ÑĢÐ¸ÐºÐ¾Ð·": 5082,
      "ĠÑģÐ´ÐµÐ»Ð°Ð»": 5083,
      "ĠÑģÐ´ÐµÐ»Ð°ÐµÐ¼": 5084,
      "Ð¸ÑĤÐµÑĤÐµ": 5085,
      "ĠÐ¿Ð¾ÐºÑĥÐ¿ÐºÐ¾Ð¹": 5086,
      "ÐĻÐ¾ÑĢÐºÐµ": 5087,
      "ĠÐľÐ°Ð½ÑĩÐµÑģÑĤÐµÑĢ": 5088,
      "ĠÐľÐ¸Ð½ÑģÐº": 5089,
      "Ð¡Ð¾Ð²ÑĢÐµÐ¼ÐµÐ½Ð½ÑĭÐµ": 5090,
      "ĠÑĩÐ¸ÑĤÐ°Ñİ": 5091,
      "ĠÐ³Ð¾ÑĤÐ¾Ð²Ð¸ÑĤÑģÑı": 5092,
      "ĠKombat": 5093,
      "Â»?": 5094,
      "ĠÐ´Ð¸ÐµÑĤÐ¾Ð¹": 5095,
      "ĠÐ´Ð¾Ð±ÑĢÐ¾": 5096,
      "ĠÑĤÑĢÐµÐº": 5097,
      "ĠÑĤÑĢÐ°Ð½ÑģÐ¿Ð¾ÑĢÑĤ": 5098,
      "ĠÑĤÑĢÐµÐ¹Ð»ÐµÑĢ": 5099,
      "ĠÑĤÑĢÐµÐ±ÑĥÐµÑĤ": 5100,
      "ĠÑĤÑĢÐ¸Ð¶Ð´Ñĭ": 5101,
      "ĠÐ»ÐµÐ³ÑĩÐµ": 5102,
      "ĠÐ¿Ð»ÑİÑģ": 5103,
      "ĠÐ¿Ð¾Ð¼Ð¾Ð³Ð°Ð»": 5104,
      "ĠÐ±ÐµÑĢÑĳÑĪÑĮ": 5105,
      "ĠÐ±ÐµÑĢÐµÑĩÑĮ": 5106,
      "ĠÐ²ÑĭÐ±ÑĢÐ°ÑĤÑĮ": 5107,
      "ĠÐ²ÑĭÐ±ÐµÑĢÐµÐ¼": 5108,
      "ĠÐ¾ÑĤÐ´ÑĭÑħÐ°Ð¹": 5109,
      "ĠÐ¾ÑĤÐ´ÑĭÑħÐ°ÑİÑĤ": 5110,
      "ass": 5111,
      "asonic": 5112,
      "ĠÐĽÐ¸ÑģÑģÐ°Ð±": 5113,
      "ĠÐ¸ÑģÐ¿ÑĭÑĤ": 5114,
      "ĠÐ·Ð°Ð¿Ð¾Ð¼Ð½": 5115,
      "ĠÐ¾Ð´Ð½Ð¾": 5116,
      "ĠÐ¾Ð´ÑĭÑĪÐºÐ°": 5117,
      "ĠÐ¾Ð¿ÐµÑĢÐ°": 5118,
      "ĠÐ¿ÑıÑĤÐ¸Ð´ÐµÑģÑı": 5119,
      "ĠÐ¿Ð¾Ð¿ÑĢÐ¾Ð±ÑĥÑİ": 5120,
      "ĠÐ¿Ð¾Ð¿ÑĢÐ¾Ð±Ð¾Ð²Ð°Ð»": 5121,
      "ĠÐºÐ½Ð¸Ð³Ð¸": 5122,
      "ÐĴÑĭÑģÐ¾Ðº": 5123,
      "ÐĴÑĭÐ±Ð¸": 5124,
      "ÐĴÑĭÐ¶Ð¸Ð»": 5125,
      "Ð¸ÑģÐºÐ¾Ð²": 5126,
      "pel": 5127,
      "ĠÐļÐ¸ÐµÐ²": 5128,
      "ĠÐ´Ð¾ÑģÑĤÐ¾Ð¹": 5129,
      "ĠÐºÐ¾Ð¼ÐµÐ´": 5130,
      "ĠÑĥÑĤÑĢÐ°Ð¼": 5131,
      "ĠÐ¿Ð¾ÑĤÐµÑĢÑı": 5132,
      "ÐĶÐ¾ÑĢÐ¾Ð¶Ðµ": 5133,
      "ÐĶÐ¾ÑĢÐ¾Ð³Ð¸Ðµ": 5134,
      "ÐĿÑĥÐ¶Ð½Ð¾": 5135,
      "ÐĿÑĥÐ¶Ð½ÑĭÐ¹": 5136,
      "ĠÑĢÐ°Ð´Ð¾ÑģÑĤÐ¸": 5137,
      "ĠÐ·Ð°Ð½Ð¸Ð¼Ð°ÑĤÑĮÑģÑı": 5138,
      "ĠÐ¸ÑģÐ¿Ð¾Ð»ÑĮÐ·ÑĥÐµÑĪÑĮ": 5139,
      "Ð¸ÑĢÐ¾Ð¿": 5140,
      "Ð¸ÑĢÐµÐ½Ð¸Ðµ": 5141,
      "ĠÑģÐ¾Ð±Ð¸ÑĢÐ°Ñİ": 5142,
      "ĠÐ´Ð¾Ð¼Ð°ÑĪ": 5143,
      "ĠÐ±Ð»Ð¸Ð¶Ðµ": 5144,
      "Ð¡ÑĤÐ¸Ð»ÑĮÐ½ÑĭÐµ": 5145,
      "Ð¾Ð¶Ð´Ð°ÑĤÑĮ": 5146,
      "Ð¾Ð¶Ð´ÑĳÐ¼": 5147,
      "ĠÐ½Ð°ÑĩÐ½Ñĥ": 5148,
      "ÐĹÐ½Ð°Ñİ": 5149,
      "Ð£Ð´Ð¾Ð±Ð½Ð¾": 5150,
      "Ð£Ð´Ð¾Ð±Ð½ÑĭÐ¹": 5151,
      "ĠÐ²ÐµÑģÐ½Ð¾Ð¹": 5152,
      "ĠÐ²ÐµÑģÑĳÐ»ÑĭÐ¹": 5153,
      "ÐŁÐ¾Ð»Ð½Ð¾ÑģÑĤÑĮÑİ": 5154,
      "Ð¾Ð½Ð´ÑĢÐ¾Ð·": 5155,
      "ĠÐ½Ð°Ð´ÑĳÐ¶Ð½Ð¾ÑģÑĤÑĮ": 5156,
      "ĠÐ½Ð°Ð´ÑĳÐ¶Ð½Ð¾ÑģÑĤÐ¸": 5157,
      "ĠÐĳÐµÑĢÐ»Ð¸Ð½Ð°": 5158,
      "ÐķÐĿ": 5159,
      "ĠDe": 5160,
      "ĠÐĲÑĢÑģ": 5161,
      "ĠÐĲÐ²Ð°Ð½": 5162,
      "ĠÐ¿Ð¾Ð³Ð¾Ð´Ñĥ": 5163,
      "ĠÑģÑĤÐ¸Ð»ÑĮÐ½Ð°Ñı": 5164,
      "ÐĳÑĭÑģÑĤÑĢÐ¾": 5165,
      "ĠÐĳÐ°ÑĢÑģÑĥ": 5166,
      "ĠÐĵÐŀÐĶ": 5167,
      "ÑģÐ¾Ð²ÐºÐ¸": 5168,
      "ĠÐ¿ÑĥÑģÑĤ": 5169,
      "ĠÐ¿ÑĥÑĤÐ°Ñİ": 5170,
      "ĠÐ¿ÑĥÑĤÐµÐ¹": 5171,
      "ĠÐºÑĥÑĢÐ¸ÑĨÐµÐ¹": 5172,
      "ĠÐºÑĥÑĢÑĮÐµÑĢ": 5173,
      "ĠÑĤÐ²Ð¾ÐµÐ¹": 5174,
      "ĠÐ±Ð¾Ð»ÐµÐ·Ð½ÐµÐ¹": 5175,
      "ĠÐ³ÑĢÐ¸Ð¿Ð¿Ð°": 5176,
      "ĠÐ¾ÑģÑĤÑĢÑĭÐ¹": 5177,
      "ĠÐ¾ÑģÑĤÐ°ÑĳÑĤÑģÑı": 5178,
      "ĠÐ¾ÑģÑĤÐµÐ¾Ñħ": 5179,
      "ĠÐ¾ÑģÐ»": 5180,
      "ĠÐ¾ÑģÐ¼Ð¾ÑĤÑĢ": 5181,
      "ĠÐ¾ÑģÐµÐ½ÑĮÑİ": 5182,
      "ÑĤÐ²Ð¾ÑĢÐ½Ð¾Ð³Ð¾": 5183,
      "ÑĢÑĭÐ¼": 5184,
      "Ð¿Ð»Ð°ÑĤÑĭ": 5185,
      "ÑĢÐ°Ð·ÑĢÐ°Ð±Ð¾ÑĤÑĩÐ¸ÐºÐ¾Ð¼": 5186,
      "Ð¡Ð°Ð»Ð°ÑĤ": 5187,
      "ĠÐ¼Ð°ÑĪÐ¸Ð½": 5188,
      "Ð³Ð°Ð»ÑģÑı": 5189,
      "ÐĴÐºÑĥÑģÐ½ÑĭÐ¹": 5190,
      "ÐĴÐºÑĥÑģÐ½ÑĭÐµ": 5191,
      "ĠHonda": 5192,
      "ĠÐ²ÑĢÐµÐ¼ÐµÐ½Ð°": 5193,
      "ĠÐ²ÑĢÐµÐ¼ÐµÐ½ÐµÐ¼": 5194,
      "ĠÑģÐ°Ð¹ÑĤ": 5195,
      "ĠÑģÐ°Ð¹ÑĤÐµ": 5196,
      "ÐŁÐ¾ÑĤÐµÑĢÑıÐ»": 5197,
      "ĠÐ¸Ð½ÑĤÐµÑĢÐµÑģÐ½Ð¾Ðµ": 5198,
      "ĠÐ¸Ð½ÑĤÐµÑĢÐµÑģÐ½Ð°Ñı": 5199,
      "ĠÐ¼ÑĭÑĤÑĮ": 5200,
      "Ð¶ÐµÑĤÐ¾Ð²": 5201,
      "ÐµÑģÑĤÐ²ÐµÐ½": 5202,
      "Ð£ÑĩÐ¸ÑĤÑĮÑģÑı": 5203,
      "Ð£ÑĩÑĳÐ½ÑĭÐ¼": 5204,
      "ĠÐ¶Ð¸Ð²Ð¾ÑĤÐ½ÑĭÑħ": 5205,
      "Ð¸ÑĩÐµÑģÐºÐ¸Ð¹": 5206,
      "ĠÐ¿Ð¸ÑĤÐ°Ð½Ð¸Ñı": 5207,
      "ĠÑģÐµÐ¼ÐµÐ¹Ð½ÑĭÐ¼": 5208,
      "ĠÐ´ÑĢÑĥÐ·ÑĮÑıÐ¼": 5209,
      "Ð¸Ð¾ÑĤÐµÑĢÐ°Ð¿Ð¸Ñı": 5210,
      "Ð½ÐµÐ²Ð°ÑİÑģÑĮ": 5211,
      "ĠÐ¿Ð¾Ð²Ð°ÑĢ": 5212,
      "ĠÐ¿Ð¾Ð²ÐµÑĢÑħ": 5213,
      "ÐļÑĢÑĥÑĤÐ¾Ð¹": 5214,
      "ĠÐ´ÐµÑĢÐ¶ÑĥÑģÑĮ": 5215,
      "ĠÑĤÑĢÐµÐ½Ð¸ÑĢÑĥÐµÑĪÑĮ": 5216,
      "ĠÑĤÑĢÐµÐ½Ð°Ð¶ÑĳÑĢÑĭ": 5217,
      "ÐŁÐ¾Ð²ÑĭÑĪ": 5218,
      "ĠÐ·Ð¸Ð¼Ñĥ": 5219,
      "ĠÐ·Ð°Ð±ÑĭÐ»": 5220,
      "ĠÑĥÑģÑĤÐ°Ð»Ð¾ÑģÑĤÑĮ": 5221,
      "ĠÐ¿Ð¾Ð´Ð°ÑĢÐ¾Ðº": 5222,
      "ĠÐ¿Ð¾Ð´Ð°ÑĢÐºÐ¾Ð²": 5223,
      "ĠÑĢÑĥÐº": 5224,
      "ĠÐ·Ð´Ð°ÑĢÐ¾Ð²Ð°": 5225,
      "ĠÑĥÑģÐ¿ÐµÐµÐ¼": 5226,
      "ÑĢÐ°ÑģÑĤÐµ": 5227,
      "ĠÐ»ÑĳÐ³ÐºÐ¸Ðµ": 5228,
      "ĠÐ»ÑĳÐ³ÐºÐ¸Ñħ": 5229,
      "ĠÐ¿ÑĢÐ¾Ð´Ð°Ð¹": 5230,
      "ĠÐ¿Ð¾ÑģÑĤÑĭ": 5231,
      "ĠÐ¿Ð¾ÑģÑĤÐ¾Ð²": 5232,
      "ĠÐ¿Ð¾ÑģÑĤÐµÑĢ": 5233,
      "ĠÐ¿Ð¾ÑģÑĤÐ¸ÑĩÑĮ": 5234,
      "ĠÑĢÐµÐ±ÑıÑĤ": 5235,
      "ĠÐ¾ÑĤÐ»Ð¸ÑĩÐ½Ð°Ñı": 5236,
      "ĠÑģÐ¾Ð²ÑĢÐµÐ¼ÐµÐ½Ð½ÑĭÑħ": 5237,
      "Ð¾Ð²Ð°Ð½Ð½Ð¾": 5238,
      "ÐŁÐ¾Ð´ÑħÐ¾Ð´Ð¸ÑĤ": 5239,
      "ÐŁÐ¾Ð´ÐµÐ»Ð¸ÑĪÑĮÑģÑı": 5240,
      "ÐŁÐ¾ÐºÐ°Ð¶ÐµÑĪÑĮ": 5241,
      "ĠÑĩÐ°ÑģÑĤÐ½Ð¾Ð¹": 5242,
      "ĠÐ»ÐµÑĤÐ¾Ð¼": 5243,
      "ĠÑģÑĤÐ¾Ð¼Ð°ÑĤÐ¸ÑĤ": 5244,
      "ĠÐ¾ÑĤÐºÐ°Ð·ÑĭÐ²Ð°Ð»ÑģÑı": 5245,
      "ĠÐ²ÑģÑĤÑĢÐµÑĩÑĥ": 5246,
      "ĠÐ²ÑģÑĤÑĢÐµÑĩÐ°Ð»": 5247,
      "ĠÐ²ÑģÑĤÑĢÐµÑĩÐ°ÐµÐ¼ÑģÑı": 5248,
      "ÐŁÐ¾Ð»ÐµÐ·Ð½ÑĭÐµ": 5249,
      "oda": 5250,
      "Ð¦Ð²ÐµÑĤÑĭ": 5251,
      "ĠÐ¿Ð¾Ð¼Ð½Ñİ": 5252,
      "ĠÐ¿Ð¾Ð¼Ð¾Ð¶ÐµÑĤ": 5253,
      "ĠÐ¿Ð¾Ð¼Ð¾Ð¶ÐµÑĪÑĮ": 5254,
      "ĠÐ¿Ð¾Ð¼Ð¾ÑīÑĮ": 5255,
      "ĠÐ¿Ð¾Ð¿ÑĢÐ°Ð²": 5256,
      "ĠÐ¿Ð¾Ð¿ÐºÐ¾ÑĢ": 5257,
      "ÐļÐ°ÑĢÑĢÐ¸Ð²ÑĥÑĢ": 5258,
      "ĠÐºÐ¾ÑĢÐ¾Ð½Ð°Ð²": 5259,
      "ĠÐºÐ°ÑĢÐ¸ÐµÑģ": 5260,
      "ĠÐ±Ð°ÑĢÐ°": 5261,
      "ĠÐ±Ð°ÑĢÐ±ÐµÑĢ": 5262,
      "ÐŀÑĤÐ´ÑĭÑħÐ°Ð¹": 5263,
      "ÐŀÑĤÐ´ÑĭÑħÐ°ÑĤÑĮ": 5264,
      "ĠÑĥÐ²Ð¸Ð´ÐµÑĤÑĮÑģÑı": 5265,
      "ĠÐ¿Ð¾Ð·Ð½Ð°ÐºÐ¾Ð¼Ð¸Ð»Ð¸": 5266,
      "ÐĳÑĭÑģÑĤÑĢÐµÐµ": 5267,
      "ĠÐ·Ð´Ð¾ÑĢÐ¾Ð²ÑĮÑı": 5268,
      "ĠÑĢÐµÐ±ÑĳÐ½ÐºÑĥ": 5269,
      "ĠVal": 5270,
      "ĠXPS": 5271,
      "ÑĢÐ¾Ð´Ðµ": 5272,
      "ÑĢÐ¾Ð´ÑĥÐºÑĤÐ°Ð¼Ð¸": 5273,
      "ĠÐ¼Ð¸ÑĢÐ¾Ð¼": 5274,
      "ĠÑĩÐµÑģÑĤÐ½ÑĭÐ¹": 5275,
      "ĠÑĩÐµÑģÑĤÐ½ÑĭÐ¼": 5276,
      "ĠÐ¿ÑĢÐ¸Ð´ÑĳÑĤÑģÑı": 5277,
      "Ð¡Ð»ÑĥÑĪÐ°ÑĤÑĮ": 5278,
      "ĠÐ´Ð¸Ð·Ð°Ð¹Ð½ÐµÑĢÐ¾Ð¼": 5279,
      "ĠÐ¾Ð³ÑĢÐ°Ð½": 5280,
      "ĠÐ°ÐºÑĤÑĥÐ°Ð»ÑĮÐ½Ð¾": 5281,
      "ĠÑģÐ¾Ð²Ð¼": 5282,
      "ĠÑģÐ¾Ð²ÐµÑģÑĤÑĮ": 5283,
      "ĠÑģÐ¾Ð²ÑģÐµÐ¼": 5284,
      "ĠÑģÐ¾Ð²ÐµÑĢÑĪ": 5285,
      "ÐŁÐ»Ð°Ð½Ð¸ÑĢÑĥÑİ": 5286,
      "ÐŁÐ»Ð¸ÑĤÐºÐ°": 5287,
      "ĠÐ·Ð°ÑĢÐ°Ð½ÐµÐµ": 5288,
      "ĠÐ·Ð°ÑĢÐµÐ³Ð¸ÑģÑĤ": 5289,
      "ĠÐ¿ÑĢÐµÐ´ÑģÐºÐ°Ð·ÑĥÐµÐ¼": 5290,
      "ÐĴÐµÑģÐ½Ð¾Ð¹": 5291,
      "ĠÐ¿Ð¾ÐºÐ°Ð·ÑĭÐ²Ð°ÑĤÑĮ": 5292,
      "Ð¡Ð»Ð°Ð±ÑĭÐµ": 5293,
      "Ð¡Ð»Ð°Ð±Ð¾Ð²Ð°ÑĤ": 5294,
      "ĠiPad": 5295,
      "ĠÐ¼Ð°Ð³Ð°Ð·Ð¸Ð½Ðµ": 5296,
      "ĠÐ¾ÐºÐµÐ°Ð½Ñĭ": 5297,
      "ĠÐ°Ð½ÑĤÐ¸ÑģÐµÐ¿ÑĤ": 5298,
      "ĠÐ¸ÑģÑĤÐ¾ÑĢÐ¸Ñı": 5299,
      "ĠÐ¸ÑģÑĤÐ¾ÑĢÐ¸ÑĩÐ½Ð¾": 5300,
      "ĠÐ¼Ð¾Ð´Ð½ÑĭÐ¹": 5301,
      "ĠÐ·Ð²ÑĥÐº": 5302,
      "ĠÐ·Ð²Ð¾Ð½Ð¸ÑĤ": 5303,
      "ĠÐ·Ð°Ð¼Ð¾Ðº": 5304,
      "ĠÑĥÐ³Ð¾ÑģÑĤÐ¸ÑĪÑĮÑģÑı": 5305,
      "ĠÐ½Ð°ÑģÑĤÐ¾Ñı": 5306,
      "ĠÐ¾Ð±Ð½Ð¾Ð²Ð¸ÑĤÑĮ": 5307,
      "ĠÐ¸Ð·ÑĥÑĩÐ°Ñİ": 5308,
      "ĠÐ¸Ð³ÑĢÐ°ÐµÑĪÑĮ": 5309,
      "ĠÑĪÐºÐ¾Ð»ÑĮ": 5310,
      "ĠÐºÐ¾Ð¼Ð°Ð½Ð´Ð°": 5311,
      "ĠÐºÐ¾Ð¼Ð°Ð½Ð´Ðµ": 5312,
      "ĠÐ±Ð»Ð°Ð³Ð¾Ð´Ð°ÑĢÐ¸ÑĤÑĮ": 5313,
      "ĠÐ±Ð»Ð°Ð³Ð¾Ð´Ð°ÑĢÐ½Ð¾ÑģÑĤÑĮ": 5314,
      "ĠÑĤÑĢÐµÐ½Ð¸ÑĢÐ¾Ð²ÐºÐ°": 5315,
      "ĠÑĤÑĢÐµÐ½Ð¸ÑĢÐ¾Ð²ÐºÑĥ": 5316,
      "Ð®Ð¼Ð¾ÑĢ": 5317,
      "Ġ207": 5318,
      "ĠÐ°Ð»ÐºÐ¾Ð³": 5319,
      "ĠÑģÐ´Ð°Ð²Ð°ÑĤÑĮÑģÑı": 5320,
      "ĠÑģÐ´Ð°Ð²Ð°ÑĤÑĮ": 5321,
      "ÐºÐ¾Ð²Ð¾Ð¼": 5322,
      "ĠÑĤÑĢÑĥÐ´Ð½Ð¾": 5323,
      "ÐŁÐ¾Ð¿ÑĢÐ¾ÑīÐµ": 5324,
      "ĠÐ¼ÐµÐ´Ð¸ÑĨÐ¸Ð½Ñĭ": 5325,
      "ĠÐ¼ÐµÑģÑĤÐ°": 5326,
      "ĠÐ¼ÐµÑģÑĤÑĥ": 5327,
      "ĠÑĩÐ¸ÑģÑĤÐ¾": 5328,
      "ĠÐ¿ÑĢÐ¾Ð¸Ð³ÑĢÐ°Ð»Ð°": 5329,
      "ĠÑģÐ¿Ð¾ÐºÐ¾Ð¹ÑģÑĤÐ²Ð¸Ðµ": 5330,
      "ĠÑĦÐ¾ÑĢÐ¼Ð¸ÑĢÑĥ": 5331,
      "Ð¡Ð»Ð¾Ð¶Ð½ÐµÐµ": 5332,
      "Ð¤ÑĥÑĤÐ±Ð¾Ð»ÐºÐ°": 5333,
      "ĠÐºÐ¾ÑĪÐµÐ»ÑĮÐºÐ°": 5334,
      "ĠÑĥÐ»ÑĭÐ±Ð°ÑİÑģÑĮ": 5335,
      "ĠÐ¾ÑĢÐ³Ð°Ð½Ð¸Ð·Ð¾Ð²Ð°ÑĤÑĮ": 5336,
      "ĠÐ¾ÑĢÐ³Ð°Ð½Ð¸Ð·Ð¼Ðµ": 5337,
      "ĠÐ¸ÑģÐºÑĥÑģÑģÑĤÐ²Ð°": 5338,
      "ÐĲÐ½ÑĤÐ¸Ð±Ð¸Ð¾ÑĤÐ¸ÐºÐ¸": 5339,
      "Ð¨ÑĥÑĤ": 5340,
      "ÑĮÐµÑĢÑĥ": 5341,
      "ÑĩÐµÑģÐºÐ°Ñı": 5342,
      "ĠÐ½ÐµÑĢÐ²Ð¾Ð²": 5343,
      "ĠÐ²Ð¾Ð·ÑĢÐ°ÑģÑĤÐµ": 5344,
      "ĠÐ²ÐµÑīÐ¸": 5345,
      "ĠÐ²ÐµÑīÑĮ": 5346,
      "ÐļÐ¾ÑĦÐµ": 5347,
      "ĠÐ´ÑĥÑĪÑĥ": 5348,
      "ĠÐºÑĥÑģÐ¾ÑĩÐµÐº": 5349,
      "ÐŁÑĢÐ°Ð²Ð´Ð°": 5350,
      "ÐŁÑĢÐ°Ð²Ð¸Ð»ÑĮÐ½Ð¾": 5351,
      "ÐŁÑĢÐ°Ð²Ð¸Ð»ÑĮÐ½Ð¾Ðµ": 5352,
      "ÐŁÐ°ÑģÑĤÐ°": 5353,
      "ĠÐ¸ÑģÑĤÐ¾ÐºÐ¸": 5354,
      "ĠÐ±ÐµÑģÐ¿Ð¾Ð»": 5355,
      "ĠÐ¼Ð¾Ñı": 5356,
      "ĠÐ¼ÐµÐ½ÐµÐ´Ð¶": 5357,
      "ĠÐ¼Ð¾ÑīÐ½Ð°Ñı": 5358,
      "Ð§ÐµÑģÑĤÐ½ÑĭÐ¹": 5359,
      "ĠÐ¿ÑĢÐ¸Ð»ÐµÑĤÐµÐ»": 5360,
      "ĠÑħÐ¾Ð´Ð¸ÑĤÑĮ": 5361,
      "ĠÑģÑĤÑĢÐ°ÑĪÐ½Ð°Ñı": 5362,
      "ĠÑĢÐ°Ð½Ð½Ð¸Ð¹": 5363,
      "ĠÑĢÐ°Ð½ÑĮÑĪÐµ": 5364,
      "ĠÑĢÑĭÐ½Ð¾Ðº": 5365,
      "ĠÑģÐ»Ð¾Ð¶Ð½ÑĭÐ¹": 5366,
      "ĠÑģÐ»Ð¾Ð¶Ð½Ð°Ñı": 5367,
      "ĠÑģÐ»Ð¾Ð¶Ð½ÐµÐµ": 5368,
      "ĠÑģÐ¿Ð¾ÑĢÐ¸ÑĤÑĮ": 5369,
      "ĠÑĦÐ¸Ð·Ð¸ÑĩÐµÑģÐºÐ¸Ðµ": 5370,
      "ĠÑĦÐ¸Ð·Ð¸Ð¾ÑĤÐµÑĢÐ°Ð¿Ð¸Ñı": 5371,
      "ÐĵÐ¾Ð²Ð¾ÑĢÐ¸ÑĤ": 5372,
      "ĠÐ¿Ð¾Ð´Ð´ÐµÑĢÐ¶Ð°Ð½Ð¸Ðµ": 5373,
      "ĠÐ¿Ð»Ð°ÑĩÑĥ": 5374,
      "ĠÐºÐ¾ÑĤÐ¾ÑĢÑĭÐ¹": 5375,
      "ĠÐĴÐµÐ½ÐµÑĨÐ¸Ð¸": 5376,
      "ĠÐ¾Ð´Ð½Ð¾ÐºÐ»Ð°ÑģÑģ": 5377,
      "ĠÐ¾Ð¿Ð°ÑģÐ½Ð¾": 5378,
      "ĠÑĥÐ½Ð¸Ð²ÐµÑĢÑģÐ°Ð»ÐµÐ½": 5379,
      "ĠÑĥÐ½Ð¸Ð²ÐµÑĢÑģÐ¸ÑĤÐµÑĤÐµ": 5380,
      "ĠÑįÐ»ÐµÐºÑĤÑĢÐ¸Ðº": 5381,
      "ĠÑįÐ»ÐµÐºÑĤÑĢÐ¾Ðº": 5382,
      "ĠÐºÐ²Ð°ÑĢÑĤÐ¸ÑĢÑĥ": 5383,
      "ĠÐºÐ²Ð°ÑĢÑĤÐ¸ÑĢÑĭ": 5384,
      "ĠÑĢÐ°ÑģÑģÐ»Ð°Ð±Ð¸ÑĤÑĮÑģÑı": 5385,
      "ĠÑĢÐ°ÑģÑģÐ»Ð°Ð±Ð»ÑıÐµÑĤ": 5386,
      "ĠÑĢÐ°ÑģÑģÐ»Ð°Ð±Ð¾Ð½Ðµ": 5387,
      "ĠÐ°ÑĤÐ¼Ð¾ÑģÑĦÐµÑĢÐ½Ð¾": 5388,
      "Nikon": 5389,
      "ĠOn": 5390,
      "ĠOLED": 5391,
      "ĠOpel": 5392,
      "ĠÐ½Ð°Ð¿ÑĢ": 5393,
      "ĠÐ²Ð¾ÑģÐ¿Ð°Ð»ÐµÐ½Ð¸Ðµ": 5394,
      "ĠÐ²Ð¾ÑģÐºÑĢÐµÑģ": 5395,
      "ĠÑģÑĬÑĳÐ¼ÐºÐµ": 5396,
      "ĠÐ´Ð²Ð°": 5397,
      "ĠÐ±Ð°ÑģÑģÐµÐ¹": 5398,
      "ĠÐ¼Ð¾Ð½ÐµÑĤÐºÑĥ": 5399,
      "ĠÐ·ÑĥÐ±Ñĭ": 5400,
      "ĠÐ¿ÑĢÐµÐ¼ÑĮÐµÑĢÐ°": 5401,
      "ĠÐ¿ÑĢÐµÐ¼ÑĮÐµÑĢÑĥ": 5402,
      "ĠÐ³ÑĢÑĥÑģÑĤ": 5403,
      "ĠÐ³ÑĢÑĥÐ¿": 5404,
      "ÐĴÐµÑĩÐ½Ð¾Ðµ": 5405,
      "ÐĴÐµÑĩÐ½Ð°Ñı": 5406,
      "ĠÑģÐ»Ð¾Ð²Ð°Ð¼": 5407,
      "ĠÑģÐ»Ð¾Ð²Ð°Ñħ": 5408,
      "Ð£Ð¼Ð½ÑĭÐµ": 5409,
      "ĠÑģÐ²ÐµÑĤÐ¸ÑĤ": 5410,
      "ĠÐ¸Ð·Ð±ÐµÐ¶Ð°ÑĤÑĮ": 5411,
      "ĠÐ¸Ð·Ð±ÐµÐ³Ð°ÑĤÑĮ": 5412,
      "ÐĵÐ¸Ð±ÑĩÐµ": 5413,
      "ĠÐºÐ¾Ð½ÑĤÑĢÐ¾Ð»ÑĮ": 5414,
      "ÐĸÐ¸Ð²ÑĳÑĤ": 5415,
      "ĠÐ¿ÐµÑĢÐµÐ´Ð°ÑİÑĤ": 5416,
      "ĠÐ¿ÐµÑĢÑģÐ¿ÐµÐºÑĤÐ¸Ð²Ð½ÑĭÐµ": 5417,
      "Ð¡ÐºÐ¾ÑĢÐ¿Ð¸Ð¾Ð½": 5418,
      "ĠÐºÐ¾ÑĤÐ¾ÑĢÐ¾Ð¼": 5419,
      "ĠÑģÐ¼Ð°ÑĢÑĤÑĦÐ¾Ð½Ð°": 5420,
      "ĠÑĪÑĥÑĤÐºÐ¸": 5421,
      "ĠÐ·Ð°Ð±Ð¾Ð»ÐµÐ²Ð°Ð½Ð¸Ð¹": 5422,
      "ĠÐ·Ð°Ð²Ð°Ð»Ð¸Ð»": 5423,
      "ĠÐ·Ð°Ð¼ÐµÑĤÐ¸Ð»": 5424,
      "ĠÐ·Ð°Ð¼ÐµÑĤÐ¸ÑĤÑĮ": 5425,
      "ĠÐ¿Ð¾ÑħÑĥÐ´ÐµÑĤÑĮ": 5426,
      "ĠÐ¾Ð²Ð¾ÑīÐ¸": 5427,
      "ĠÐ±Ð¸Ð±Ð»Ð¸Ð¾ÑĤÐµÐºÑĥ": 5428,
      "ĠÐŀÐ»Ð¸Ð¼Ð¿": 5429,
      "ĠÐŀÐ´ÐµÑģÑģ": 5430,
      "ĠÐ½ÐµÑģÐ¼Ð¾ÑĤÑĢÑı": 5431,
      "ÐĶÐ¾ÑģÑĤÐ°ÑĤÐ¾ÑĩÐ½Ð¾": 5432,
      "ĠÐ²ÐºÐ»ÑİÑĩÐ¸ÑĤÑĮ": 5433,
      "ĠÑģÑĦÐµÑĢÑĭ": 5434,
      "ĠÑģÐ¾Ð¿ÐµÑĢÐ½Ð¸ÐºÐ¸": 5435,
      "Ð°ÐºÑĤÐ¸ÑĩÐµÑģ": 5436,
      "ÐļÑĢÐ¾ÑģÑģÐ¾Ð²ÐºÐ¸": 5437,
      "ĠÐ´Ð¾Ð»Ð»Ð°ÑĢÐ°": 5438,
      "ĠÐ´ÑĥÑħÐ¸": 5439,
      "ÐŁÐµÑĢÐµÐ´Ð¾Ð²ÑĭÐµ": 5440,
      "ĠÐ±Ð°Ð³Ð¸": 5441,
      "ĠÑĥÐ¿ÑĢÐ°Ð¶": 5442,
      "ĠÑĥÐ¿Ð¾ÑĤÑĢÐµÐ±Ð»ÐµÐ½Ð¸Ðµ": 5443,
      "ÑĳÑģÐ°Ñħ": 5444,
      "ĠÑĩÑĤÐµÐ½Ð¸Ðµ": 5445,
      "ĠÑıÐ¿Ð¾Ð½ÑĨÑĭ": 5446,
      "Ð³Ð¾Ð´Ð°": 5447,
      "ÑīÐµÐµÑģÑı": 5448,
      "ĠÑĢÐ¾Ð¼Ð°Ð½ÑĤÐ¸ÑĩÐ½Ð¾": 5449,
      "ÐľÐµÐ´ÑģÐµÑģÑĤÑĢÐ°": 5450,
      "ĠÐ¾ÑĤÐ´Ð¾ÑħÐ½Ñĥ": 5451,
      "ĠÐ¾ÑĤÐ´Ð¾ÑħÐ½ÑĳÑĪÑĮ": 5452,
      "ĠÐ¾Ð±ÑĢÐ°ÑĤÐ½Ð¾": 5453,
      "ÐłÐ¾Ð¼Ð°Ð½ÑĤÐ¸ÑĩÐ½Ð¾": 5454,
      "ĠÐ¿ÐµÑĢÐµÑģÐ¼Ð¾ÑĤÑĢÐµÑĤÑĮ": 5455,
      "ĠÐ¿ÑĢÐ¸ÑĢÐ¾Ð´Ñĥ": 5456,
      "ĠÑĥÐ¶Ð°ÑģÐ¾Ð²": 5457,
      "ĠÐ¾Ð´ÐµÐ¶Ð´Ð°": 5458,
      "ĠÐ¾Ð´ÐµÐ¶Ð´Ñĥ": 5459,
      "ĠÐ´Ð¾ÑģÑĤÐ°Ð²Ð°ÑĤÑĮ": 5460,
      "ĠÐ±Ð»Ð¸Ð·ÐºÐ¸Ñħ": 5461,
      "ĠÐ¿Ð¾Ð²ÑĤÐ¾ÑĢÑıÑĤÑĮ": 5462,
      "ÐĹÐ°Ð²ÑĤÑĢÐ°ÐºÐ°Ñİ": 5463,
      "ĠÐ½Ð°ÐºÐ°Ð·Ð°Ð½Ð¸Ñı": 5464,
      "ĠÐ½Ð°ÐºÐ°Ð·Ð°Ð½Ð¸Ð¹": 5465,
      "ĠÐ°Ð»Ð»ÐµÑĢÐ³Ð¸Ñı": 5466,
      "ĠÐ°Ð»Ð»ÐµÑĢÐ³Ð¸Ñİ": 5467,
      "ĠÐ¿ÑĢÐ¸Ð»Ð¾Ð¶ÐµÐ½Ð¸Ðµ": 5468,
      "ĠÐ³Ð°ÑģÑĤÑĢÐ¸ÑĤÐ¾Ð¼": 5469,
      "ĠÐ¾Ð¶Ð¾Ð³": 5470,
      "ĠÑĢÐ°Ð½Ð¾": 5471,
      "ĠÑĢÐ°ÑĨÐ¸Ð¾Ð½": 5472,
      "ĠÐ®Ð½Ð°Ð¹": 5473,
      "ĠÐ®Ð²ÐµÐ½ÑĤ": 5474,
      "ĠÐ½Ð°Ð²ÐµÑĢÑģÑĤ": 5475,
      "ĠÐ½ÐµÐ²ÑĢÐ¾Ð»Ð¾Ð³Ð°": 5476,
      "ÐĶÐµÑĢÐ¶Ð¸ÑĤ": 5477,
      "ĠÐ²Ð¾Ð¾Ð±ÑīÐµ": 5478,
      "ĠÐ²Ð°ÐºÑĨÐ¸Ð½Ð°ÑĨÐ¸Ñı": 5479,
      "ĠÑģÐ¾ÑģÑĤÑĢÐ°Ð´": 5480,
      "ĠÐºÐ¾Ð»ÑĳÑģÐ°Ñħ": 5481,
      "ĠÐ±Ð°Ð½Ðº": 5482,
      "ĠÐ±Ð°ÑĪÐ½Ñİ": 5483,
      "ĠÐ±Ð¸Ð·Ð½ÐµÑģÑĥ": 5484,
      "ÐĲÐ¹ÑĤÐ¸": 5485,
      "ÐĲÐ¹ÑĦÐ¾Ð½": 5486,
      "ĠÐ¼ÐµÐ±ÐµÐ»ÑĮ": 5487,
      "ĠÐ¼ÐµÐ±ÐµÐ»Ð¸": 5488,
      "ĠÐ¼Ð°Ð·Ð¾ÑħÐ¸ÑģÑĤÐ¾Ð²": 5489,
      "ĠÐ·Ð°ÑĤÑıÐ½ÑĥÐ»": 5490,
      "ĠÐ·Ð°ÑĤÑıÐ³Ð¸Ð²Ð°ÐµÑĤ": 5491,
      "ĠÑĥÑĢÐ¾Ð²Ð½Ðµ": 5492,
      "ĠÐ»Ð¾Ð¼Ð°ÑĤÑĮ": 5493,
      "ÑĨÐ¸Ð¾Ð½Ð½Ð¾Ðµ": 5494,
      "ĠÐ¿ÑĢÐ¸ÐºÐ¾Ð»ÑĮÐ½ÑĭÐ¹": 5495,
      "ĠÐ¿ÑĢÐ¸ÐºÐ¾Ð»ÑĮÐ½Ð°Ñı": 5496,
      "ĠÐµÐ´Ð¸Ð½ÑģÑĤÐ²ÐµÐ½Ð½ÑĭÐ¹": 5497,
      "ĠÐ³Ð°ÑĢÐ¼Ð¾Ð½Ð¸Ð¸": 5498,
      "Ð¸ÑıÑĤÐ½Ð°Ñı": 5499,
      "ĠÑħÐ°ÐºÐµÑĢÐ¾Ð²": 5500,
      "ĠÑħÐ°ÐºÐµÑĢÐ¾Ð¼": 5501,
      "ĠÑĢÑİÐºÐ·Ð°Ðº": 5502,
      "ĠÑĢÑİÐºÐ·Ð°ÐºÐ°": 5503,
      "ÐľÐµÑħÐ°Ð½Ð¸ÐºÐ¾Ð¼": 5504,
      "ĠÑģÐ»Ð°Ð´ÐºÐ¸Ðµ": 5505,
      "Ð£ÑģÐ¿ÐµÐµÑĪÑĮ": 5506,
      "ÐĳÐ¾Ð»ÑĮÑĪÐµ": 5507,
      "ĠÐ¶Ð°ÑĢÐºÐ¾": 5508,
      "ĠÐ¿ÑĢÐ¾ÑĦÐ¸Ð»Ð°ÐºÑĤÐ¸ÐºÐ°": 5509,
      "ĠÐ¿ÑĢÐ¾ÑĦÐ¸Ð»Ð°ÐºÑĤÐ¸ÑĩÐµÑģ": 5510,
      "ĠÐ·Ð°ÑīÐ¸ÑĤÐ¸ÑĤÑĮÑģÑı": 5511,
      "ĠÑģÐºÐ¸Ð´ÐºÐ¸": 5512,
      "ĠÑģÐºÑĥÑĩÐ½ÑĭÐ¹": 5513,
      "ĠÐ¿Ð¾Ð½Ð¸Ð¼Ð°ÑİÑĤ": 5514,
      "ĠÐ°Ð¿ÑĤÐµÑĩÐºÑĥ": 5515,
      "ĠÐ°Ð¿ÑĤÐµÐºÑĥ": 5516,
      "ĠÐ°Ð¿Ð¿ÐµÐ½Ð´Ð¸ÑĨÐ¸ÑĤ": 5517,
      "ĠÑĥÐ²Ð»ÐµÐºÐ°ÐµÑĤ": 5518,
      "ĠÑĥÐ²Ð»ÐµÐºÐ°ÑĤÐµÐ»ÑĮÐ½Ð¾": 5519,
      "ĠÐ¿ÑĢÐ°Ð²Ð¸Ð»Ð°Ð¼Ð¸": 5520,
      "ĠÐľÐ°Ð´ÑĢÐ¸Ð´Ðµ": 5521,
      "ĠÑĢÐ°Ð´Ð¾ÑģÑĤÑĮÑİ": 5522,
      "ĠÑģÐ¾Ð±Ð»ÑİÐ´ÐµÐ½Ð¸Ðµ": 5523,
      "ĠÑģÐ¾Ð±Ð»ÑİÐ´Ð°ÑĤÑĮ": 5524,
      "ĠÑģÐ¾Ð±ÐµÑģÐµÐ´Ð¾Ð²Ð°Ð½Ð¸Ðµ": 5525,
      "ĠÐ¼ÑĭÑģÐ»ÑĮ": 5526,
      "ĠÐ¼ÑĭÑģÐ»ÐµÐ¹": 5527,
      "ĠÐ¼ÑĥÐ·ÐµÐµ": 5528,
      "ÐŁÐ¾ÑģÐ¼Ð¾ÑĤÑĢÐ¸": 5529,
      "ÐŁÐ¾ÑģÐ¼Ð¾ÑĤÑĢÐ¸Ð¼": 5530,
      "ĠÐ¸Ð½ÑĦÐµÐºÑĨÐ¸Ñı": 5531,
      "ĠÐºÐ¾Ð¼Ð°Ð½Ð´Ð¸ÑĢÐ¾Ð²ÐºÐ°": 5532,
      "ĠÐ±ÑĢÐ¾Ð½ÑħÐ¸ÑĤÐ¾Ð¼": 5533,
      "ĠÐ¿ÑĢÐ¸Ð³Ð¾ÑĤÐ¾Ð²Ð¸ÑĤÑĮ": 5534,
      "ĠÐºÐ¾Ð½ÑĤÑĢÐ¾Ð»Ð¸ÑĢÐ¾Ð²Ð°ÑĤÑĮ": 5535,
      "ĠÐ½ÐµÐ¼ÐµÑĨÐºÐ¾Ðµ": 5536,
      "ĠÐ´ÑĭÑħÐ°ÑĤÐµÐ»ÑĮÐ½ÑĭÐµ": 5537,
      "ĠÐ´ÑĭÑħÐ°ÑĤÐµÐ»ÑĮÐ½ÑĭÑħ": 5538,
      "ĠÐŃÐ¹ÑĦÐµÐ»ÐµÐ²Ñĥ": 5539,
      "ĠÐ¿Ð½ÐµÐ²Ð¼Ð¾Ð½Ð¸ÐµÐ¹": 5540,
      "Ð£Ð½Ð¸Ð²ÐµÑĢÑģÐ°Ð»ÑĮÐ½ÑĭÐ¹": 5541,
      "ault": 5542,
      "tcher": 5543,
      "ĠÑĤÐ¾ÑĢÑĤ": 5544,
      "ĠÐĺÑĤÐ°Ð»": 5545,
      "ÑĢÐµÐ¿ÐºÐ¸Ð¹": 5546,
      "ĠÐ¿ÐµÐ²ÑĨÐ¾Ð¼": 5547,
      "ĠÐ¿Ð¾Ð»ÑĮÐ·Ð¾Ð²Ð°Ð»ÑģÑı": 5548,
      "ĠÐ¿ÑĭÑĤÐ°ÑİÑģÑĮ": 5549,
      "ĠÐ¿ÑĭÐ»ÑĮÑĨÑĥ": 5550,
      "ĠÐ½Ð°Ð»Ð¾Ð³Ð°Ð¼": 5551,
      "ĠÐ½ÑĭÑĤÑĮÑĳÐ¼": 5552,
      "ÐĶÐ²Ðµ": 5553,
      "ĠÑģÐ¸ÑģÑĤÐµÐ¼": 5554,
      "ĠÑģÐ°ÑħÐ°ÑĢÐ°": 5555,
      "ĠÑģÐºÐ°ÑĩÐ°ÑĤÑĮ": 5556,
      "ĠÑģÑĥÑģÑĤÐ°Ð²Ð¾Ð²": 5557,
      "ĠÐ´Ð¾Ð»Ð³": 5558,
      "ĠÐ´Ð°Ð²Ð»ÐµÐ½Ð¸Ñı": 5559,
      "ĠÐ´ÑĭÑĪÐ°ÑĤÑĮ": 5560,
      "ĠÐ´ÐµÑĪÐµÐ²Ð¾": 5561,
      "ĠÐºÑĥÑĢÐµÐ½Ð¸Ñı": 5562,
      "ĠÐºÐ¸ÑĪÐºÐ¸": 5563,
      "ĠÐºÑĥÑħÐ½Ð¸": 5564,
      "ĠÐºÐ¸Ð±ÐµÑĢÑģÐ¿Ð¾ÑĢÑĤ": 5565,
      "ĠÐºÐ¾Ð²Ð¸Ð´Ð¾Ð¼": 5566,
      "ĠÑĤÐ¸ÑĪÐ¸Ð½Ð°": 5567,
      "ĠÑĤÐ¾ÐºÑģÐ¸ÑĩÐ½ÑĭÐµ": 5568,
      "ĠÑĤÑıÐ¶ÑĳÐ»Ð°Ñı": 5569,
      "ĠÑĤÐºÐ°Ð½ÐµÐ¹": 5570,
      "ĠÐ±Ð¾ÑıÑĤÑģÑı": 5571,
      "ÐĲÐ½Ð°Ð»Ð¸ÑĤÐ¸Ðº": 5572,
      "ÐŀÑģÐ½Ð¾Ð²": 5573,
      "Ð¡ÑĩÐ°ÑģÑĤÐ»Ð¸Ð²": 5574,
      "ĠÐ·Ð½Ð°Ð½Ð¸Ð¹": 5575,
      "ĠÐ·Ð°ÑģÑĭÐ¿": 5576,
      "ĠÑĥÑģÑĤÐ°ÑİÑĤ": 5577,
      "ĠÑĥÐ¼Ð¸ÑĢÐ°Ñİ": 5578,
      "ĠÑĩÐ°ÑģÐ¾Ð²": 5579,
      "ĠÑıÐ·Ð²Ñĥ": 5580,
      "ĠÐ¿ÑĢÐ¾ÑīÐ°ÑĤÑĮ": 5581,
      "ĠÐ»ÑĥÑĩÑĪÐ¸Ðµ": 5582,
      "ĠÐ»ÐµÐ½Ð¸Ð²ÑĭÑħ": 5583,
      "Ð½Ð°ÑĤÐµÐ»ÑĮÐ½Ð¾ÑģÑĤÐ¸": 5584,
      "ĠÐ¿ÑĢÐ¸Ð·Ð½Ð°ÑĤÐµÐ»ÑĮÐ½Ð¾ÑģÑĤÐ¸": 5585,
      "ĠÐ¿ÑĢÐ°ÐºÑĤÐ¸ÐºÐ¸": 5586,
      "ĠÐ¿ÑĢÐ°ÐºÑĤÐ¸ÑĩÐ½Ð°Ñı": 5587,
      "ĠÐ¿Ð¾ÐµÐ´ÐµÑĪÑĮ": 5588,
      "ÐĹÐ°ÑĤÑıÐ½ÑĥÐ»": 5589,
      "ĠÑħÐ¾Ð»Ð¾Ð´Ð¸Ð»ÑĮÐ½Ð¸ÐºÐ¸": 5590,
      "ĠÑħÐ¸ÑĢÑĥÑĢÐ³Ð¸Ñı": 5591,
      "ĠÑħÐ°ÑĢÐ°ÐºÑĤÐµÑĢÐ¸ÑģÑĤÐ¸ÐºÐ¸": 5592,
      "ĠÑĢÐµÑģÑĤÐ¾ÑĢÐ°Ð½": 5593,
      "ĠÑĢÐ¸ÑģÐºÐ°": 5594,
      "ĠÑĢÐ¸ÑģÐºÐ¾Ð²Ð°Ð½Ð½Ð¾": 5595,
      "ÐľÐµÑĤÐ¾Ð´": 5596,
      "ÐľÐ°ÑĪÐ¸Ð½Ñĭ": 5597,
      "ĠÐ²ÑĭÑģÐ¿Ð°ÑĤÑĮÑģÑı": 5598,
      "ĠÐ²ÑĭÑĢÐ°ÑģÑĤÐ¸ÑĤÑĮ": 5599,
      "ÑĤÐµÑĢÐ°Ð¿ÐµÐ²ÑĤ": 5600,
      "ĠÐ½ÐµÐ¾Ð±ÑħÐ¾Ð´": 5601,
      "ÐĳÐ»Ð¸Ð¶Ð°Ð¹ÑĪ": 5602,
      "ĠÑĦÑĢÐ¾Ð½ÑĤÐµÐ½Ð´Ð°": 5603,
      "ĠÑįÐ½ÐµÑĢÐ³": 5604,
      "ÐĽÐ¾Ð¼Ð°ÐµÑĤ": 5605,
      "ÐŁÑĢÐ¸Ð³Ð»Ð°ÑģÐ¸ÑĪÑĮ": 5606,
      "ĠÐºÐ¾Ð½ÐºÑĥÑĢÐµÐ½ÑĤÐ¾Ð²": 5607,
      "ĠÐ¾Ð±ÑģÐ»ÐµÐ´": 5608,
      "ĠÐ¿Ð»Ð°Ð½ÑĪÐµÑĤÐ°": 5609,
      "ĠÐ²ÑĩÐµÑĢÐ°ÑĪÐ½Ð¸Ð¹": 5610,
      "ĠÑĪÐ°Ð³Ð¸": 5611,
      "ĠÐ¡ÑĤÐ°Ð¼Ð±ÑĥÐ»Ðµ": 5612,
      "ĠÐ¿ÑĢÐ¾Ð±ÐµÐ¶ÐºÐµ": 5613,
      "ĠÐ¾ÑĤÐ²ÐµÑĤÐ¸ÑĤÑĮ": 5614,
      "ĠÑįÐºÐ¾Ð»Ð¾Ð³Ð¸ÑĩÐ½Ð¾": 5615,
      "Ð¡ÑĤÐ°ÑĢÑĭÐ¹": 5616,
      "ĠÐ½ÐµÐ¿Ð»Ð¾ÑħÐ¸Ðµ": 5617,
      "ÐŁÐ¾Ð½ÑıÑĤÐ½Ð¾": 5618,
      "ĠÐ¿Ð¾Ð²ÑĭÑĪÐµÐ½Ð¸Ðµ": 5619,
      "ĠÐ¾ÑĤÐºÐ»Ð°Ð´ÑĭÐ²Ð°ÑĤÑĮ": 5620,
      "ĠFortni": 5621,
      "ĠÑģÐ¾ÑĨÑģÐµÑĤÑıÑħ": 5622,
      "ĠVIP": 5623,
      "ĠÑĨÐ²ÐµÑĤÐ¾Ð²": 5624,
      "ĠÐ½Ð°Ð¿Ð¸ÑĪÑĥ": 5625,
      "ÐĿÐµÐ¿Ð»Ð¾ÑħÐ¾Ð¹": 5626,
      "Ð¡Ð²ÐµÐ¶Ð¸Ðµ": 5627,
      "ÐĶÐ¾ÑģÑĤÑĥÐ¿Ð½Ð°Ñı": 5628,
      "ĠÑģÐ¾Ð¿ÑĢÐ¾Ð²Ð¾Ð¶Ð´Ð°ÑĤÑĮ": 5629,
      "ĠWitcher": 5630,
      "ĠÐ¾ÑĩÐµÑĢÐµÐ´Ð¸": 5631,
      "ĠÐ½Ð°Ð³ÑĢÑĥÐ·ÐºÑĥ": 5632,
      "ĠÑģÐ³Ð¾ÑĢÐ¸ÑĤ": 5633,
      "ĠÐ±ÐµÑģÑģÐ¾Ð½Ð½Ð¸ÑĨÐ°": 5634,
      "ĠÑįÐºÑģÐºÑĥÑĢÑģÐ¸Ñİ": 5635,
      "ĠÐ²ÐµÐ»Ð¾ÑģÐ¸Ð¿ÐµÐ´Ð°": 5636,
      "ĠÑģÑĢÐ°Ð²Ð½ÐµÐ½Ð¸Ðµ": 5637,
      "ĠÑģÐ¸Ð¼Ð¿ÑĤÐ¾Ð¼Ñĭ": 5638,
      "ĠÐºÐ°Ð»Ð¾ÑĢÐ¸Ð¹Ð½Ð¾": 5639,
      "Ð¡ÐµÐ¼ÐµÐ¹Ð½Ð¾Ðµ": 5640,
      "ÐŁÑĢÐ¸ÐºÐ»ÑİÑĩÐµÐ½ÑĩÐµÑģÐºÐ¸Ð¹": 5641,
      "DevOp": 5642,
      "Ford": 5643,
      "Skoda": 5644,
      "box": 5645,
      "exus": 5646,
      "ĠÐ°Ð±Ð¾Ð½ÐµÐ¼ÐµÐ½ÑĤ": 5647,
      "Ð¸Ð°Ð´Ñĥ": 5648,
      "ÑĢÐ¸ÑĢÐ¾Ð²Ð°ÑĤÑĮÑģÑı": 5649,
      "ÑģÐ²Ð¾ÐµÐ¼Ñĥ": 5650,
      "Ð½Ð¸Ð±ÑĥÐ´ÑĮ": 5651,
      "ĠÐ¿Ð°Ð»Ð°ÑĤ": 5652,
      "ĠÐ¿ÐµÐ¿Ð¿ÐµÑĢÐ¾Ð½Ð¸": 5653,
      "ĠÐ¿Ð»Ð¾ÑħÐ°Ñı": 5654,
      "ĠÐ¿Ð¾Ð¹Ð´ÑĳÑĪÑĮ": 5655,
      "ĠÐ¿Ð¸ÑīÐ¸": 5656,
      "ÐĶÑĢÑĥÐ³": 5657,
      "ÐĶÐµÑģÑıÑĤÑĮ": 5658,
      "ÐĶÐµÑĪÐµÐ²Ð»Ðµ": 5659,
      "ĠÐ²Ð¸ÑĤÐ°Ð¼Ð¸Ð½Ñĭ": 5660,
      "ĠÐ²ÐµÐ³Ð³Ð¸": 5661,
      "ĠÐ²Ð¾Ð¿ÑĢÐ¾Ñģ": 5662,
      "ĠÐ²ÐµÐ¶Ð»Ð¸Ð²": 5663,
      "ĠÐ²ÑĤÐ¾ÑĢÐ¾Ð¹": 5664,
      "ĠÐ²Ð²ÐµÑĢÑħ": 5665,
      "ĠÐ²Ð¾Ð»Ð¾ÑģÐ°Ð¼Ð¸": 5666,
      "Ð´Ð¾ÑģÑĤÑĥÐ¿": 5667,
      "ĠÑģÐ½Ð¾ÑĤÐ²Ð¾ÑĢÐ½Ð¾Ð³Ð¾": 5668,
      "ĠÑģÐ¾Ð¼Ð½ÐµÐ²Ð°ÑİÑģÑĮ": 5669,
      "ĠÑģÐ¸ÑĤÑĥÐ°ÑĨÐ¸Ñı": 5670,
      "ĠÑģÐµÐ´ÑĭÐ¼Ð¸": 5671,
      "ĠÑģÑĥÐ¼ÐºÐ¸": 5672,
      "ĠÑģÐ½ÑıÑĤÐ¾": 5673,
      "ĠÑģÐ¾Ð¼Ð½ÐµÐ½Ð¸Ñı": 5674,
      "ÐļÑĥÑģÐ°ÐµÑĤÑģÑı": 5675,
      "ÐļÐ¸Ð±ÐµÑĢÐ±ÐµÐ·Ð¾Ð¿Ð°ÑģÐ½Ð¾ÑģÑĤÑĮ": 5676,
      "Ð¢ÐµÑħÐ½Ð¾Ð»Ð¾Ð³Ð¸Ð¸": 5677,
      "Ð¢ÑĢÐ¸Ð»Ð»ÐµÑĢ": 5678,
      "ĠÐ´Ð¸Ð²Ð°Ð½": 5679,
      "ĠÐ´Ð¸Ð·Ð°Ð¹Ð½Ð°": 5680,
      "ĠÐ´ÐµÑĪÑĳÐ²ÑĭÐµ": 5681,
      "ĠÐºÐ¸Ð»Ð¾Ð¼ÐµÑĤÑĢÐ¾Ð²": 5682,
      "ĠÐºÐ¸Ð½ÑĥÐ»": 5683,
      "ĠÐºÐ¸ÑģÐ»Ð¾ÑĤ": 5684,
      "ĠÐºÑĥÐ»ÑĮÑĤÑĥÑĢÑĭ": 5685,
      "ÐŁÐ¾ÑĢÑĤÐ¸ÑĤ": 5686,
      "ÐŁÐµÑĢÐµÑĪÑĳÐ»": 5687,
      "ÐĿÐ°ÑĢÑĥÑĪÐµÐ½Ð¸Ðµ": 5688,
      "ÐĿÐµÑģÐ±Ð¸ÑĤ": 5689,
      "Ð¾Ð¼ÐµÐ½Ð´ÑĥÑİ": 5690,
      "Ð¡Ð¸Ð´Ð¸Ð¼": 5691,
      "Ð¡Ð¸Ð»ÑĮÐ½Ð°Ñı": 5692,
      "ĠÐ¼Ð¸ÐºÑĢÐ¾": 5693,
      "ĠÐ¼Ð°ÑĢÐºÐµÑĤÐ¸Ð½Ð³": 5694,
      "ĠÐ¼ÐµÑĢÐ¾Ð¿ÑĢÐ¸ÑıÑĤ": 5695,
      "ĠÐ¼Ð¾ÑĢÐµÐ¿ÑĢÐ¾Ð´ÑĥÐºÑĤÐ°Ð¼Ð¸": 5696,
      "ĠÐ·Ð°Ð¹Ð¼ÑĥÑģÑĮ": 5697,
      "ĠÐ·Ð²ÑĥÑĩÐ°ÑĤ": 5698,
      "ĠÑıÑĢÐ¼Ð°ÑĢÐºÐ°": 5699,
      "Ð°ÑĢÐ³ÐµÑĤÐ¾Ð»Ð¾Ð³": 5700,
      "Ð¥ÑĢÐ¾Ð½Ð¸ÑĩÐµÑģÐºÐ¾Ðµ": 5701,
      "ĠÐ¿Ð¾ÑģÑĤÑĢÐ¾Ð¸Ð»": 5702,
      "ĠÐ³Ð°Ð´Ð¶ÐµÑĤÐ¾Ð²": 5703,
      "ĠÐ³ÑĢÐ°Ð¼Ð¾ÑĤÐ½ÑĭÐ¹": 5704,
      "ĠÐ³Ð²Ð¾Ð·Ð´Ð¸": 5705,
      "ĠÐ³Ð°Ð¹Ð¼Ð¾ÑĢÐ¸ÑĤÐ¾Ð¼": 5706,
      "ÐĹÐ½Ð°ÐºÐ¾Ð¼Ð¾": 5707,
      "ÐĹÑĥÐ±Ñĭ": 5708,
      "ĠÑħÐ¾ÑĩÐµÑĤÑģÑı": 5709,
      "ĠÑħÑĢÐ¾Ð½Ð¸ÑĩÐµÑģÐºÐ°Ñı": 5710,
      "ĠÑħÐ¸ÑĢÑĥÑĢÐ³Ð°": 5711,
      "ĠÑħÐ¾Ð»ÐµÑģÑĤÐµÑĢÐ¸Ð½": 5712,
      "ÐĴÐ½Ð¸Ð¼Ð°ÑĤÐµÐ»ÑĮÐ½ÑĭÐ¹": 5713,
      "Ð¯Ð¸ÑĩÐ½Ð¸ÑĨÑĥ": 5714,
      "ĠPanasonic": 5715,
      "ĠÐ²ÑĭÑĤÑıÐ³Ð¸Ð²Ð°ÐµÑĤ": 5716,
      "Ð£Ð³Ð¾Ð»Ð¾Ð²Ð½ÑĭÐµ": 5717,
      "ĠÐ¾Ð±ÐµÑīÐ°Ð»Ð¸": 5718,
      "ĠÐ½ÐµÐ¾Ð±ÑĭÑĩÐ½Ð¾": 5719,
      "ĠÐ·Ð°ÑĢÐ°Ð±Ð¾ÑĤÐ°ÑĤÑĮ": 5720,
      "ĠÐ¿Ð¾Ð´ÑĢÐ¾ÑģÑĤÐºÐ¾Ð²Ð¾Ð¼": 5721,
      "ĠSeries": 5722,
      "ÐŁÑĢÐµÐ¿Ð°ÑĢÐ°ÑĤ": 5723,
      "ĠÑģÐºÐ°ÑĢÐ»Ð°ÑĤÐ¸Ð½Ð¾Ð¹": 5724,
      "ĠÐ¿Ð»ÐµÐ¼ÑıÐ½Ð½Ð¸ÐºÐ¾Ð¼": 5725,
      "ĠRenault": 5726,
      "Ð¤Ð¾ÑĤÐ¾Ð³ÑĢÐ°ÑĦÐ¸Ð¸": 5727,
      "ĠMate": 5728,
      "ĠMortal": 5729,
      "Ð¸ÑĩÐµÑģÑĤÐ²Ð°": 5730,
      "ÐĺÐ½ÑĦÐµÐºÑĨÐ¸Ð¾Ð½Ð½Ð¾Ðµ": 5731,
      "ĠÐ½Ð°ÑģÐ¼Ð¾ÑĢÐº": 5732,
      "ĠÐ¸Ð½ÑģÑĤÑĢÑĥÐºÑĨÐ¸Ð¸": 5733,
      "ĠÐ¿ÑĢÐ¸Ð¾Ð±ÑĢÐµÑĤÐµÐ½Ð¸Ðµ": 5734,
      "ĠÐºÐ¾ÑĦÐµÐ¹Ð½Ð¸": 5735,
      "ĠÑģÐ¼ÐµÐ»ÑĮÑĩÐ°ÐºÐ¾Ð²": 5736,
      "ĠÑĥÐ²ÐµÐ»Ð¸ÑĩÐ¸Ð²Ð°ÑĤÑĮ": 5737,
      "ĠÐĽÐ¸ÑģÑģÐ°Ð±Ð¾Ð½Ðµ": 5738,
      "ĠÐ·Ð°Ð¿Ð¾Ð¼Ð½Ð¸ÑĤÑĮ": 5739,
      "ĠÐ¿ÑıÑĤÐ¸Ð´ÐµÑģÑıÑĤÐ¸": 5740,
      "ÐĴÑĭÐ±Ð¸ÑĢÐ°Ñİ": 5741,
      "ĠÐĲÑĢÑģÐµÐ½Ð°Ð»": 5742,
      "ĠÐĲÐ²Ð°Ð½Ð³Ð°ÑĢÐ´": 5743,
      "ĠÐ¾ÑģÑĤÐµÐ¾ÑħÐ¾Ð½Ð´ÑĢÐ¾Ð·": 5744,
      "ĠÐ¿Ð¾Ð¿ÐºÐ¾ÑĢÐ½": 5745,
      "ÐļÐ°ÑĢÑĢÐ¸Ð²ÑĥÑĢÑģÑĤ": 5746,
      "ĠÐºÐ¾ÑĢÐ¾Ð½Ð°Ð²Ð¸ÑĢÑĥÑģ": 5747,
      "ĠÐ¾Ð³ÑĢÐ°Ð½Ð¸Ñĩ": 5748,
      "ĠÐ·Ð°ÑĢÐµÐ³Ð¸ÑģÑĤÑĢÐ¸ÑĢÐ¾Ð²Ð°ÑĤÑĮÑģÑı": 5749,
      "ĠÐ½Ð°ÑģÑĤÐ¾ÑıÑīÐ°Ñı": 5750,
      "Ġ2077": 5751,
      "ĠÐ±ÐµÑģÐ¿Ð¾Ð»ÐµÐ·Ð½Ð¾": 5752,
      "ĠÐ¼ÐµÐ½ÐµÐ´Ð¶ÐµÑĢ": 5753,
      "ĠÐ²Ð¾ÑģÐºÑĢÐµÑģÐµÐ½ÑĮÐµ": 5754,
      "ĠÐ±Ð°ÑģÑģÐµÐ¹Ð½": 5755,
      "Ð¡ÐºÐ¾ÑĢÐ¿Ð¸Ð¾Ð½Ð°": 5756,
      "ĠÐŀÐ»Ð¸Ð¼Ð¿Ð¸Ð°Ð´Ñĥ": 5757,
      "ĠÐŀÐ´ÐµÑģÑģÑĥ": 5758,
      "ĠÐ®Ð½Ð°Ð¹ÑĤÐµÐ´": 5759,
      "ĠÐ®Ð²ÐµÐ½ÑĤÑĥÑģ": 5760,
      "ĠÐĺÑĤÐ°Ð»Ð¸Ñİ": 5761,
      "ĠFortnite": 5762,
      "DevOps": 5763,
      "),": 5764,
      "00": 5765,
      "08": 5766,
      "16": 5767,
      "66": 5768,
      "AR": 5769,
      "Android": 5770,
      "BG": 5771,
      "BMW": 5772,
      "Co": 5773,
      "Cle": 5774,
      "Dra": 5775,
      "Ex": 5776,
      "FC": 5777,
      "Fi": 5778,
      "Hyundai": 5779,
      "IA": 5780,
      "Lexus": 5781,
      "ML": 5782,
      "Node": 5783,
      "Puma": 5784,
      "Plu": 5785,
      "Pad": 5786,
      "Qas": 5787,
      "St": 5788,
      "Samsung": 5789,
      "TML": 5790,
      "UI": 5791,
      "UBG": 5792,
      "Vol": 5793,
      "Xbox": 5794,
      "bar": 5795,
      "blo": 5796,
      "cat": 5797,
      "em": 5798,
      "eu": 5799,
      "eed": 5800,
      "ePlu": 5801,
      "fi": 5802,
      "fin": 5803,
      "gl": 5804,
      "ger": 5805,
      "gine": 5806,
      "hl": 5807,
      "hq": 5808,
      "hal": 5809,
      "ir": 5810,
      "iti": 5811,
      "iss": 5812,
      "iEx": 5813,
      "ke": 5814,
      "kPad": 5815,
      "liEx": 5816,
      "nfin": 5817,
      "ot": 5818,
      "ost": 5819,
      "oun": 5820,
      "oblo": 5821,
      "ph": 5822,
      "pr": 5823,
      "porta": 5824,
      "ry": 5825,
      "rik": 5826,
      "ren": 5827,
      "ran": 5828,
      "red": 5829,
      "reed": 5830,
      "rger": 5831,
      "se": 5832,
      "son": 5833,
      "ten": 5834,
      "tle": 5835,
      "tor": 5836,
      "uty": 5837,
      "ubar": 5838,
      "urger": 5839,
      "vy": 5840,
      "ver": 5841,
      "¤Ðĺ": 5842,
      "©Ðĺ": 5843,
      "³Ñĥ": 5844,
      "Ð©Ðĺ": 5845,
      "Ġ(": 5846,
      "ĠÐ¾ÑĤÑĢ": 5847,
      "ĠÑĳÐ»": 5848,
      "Ġ19": 5849,
      "Ġof": 5850,
      "Ġ16": 5851,
      "Ġ66": 5852,
      "ĠQas": 5853,
      "Ð¾Ð¾Ð±": 5854,
      "Ð¾ÑĦ": 5855,
      "Ð¾Ð°Ð³": 5856,
      "Ð¾ÑıÐ·": 5857,
      "Ð¾ÑĢÐ°Ð·": 5858,
      "Ð¾ÑĦÐ¸Ñģ": 5859,
      "Ð°Ðµ": 5860,
      "Ð°ÑĪÐµ": 5861,
      "Ð°ÐµÐ²": 5862,
      "ĠÐ£": 5863,
      "ĠÐ¤Ðĺ": 5864,
      "ÐµÐ°Ðº": 5865,
      "ÐµÐ¾Ð±": 5866,
      "ÐµÐµÐ´": 5867,
      "ÐµÐ¾Ðº": 5868,
      "ÐµÐ¸Ñģ": 5869,
      "ÐµÐ°Ð»ÑĮÐ½Ð¾": 5870,
      "ÐµÐ°Ð»Ð°": 5871,
      "ÑĤÑģÑı": 5872,
      "ÑĤÐ¾Ð¹": 5873,
      "ÑĤÑĭÐ¹": 5874,
      "ÑĤÐ¸Ð½": 5875,
      "ÑĤÐµÐ½Ð¸Ñı": 5876,
      "ÑĤÐµÐ¿ÐµÑĢÑĮ": 5877,
      "ÑĤÐµÐ½Ð´": 5878,
      "ÑĤÐµÐ»Ð»": 5879,
      "ÑĤÐ¾ÐºÑĥ": 5880,
      "Ð¸ÑĦ": 5881,
      "Ð¸ÑĢÐ°": 5882,
      "Ð¸ÑģÑĤÑĮ": 5883,
      "Ð¸ÑĥÑģ": 5884,
      "Ð¸ÑĢÐµÐ½": 5885,
      "Ð¸ÑĪÐµ": 5886,
      "Ð¸Ð°ÑģÑĤ": 5887,
      "ÑĢÑĳ": 5888,
      "ÑĢÐ¾Ð¶": 5889,
      "ÑĢÐ¾Ð¹": 5890,
      "ÑĢÐ¸Ð½": 5891,
      "ÑĢÑį": 5892,
      "ÑĢÑĭÐµ": 5893,
      "ÑĢÑĭÑħ": 5894,
      "ÑĢÑĳÑĤ": 5895,
      "ÑĢÐ¾Ð»Ð¾Ð³": 5896,
      "ÑĢÐµÑĨ": 5897,
      "ÑĢÐ³Ð°": 5898,
      "ÑĢÑĭÑĤ": 5899,
      "ÑĢÐµÑī": 5900,
      "ÑĢÐµÑģÑĤÐ¸": 5901,
      "ÑĢÐµÑĨÐ¸Ð¸": 5902,
      "ÑĢÑĭÐ²Ð°Ñİ": 5903,
      "ÑģÑĥ": 5904,
      "ÑģÐµÐ»": 5905,
      "ÑģÐµÑĢ": 5906,
      "ÑģÐ¸ÑĤ": 5907,
      "ÑģÐ»Ñı": 5908,
      "ÑģÐ¸ÑĤÑĮ": 5909,
      "ÑģÐµÐ´": 5910,
      "ÑģÐµÑģÑĤ": 5911,
      "ÑģÐ°Ð¶": 5912,
      "ÑģÐ¼Ð¾ÑĤÑĢ": 5913,
      "ÑģÐ¸ÑģÑĤ": 5914,
      "ÑģÑĥÑİ": 5915,
      "ÑģÐ»Ð¾": 5916,
      "ÑģÐ½ÑĥÐ»": 5917,
      "ÑģÐºÐ°Ñı": 5918,
      "Ð½Ñħ": 5919,
      "Ð½Ð°Ð½": 5920,
      "Ð½Ð¾Ð¶": 5921,
      "Ð½Ð°Ð²": 5922,
      "Ð½Ð³": 5923,
      "Ð½ÐµÑĪÑĮ": 5924,
      "Ð½Ð¸ÑĤÑĮ": 5925,
      "Ð½Ð¾Ðº": 5926,
      "Ð½Ð¸Ñģ": 5927,
      "Ð½Ð°Ð·": 5928,
      "Ð½Ð¾Ð·": 5929,
      "Ð½ÑĥÑĤÑĮ": 5930,
      "Ð½ÐµÐ¶": 5931,
      "Ð½Ð¸Ñħ": 5932,
      "Ð½Ð°Ð½Ð¸Ðµ": 5933,
      "Ð½Ð¾Ð³Ñĥ": 5934,
      "Ð½ÐµÐ½Ð½Ð¾": 5935,
      "Ð½Ð²Ð°ÑĢ": 5936,
      "Ð½ÐµÐ½Ð°Ð²": 5937,
      "Ð»Ñĭ": 5938,
      "Ð»ÐµÐ½": 5939,
      "Ð»Ð¾Ð½": 5940,
      "Ð»Ð¾Ð±": 5941,
      "Ð»Ð·": 5942,
      "Ð»Ð°Ð¼": 5943,
      "Ð»ÐµÐ³": 5944,
      "Ð»ÑĳÑĤ": 5945,
      "Ð»ÑĥÑĪ": 5946,
      "Ð»ÑĥÑĢ": 5947,
      "Ð»Ð°ÑĪ": 5948,
      "Ð»Ð¾ÑĢÑĭ": 5949,
      "Ð»Ð¸ÑĤÐµÐ»ÑĮ": 5950,
      "Ð»ÐµÐ½Ð¸Ð¹": 5951,
      "Ð»ÑĥÐºÐ¸": 5952,
      "Ð»ÐµÐ½Ð½Ð¾Ð³Ð¾": 5953,
      "Ð»Ð°Ð½ÐµÑĤ": 5954,
      "Ð»Ð¸Ð¶Ðµ": 5955,
      "ÑĥÐ·": 5956,
      "ÑĥÐ³": 5957,
      "ÑĥÑĢÐ¾Ð²": 5958,
      "ÑĥÑĪÐµ": 5959,
      "ÑĥÑģÑĤÑĢ": 5960,
      "ÑĥÐ»Ð¾": 5961,
      "ÑĥÐ·Ñĭ": 5962,
      "ÑĥÐµÑĤÑģÑı": 5963,
      "ÑĥÐ³Ð°Ð»ÑģÑı": 5964,
      "ÑĭÐ´": 5965,
      "ÑĭÐºÐ¾Ð²": 5966,
      "ÑĭÑģÐ¸ÑĤÑĮ": 5967,
      "ÑĮÐ¼": 5968,
      "ÑĮÑĳÑĤ": 5969,
      "ÑĮÐµÑĢÑĭ": 5970,
      "ÑĮÐ¼Ðµ": 5971,
      "ÑĮÐ±Ñĭ": 5972,
      "ÑĮÐºÐ°Ñħ": 5973,
      "ÑıÑİ": 5974,
      "ÑıÐ¹": 5975,
      "ÑıÐ»Ð¸": 5976,
      "ÑıÐ¸Ð½": 5977,
      "ÑıÑĤÐ¾ÑĢ": 5978,
      "ÑĩÑĥ": 5979,
      "ÑĩÑĮ": 5980,
      "ÑĩÐµÐ¹": 5981,
      "ÑĩÐ°ÐµÑĤ": 5982,
      "ÑĩÐ½Ð¾Ðµ": 5983,
      "ÑĩÑĥÑİ": 5984,
      "ÑĩÐ½Ð¾Ð³Ð¾": 5985,
      "ÑĩÐºÑĥ": 5986,
      "ÑĩÐ½Ñı": 5987,
      "ÑĩÐ°Ð½Ð¸Ðµ": 5988,
      "ÑĩÑĮÑİ": 5989,
      "ÑĩÐµÑģÑĤÐ²Ð¾": 5990,
      "ĠÐ¿Ð°Ð»ÑĮ": 5991,
      "ĠÐ¿ÑĥÑĢ": 5992,
      "ĠÐ¿ÐµÑĪ": 5993,
      "ĠÐ¿Ð°Ñħ": 5994,
      "ĠÐ¿Ð°Ñĥ": 5995,
      "ĠÐ¿Ð¾Ð¶Ð°Ð»ÑĥÐ¹ÑģÑĤÐ°": 5996,
      "ĠÐ½Ð¾ÑĤ": 5997,
      "ĠÐ½Ð°Ð¶": 5998,
      "ĠÐ½Ð¾Ð»ÑĮ": 5999,
      "ĠÐ½Ð°Ð¼Ð¸": 6000,
      "ĠÐ½ÐµÐ»Ð¾Ð²": 6001,
      "ĠÐ½ÐµÐ½Ð°Ð²": 6002,
      "ĠÐ½Ð¾Ð¶Ð¸": 6003,
      "ÑģÑĤÐµÑĢ": 6004,
      "ÑģÑĤÐµÐ¹": 6005,
      "ÑģÑĤÑĥÐ¿": 6006,
      "ÑģÑĤÐ¸ÐºÐ°": 6007,
      "ÑģÑĤÐ½Ð°Ñı": 6008,
      "ÑģÑĤÐ¾ÑıÑĤ": 6009,
      "ÑģÑĤÐµÐ»Ð»": 6010,
      "ÐĶÐµÐ»": 6011,
      "ÐĶÐµÐ³": 6012,
      "ÐĶÐ¸Ð·Ð°Ð¹Ð½": 6013,
      "ÐĶÐ¾Ð²Ð¾Ð»": 6014,
      "ÐĶÐļÐĲ": 6015,
      "ÐĶÐµÑĦ": 6016,
      "ÐĶÐĲÐł": 6017,
      "ÐĶÐķÐĿ": 6018,
      "ÐĶÐ»Ð¸ÑĤÐµÐ»ÑĮ": 6019,
      "ĠÐ²ÐµÐ½": 6020,
      "ĠÐ²Ð²": 6021,
      "ĠÐ²Ð¾Ðº": 6022,
      "ĠÐ²Ð°Ð¼Ð¸": 6023,
      "ĠÐ²ÐµÑĢÐ°": 6024,
      "ĠÐ²ÐµÐ·Ð´": 6025,
      "ĠÐ²ÑĢÐ°ÑĤ": 6026,
      "ĠÐ²Ð¾ÑģÑĮ": 6027,
      "ĠÐ²Ð¾Ð»Ð½": 6028,
      "ĠÐ²Ð¾Ð·ÑĮÐ¼Ð¸": 6029,
      "ĠÐ²ÑģÑĤÐ°Ð½": 6030,
      "ĠÐ²Ð»Ð°Ð´": 6031,
      "ĠÐ²Ð¾Ð¹ÑĤÐ¸": 6032,
      "ĠÐ²Ð¸ÑģÐ¸ÑĤ": 6033,
      "ĠÐ²ÑĢÐ¾Ð´Ðµ": 6034,
      "ĠÐ²Ð°ÑĪÐµ": 6035,
      "ÑĪÐµÐ½": 6036,
      "ÑĪÐ½Ð¾": 6037,
      "ÑĪÐ»Ð¸": 6038,
      "ÑĪÐ¾Ð¹": 6039,
      "ÑĪÐµÐ½Ð¸Ðµ": 6040,
      "ÑĪÐµÐµ": 6041,
      "ÑĪÐºÑĥ": 6042,
      "ÑĪÐ½Ð¸Ðº": 6043,
      "ÑĪÐ°ÐµÑĤÑģÑı": 6044,
      "ÑĪÐµÐ²Ð¾": 6045,
      "ÑĪÐ¸ÑĢÐµÐ½Ð¸Ðµ": 6046,
      "Ð´ÐµÐ½": 6047,
      "Ð´Ð¸Ð²": 6048,
      "Ð´Ð°Ð»": 6049,
      "Ð´ÐµÐ¼": 6050,
      "Ð´Ð°Ð½": 6051,
      "Ð´Ð°Ð¼": 6052,
      "Ð´Ð¾Ð¹": 6053,
      "Ð´Ð¾Ðº": 6054,
      "Ð´ÑıÑĤ": 6055,
      "Ð´Ð½Ñı": 6056,
      "Ð´ÑĭÐ²": 6057,
      "Ð´ÑĳÑĤ": 6058,
      "Ð´ÐµÑı": 6059,
      "Ð´Ð½ÐµÐ²": 6060,
      "Ð´Ð¾ÑģÑĤÑĮ": 6061,
      "Ð´ÑĢÐ¸": 6062,
      "Ð´Ð°Ð²Ð°ÑĤÑĮÑģÑı": 6063,
      "Ð´Ð±ÐµÑĢ": 6064,
      "ĠÑģÐ¾ÑĤ": 6065,
      "ĠÑģÑħ": 6066,
      "ĠÑģÐ¾ÑĢ": 6067,
      "ĠÑģÐ½Ñĭ": 6068,
      "ĠÑģÐµÐ³": 6069,
      "ĠÑģÐµÐº": 6070,
      "ĠÑģÐ¾Ð³Ð»Ð°Ñģ": 6071,
      "ĠÑģÑĥÑĪ": 6072,
      "ĠÑģÐ½Ðµ": 6073,
      "ĠÑģÐ½Ð°Ñĩ": 6074,
      "ĠÑģÑĩÑĳÑĤ": 6075,
      "ĠÑģÐ¾Ñħ": 6076,
      "ĠÑģÑĥÑħ": 6077,
      "ĠÑģÐ¾Ð²ÐµÑĤ": 6078,
      "ĠÑģÐ¾Ð»Ð½": 6079,
      "ĠÑģÐ¸Ð´ÐµÑĤÑĮ": 6080,
      "ĠÑģÐ¾ÐºÐ¸": 6081,
      "ĠÑģÐ¸Ð¶Ñĥ": 6082,
      "ĠÑģÐ±Ñĭ": 6083,
      "ĠÑģÑĭÐ³": 6084,
      "ĠÑģÐ±Ð¾ÑĢ": 6085,
      "ĠÑģÑĥÐ´Ðµ": 6086,
      "ĠÑģÐ¼Ð¸ÑĢÐµÐ½Ð¸Ðµ": 6087,
      "ĠÑģÐ¸ÑĢÐ¾Ð¿": 6088,
      "ÐµÐ½Ð¾": 6089,
      "ÐµÐ½Ð³": 6090,
      "ÐµÐ½Ð¸Ðº": 6091,
      "ÐµÐ½ÑıÑĤ": 6092,
      "ÐµÐ½ÑĭÐµ": 6093,
      "ÐµÐ½Ð¸Ð¸": 6094,
      "ÐµÐ½Ð½ÐµÐµ": 6095,
      "ÐµÐ½Ð´Ñĥ": 6096,
      "ÐµÐ½ÑĤÐ½Ð¾": 6097,
      "ÐµÐ½Ð¸Ð½Ð°": 6098,
      "ÐµÐ½Ð°Ð´ÑĨ": 6099,
      "ÐµÐ½Ð½Ð¸Ñģ": 6100,
      "Ð°ÐºÐ°ÑĢ": 6101,
      "Ð°ÐºÐºÐ°": 6102,
      "Ð°ÐºÑĤÐ¾ÑĢ": 6103,
      "Ð°ÐºÐ¾Ð²ÑĭÐµ": 6104,
      "Ð°ÐºÑĢÑĭÐ²Ð°Ñİ": 6105,
      "ÐºÑĢÐ¸Ð²": 6106,
      "ÐºÐ¾Ð½": 6107,
      "ÐºÐ°ÑĤÑĮ": 6108,
      "ÐºÐ¸Ð¼": 6109,
      "ÐºÐ¸Ð½": 6110,
      "ÐºÐ°Ð·": 6111,
      "ÐºÐ»Ð°ÑģÑģ": 6112,
      "ÐºÐ¾Ð»Ð¾Ð³": 6113,
      "ÐºÐ¸Ð¿": 6114,
      "ÐºÐ°Ð½Ð¸Ñı": 6115,
      "ÐºÐµÐ½Ð´": 6116,
      "ÐºÐ°Ð»Ð¾": 6117,
      "ÐļÐ¾ÑĢ": 6118,
      "ÐļÐ¾Ð´": 6119,
      "ÐļÐ°Ð¼": 6120,
      "ÐļÐ»Ð¸": 6121,
      "ÐļÐ°ÑĤ": 6122,
      "ÐļÑĢÐ°Ñģ": 6123,
      "ÐļÐ¾Ð»Ð»": 6124,
      "ÐļÑĢÐ¸ÑģÑĤ": 6125,
      "ÐļÐ½Ð¸Ð³": 6126,
      "ÐļÐ¸Ð½Ð³": 6127,
      "ÐļÐ¾Ð¼Ð°Ð½": 6128,
      "ÐļÐ»Ð¸Ð½": 6129,
      "ÐļÑĥÑĢÑģ": 6130,
      "ÐļÑĢÐµÐ¿ÐºÐ¸Ð¹": 6131,
      "Ð¢Ð¾ÑĤ": 6132,
      "Ð¢Ð¾Ð»": 6133,
      "Ð¢ÑĢÐ°Ð²": 6134,
      "Ð¢Ðł": 6135,
      "Ð¢Ð¸Ñħ": 6136,
      "Ð¢Ðķ": 6137,
      "Ð¢Ð²Ð¾ÑĢ": 6138,
      "Ð¢ÑĢÐ¸": 6139,
      "Ð¢ÐµÐ¼Ð°ÑĤ": 6140,
      "Ð¢Ð¾ÑĢÐ¾Ð½": 6141,
      "Ð¢Ð¾ÐºÑģ": 6142,
      "Ð¢ÑıÐ¶ÑĳÐ»": 6143,
      "Ð¢ÑĮÐ¼Ð°": 6144,
      "Ð¢ÐĲÐł": 6145,
      "Ð¢Ð°ÑĢÐ³ÐµÑĤÐ¾Ð»Ð¾Ð³": 6146,
      "Ð½Ð¾ÑģÑĤÑĢ": 6147,
      "Ð½Ð¾ÑĤÐµÑĢÐ°Ð¿": 6148,
      "Ð½Ð¾ÑģÐ¸ÑĤ": 6149,
      "Ð½Ð¾ÑģÑĤÐµÐ¹": 6150,
      "ĠÐ´Ñĳ": 6151,
      "ĠÐ´Ð°ÑĢ": 6152,
      "ĠÐ´Ð¶": 6153,
      "ĠÐ´Ð°ÑĤ": 6154,
      "ĠÐ´Ð°Ð¶": 6155,
      "ĠÐ´Ð¾Ñĩ": 6156,
      "ĠÐ´Ð¸ÑģÑĤ": 6157,
      "ĠÐ´Ð°Ð»ÑĮ": 6158,
      "ĠÐ´Ð¾ÑģÑĤÐ¸": 6159,
      "ĠÐ´ÑĢÐ°Ð¼": 6160,
      "ĠÐ´ÐµÑĤÑĮ": 6161,
      "ĠÐ´Ð²Ð¾": 6162,
      "ĠÐ´Ð¾Ð¼Ñĥ": 6163,
      "ĠÐ´ÐµÐ´Ð°": 6164,
      "ĠÐ´ÐµÑģÑı": 6165,
      "ĠÐ´Ð¾Ð²Ð¾Ð»ÑĮ": 6166,
      "ĠÐ´ÐµÑĦ": 6167,
      "ĠÐ´Ð¸ÑģÐºÐ¾Ð²": 6168,
      "ĠÐ´ÑĥÑĪÐµ": 6169,
      "ÑĤÐ¾ÑĩÐ½Ð¾Ðµ": 6170,
      "ÑĤÐ¾ÑĪÐºÑĥ": 6171,
      "ÑĢÐ¾ÑĤ": 6172,
      "ÑĢÐ¾ÑĨ": 6173,
      "ÑĢÐ¾ÑİÑĤ": 6174,
      "ÑĢÐ¾Ð¸ÑĤÐµÐ»ÑĮ": 6175,
      "ÑĢÐ¾ÑĩÐºÑĥ": 6176,
      "Ð¾Ð²Ð¾": 6177,
      "Ð¾Ð²Ð¸": 6178,
      "Ð¾Ð²Ñĭ": 6179,
      "Ð¾Ð²Ð½Ð¾": 6180,
      "Ð¾Ð²Ð¸ÑĤ": 6181,
      "Ð¾Ð²Ñī": 6182,
      "Ð¾Ð²Ð½ÑĭÐ¹": 6183,
      "Ð¾Ð²Ð°Ñı": 6184,
      "Ð¾Ð²Ð¾Ñģ": 6185,
      "Ð¾Ð²Ð½Ð¾Ðµ": 6186,
      "Ð¾Ð²ÑĭÑħ": 6187,
      "Ð¾Ð²Ð¸Ñĩ": 6188,
      "Ð¾Ð²Ð°ÑĤÐµÐ»ÑĮ": 6189,
      "Ð¾Ð²ÑĭÐ¼": 6190,
      "ÑİÐ¼": 6191,
      "ÑİÑģÑĤÑĮ": 6192,
      "ÑİÐ¶ÐµÑĤ": 6193,
      "ÑİÑĢÐ¾Ð´": 6194,
      "ÑİÐ½Ñħ": 6195,
      "ÑİÑĩÑĥÑİ": 6196,
      "Ð¼Ð°Ð½": 6197,
      "Ð¼Ð¾Ð±": 6198,
      "Ð¼Ð°ÑĤ": 6199,
      "Ð¼ÐµÐ¹": 6200,
      "Ð¼Ð°Ð·": 6201,
      "Ð¼Ð¾Ð¶Ð½Ð¾": 6202,
      "Ð¼Ð¸Ð¸": 6203,
      "Ð¼ÑĳÐ¼": 6204,
      "Ð¼Ð½Ðµ": 6205,
      "Ð¼ÐµÐ½Ñı": 6206,
      "Ð¼Ð°Ð»Ð¸": 6207,
      "Ð¼ÑĭÑģÐ»": 6208,
      "Ð¼Ð½Ð¾Ð¶": 6209,
      "Ð¼ÑģÑĤÐµÑĢ": 6210,
      "ĠÐºÐµÐ´": 6211,
      "ĠÐºÐ¾Ð¿": 6212,
      "ĠÐºÐ¾ÑĢÐ¼": 6213,
      "ĠÐºÐ¾ÑģÑĤ": 6214,
      "ĠÐºÐ¾Ñģ": 6215,
      "ĠÐºÐ¾ÑģÑĤÐ¸": 6216,
      "ĠÐºÐ»ÐµÑĤ": 6217,
      "ĠÐºÐ°Ð½Ð¸Ðº": 6218,
      "ĠÐºÐ¾ÑģÑĤÐµÐ¹": 6219,
      "ĠÐºÐ»ÑĥÐ±": 6220,
      "ĠÐºÑĢÑĥÐ¶": 6221,
      "ĠÐºÑĢÐµÐ¿ÐºÐ¸Ð¹": 6222,
      "ÐµÐ»Ñı": 6223,
      "ÐµÐ»Ð¾Ð´": 6224,
      "ÐµÐ»ÑģÑı": 6225,
      "ÐµÐ»Ð¸Ð·": 6226,
      "ÐµÐ»ÐµÐµ": 6227,
      "ÐµÐ»ÑĭÐµ": 6228,
      "ÐµÐ»ÑİÑģÑĤÑĮ": 6229,
      "ÐµÑĢÐµ": 6230,
      "ÐµÑĢÐ¸": 6231,
      "ÐµÑĢÐ¿": 6232,
      "ÐµÑĢÐ±": 6233,
      "ÐµÑĢÐ°ÑĤ": 6234,
      "ÐµÑĢÐ¸Ð½": 6235,
      "ÐµÑĢÐ½ÑĭÐ¹": 6236,
      "ÐµÑĢÑģÑĤÑĮ": 6237,
      "ÐµÑĢÐ¸ÐºÐ°": 6238,
      "ÐµÑĢÐ¸Ð»ÑĮ": 6239,
      "ÐµÑĢÑĭÐ²": 6240,
      "ÐµÑĢÐ¸ÑĢÐ¾Ð²": 6241,
      "ÐµÑĢÐµÐ¶": 6242,
      "ÐµÑĢÐºÐ°Ð»Ð¾": 6243,
      "ĠÑĤÐ°Ð½": 6244,
      "ĠÑĤÐµÑĩ": 6245,
      "ĠÑĤÐ¸Ðº": 6246,
      "ĠÑĤÐ°Ð¿": 6247,
      "ĠÑĤÑĢÐµÐ½Ð´": 6248,
      "ĠÑĤÐµÐ»Ð¾": 6249,
      "ĠÑĤÐ°Ñĩ": 6250,
      "ĠÑĤÐ¸Ð¿": 6251,
      "ĠÑĤÐ¾Ð¼Ñĥ": 6252,
      "ĠÑĤÑĢÐ°Ð´": 6253,
      "ĠÑĤÐ¾Ð¼Ð°ÑĤ": 6254,
      "ĠÑĤÑĮÐ¼Ð°": 6255,
      "ĠÑĤÐ°ÑĢÐ³ÐµÑĤÐ¾Ð»Ð¾Ð³": 6256,
      "ĠÑĤÐ¸ÑĪÐµ": 6257,
      "ĠÑĤÑĮÐ¼Ðµ": 6258,
      "ĠÑĤÐµÐ½Ð½Ð¸Ñģ": 6259,
      "ÐŁÐŀ": 6260,
      "ÐŁÐ¾Ð¶": 6261,
      "ÐŁÐ¸Ñģ": 6262,
      "ÐŁÐ¾Ðµ": 6263,
      "ÐŁÐµÐ²": 6264,
      "ÐŁÑĥÑĪ": 6265,
      "ÐŁÑĥÑĤÑĮ": 6266,
      "ÐŁÐ¾Ð¿ÑĢÐ¾Ð±": 6267,
      "ÐŁÐķ": 6268,
      "ÐŁÑĥÑģÑĤ": 6269,
      "ÐŁÐµÑģÐ½Ñİ": 6270,
      "ÐŁÐ°ÑĢÐ°": 6271,
      "ÐŁÑĭÐ»ÑĮ": 6272,
      "ÐŁÐ¾Ð¹Ð´Ñĥ": 6273,
      "ÐŁÐ¸Ð²Ð¾": 6274,
      "ÐŁÐ¾ÑĢÐ°": 6275,
      "ÐŁÑĥÐ³": 6276,
      "ĠÐ¸Ð±": 6277,
      "ĠÐ¸Ñī": 6278,
      "ĠÐ¸Ð½Ð°Ðº": 6279,
      "ĠÐ¸ÑĤÐ°Ð»ÑĮ": 6280,
      "ĠÐ¸Ð½Ð¾ÑģÑĤÑĢ": 6281,
      "ĠÐ±ÑĢÐ¾": 6282,
      "ĠÐ±Ð¾Ð¼": 6283,
      "ĠÐ±Ð¾Ð½": 6284,
      "ĠÐ±Ð»Ñİ": 6285,
      "ĠÐ±Ð°Ð·": 6286,
      "ĠÐ±Ð¾Ñģ": 6287,
      "ĠÐ±ÐµÐ»ÑĮ": 6288,
      "ĠÐ±ÑĢÐ°Ð»": 6289,
      "ĠÐ±ÑĥÑĢ": 6290,
      "ĠÐ±ÐµÑĪ": 6291,
      "ĠÐ±Ð°Ð·Ð°": 6292,
      "ĠÐ±Ð°Ð»Ð°Ð½Ñģ": 6293,
      "ÐĲÐº": 6294,
      "ÐĲÐ²": 6295,
      "ÐĲÐĿ": 6296,
      "ÐĲÑĦ": 6297,
      "Ð¾Ð³Ð¸": 6298,
      "Ð¾Ð³Ð»Ð¸": 6299,
      "Ð¾Ð³Ð¸ÑģÑĤ": 6300,
      "Ð¾Ð³ÑĥÐ»": 6301,
      "Ð¾Ð³Ð¾Ð²ÑĭÐµ": 6302,
      "Ð¾Ð³ÑĢÐµÐ²": 6303,
      "Ð¾Ð³Ð»Ð¾Ð±": 6304,
      "Ð¾ÑĤÐ²": 6305,
      "Ð¾ÑĤÑĭÐµ": 6306,
      "Ð¾ÑĤÐ´ÐµÐ»": 6307,
      "Ð¾ÑĤÐ²Ð¾ÑĢ": 6308,
      "Ð¾ÑĤÐµÑĢÐ°Ð¿": 6309,
      "Ð¾ÑĤÑĩÐµ": 6310,
      "Ð¾ÑĤÐµÑĢÐ°Ð¿Ð¸Ñı": 6311,
      "Ð¾ÑĤÐºÐ°ÑĤÑĮ": 6312,
      "Ð¸Ð²Ð¾Ð²": 6313,
      "Ð¸Ð²ÐºÐ°": 6314,
      "Ð¸Ð²Ð°ÐµÑĪÑĮ": 6315,
      "Ð¸Ð²Ð°ÑĤÑĮÑģÑı": 6316,
      "Ð¸Ð²Ð°Ð½Ð¸Ñı": 6317,
      "Ð¸Ð²Ð°Ð½Ð¸Ð¸": 6318,
      "Ð°Ð»ÐµÐ¹": 6319,
      "Ð°Ð»Ð¸ÑĤÑģÑı": 6320,
      "Ð°Ð»Ð´Ñĥ": 6321,
      "Ð°Ð»Ð¸ÑĤÐµÐ»ÑĮ": 6322,
      "Ð°Ð»Ð¸Ð²Ð°Ð½Ð¸Ðµ": 6323,
      "Ð°Ð»ÐµÐ½ÑĮÐºÐ¸Ð¹": 6324,
      "Ð°Ð»Ð»ÑĥÑĢ": 6325,
      "Ð°Ð»Ð¾Ð³Ð¾Ð²ÑĭÐµ": 6326,
      "ÑħÐ¾Ð»": 6327,
      "ÑħÐ¾ÑĤÐµÐ»": 6328,
      "ÑħÐ°Ð»Ð¸": 6329,
      "ÑħÐ»Ð°Ð´": 6330,
      "Ð¾Ð»Ñı": 6331,
      "Ð¾Ð»Ð¸Ñı": 6332,
      "Ð¾Ð»Ð¸Ð·": 6333,
      "Ð¾Ð»Ð¸ÑĢÑĥ": 6334,
      "Ð¾Ð»ÑĩÑĥ": 6335,
      "Ð¾Ð»Ð´ÐµÐ½": 6336,
      "Ð¾Ð»Ð¾ÑĤÑĭÐµ": 6337,
      "Ð²Ð¸": 6338,
      "Ð²ÐµÑĤ": 6339,
      "Ð²Ð¾Ð´": 6340,
      "Ð²Ð¾Ð½": 6341,
      "Ð²Ð¾Ð±": 6342,
      "Ð²ÐµÑģÑĤ": 6343,
      "Ð²ÑĥÑĤ": 6344,
      "Ð²Ð¸Ð³": 6345,
      "Ð²Ð°Ð½Ð¸Ðµ": 6346,
      "Ð²Ð°ÑĤÑĮÑģÑı": 6347,
      "Ð²Ð°Ñħ": 6348,
      "Ð²Ð¾Ð·ÑĮ": 6349,
      "Ð²ÑĢÐ°Ñī": 6350,
      "ÐļÐ°ÐºÐ¸Ð¼": 6351,
      "ÐļÐ°ÐºÐ¾Ð²Ñĭ": 6352,
      "Ð¿Ñĥ": 6353,
      "Ð¿Ñĭ": 6354,
      "Ð¿Ð°ÑĢ": 6355,
      "Ð¿ÐµÐ½Ð¸Ðµ": 6356,
      "Ð¿Ð¾Ð·": 6357,
      "Ð¿ÑĢÐ¾Ð²": 6358,
      "Ð¿Ð¸ÑĪ": 6359,
      "Ð¿ÑĢÐ¾ÑģÑĤ": 6360,
      "Ð¿Ð¾ÑĢÑĤÐ¸ÑĤÑĮ": 6361,
      "Ð¿Ð°Ð½Ð¸Ñİ": 6362,
      "Ð¿ÑĢÐ°Ð²Ð»ÐµÐ½Ð¸Ðµ": 6363,
      "Ð¿Ð°Ð»Ð¸ÑĤÐµÐ»ÑĮ": 6364,
      "ÐĿÐ°Ñģ": 6365,
      "ÐĿÐµÐ´": 6366,
      "ÐĿÐµÐ·": 6367,
      "ÐĿÐ£": 6368,
      "ÐĿÐ¾ÑģÑĤ": 6369,
      "ÐĿÐµÐ²": 6370,
      "ÐĿÐ¾Ð²ÑĭÐ¹": 6371,
      "ÐĿÐ¾Ð³Ð¸": 6372,
      "ÐĿÐ°Ð»Ð¾Ð³Ð¾Ð²ÑĭÐµ": 6373,
      "ÐŀÐĳ": 6374,
      "ÐŀÐĽ": 6375,
      "ÐŀÑģÑĤÑĢÐ¾": 6376,
      "ÐŀÐĵ": 6377,
      "ÐŀÐ²Ð¾": 6378,
      "ÐŀÐ¼ÐµÑĢ": 6379,
      "ÐŀÑīÑĥÑīÐµÐ½Ð¸Ñı": 6380,
      "ÐŀÑĪÐ¸Ð±": 6381,
      "ÐŀÐļÐĺ": 6382,
      "ÐŀÐ³ÑĢ": 6383,
      "ÐŀÑĢÐ³Ð°": 6384,
      "ÐŀÑħÐ»Ð°Ð´": 6385,
      "Ð¹ÑĤ": 6386,
      "Ð¾Ð¼Ð¸Ñı": 6387,
      "Ð¾Ð¼Ð½ÑĭÐ¹": 6388,
      "Ð¾Ð¼Ð¸Ð½Ð°ÑĤÑĮ": 6389,
      "Ð¾Ð¼Ð¾Ð»ÑĩÑĥ": 6390,
      "Ð¾ÑĢÐ¾Ð¶": 6391,
      "Ð¾ÑĢÐ¸Ñı": 6392,
      "Ð¾ÑĢÐ¾Ð³Ð¾": 6393,
      "Ð¾ÑĢÐ½ÑĭÐ¹": 6394,
      "Ð¾ÑĢÐºÐ°": 6395,
      "Ð¾ÑĢÐ¾Ð¶Ðµ": 6396,
      "Ð¾ÑĢÐ¾Ð¶Ð½Ð¾": 6397,
      "Ð¾ÑĢÐ¸ÑĨÐµÐ¹": 6398,
      "Ð°ÑģÐ»Ð¸": 6399,
      "Ð°ÑģÑģÐ°Ð¶": 6400,
      "Ð°ÑģÑĪÐ¸ÑĢÐµÐ½Ð¸Ðµ": 6401,
      "Ð¡Ð±": 6402,
      "Ð¡Ð°ÑĢ": 6403,
      "Ð¡Ð£": 6404,
      "Ð¡Ð°Ð¿": 6405,
      "Ð¡ÐĽ": 6406,
      "Ð¡Ð¾Ð·": 6407,
      "Ð¡Ð´ÐµÐ»": 6408,
      "Ð¡Ð´ÑĭÑħ": 6409,
      "Ð¡ÑĩÑĳÑĤ": 6410,
      "Ð¡ÑĬ": 6411,
      "Ð¡Ð¾ÑĩÑĥÐ²ÑģÑĤÐ²": 6412,
      "Ð¡Ð½Ð¾Ð²Ð°": 6413,
      "Ð¡ÑĭÑĤÐ½Ð¾": 6414,
      "Ð¡Ð½Ð¸Ð¶": 6415,
      "Ð¡Ð¸Ð»Ð°": 6416,
      "Ð¡ÑħÐ¾Ð´Ð¸ÑĤÑĮ": 6417,
      "Ð¡Ð¼Ð¸ÑĢÐµÐ½Ð¸Ðµ": 6418,
      "Ð¡Ð¸ÑĢÐ¾Ð¿": 6419,
      "Ð¡ÑĥÑĢÐ¾Ð²": 6420,
      "Ð¡Ð´Ð°Ð»": 6421,
      "Ð¡Ð¢Ðł": 6422,
      "Ð¡ÑİÐ¶ÐµÑĤ": 6423,
      "ĠÐ¼Ð°ÑĢ": 6424,
      "ĠÐ¼Ð³": 6425,
      "ĠÐ¼Ð¸Ð¼": 6426,
      "ĠÐ¼Ð¸Ñģ": 6427,
      "ĠÐ¼ÑĭÑĪ": 6428,
      "ĠÐ¼Ð¸Ð³": 6429,
      "ĠÐ¼ÐµÑħ": 6430,
      "ĠÐ¼Ð¸ÑĢÑĥ": 6431,
      "ĠÐ¼ÑıÑģ": 6432,
      "ĠÐ¼Ð°Ð·Ð¾Ñħ": 6433,
      "ĠÐ¼ÑĳÐ´": 6434,
      "ĠÐ¼ÐµÐ»Ð¾Ñĩ": 6435,
      "ĠÐ¼Ð¸ÑĢÐ°": 6436,
      "ĠÐ¼ÐµÐ»Ð¾Ð´": 6437,
      "ĠÐ¼Ð¾Ð³Ð»Ð¸": 6438,
      "ĠÐ¼Ð°ÑģÑģÐ°Ð¶": 6439,
      "ÑĪÑĮÑı": 6440,
      "ÐµÐ¼Ðµ": 6441,
      "ÐµÐ¼ÑĮ": 6442,
      "ÐµÐ¼Ð¾Ð½": 6443,
      "ÐµÐ¼ÑģÑı": 6444,
      "ÐµÐ¼Ð¸Ñı": 6445,
      "ÐµÐ¼ÑĭÐ¼": 6446,
      "ÐµÐ¼Ð½Ð¾Ð³Ñĥ": 6447,
      "ÐµÐ¼Ð¾Ð³Ð»Ð¾Ð±": 6448,
      "Ð¸Ð»Ð¾": 6449,
      "Ð¸Ð»Ð»": 6450,
      "Ð¸Ð»Ð¾Ñģ": 6451,
      "Ð¸Ð»Ð°ÑģÑĮ": 6452,
      "Ð¸Ð»Ð¸ÑĤÐ°ÑĨÐ¸Ñı": 6453,
      "Ð¸Ð»Ð¸Ð·Ð°ÑĨÐ¸Ñı": 6454,
      "ĠÐ·Ð°Ð»": 6455,
      "ĠÐ·Ð°ÑĤ": 6456,
      "ĠÐ·Ð»Ð¾": 6457,
      "ĠÐ·Ð°Ð³": 6458,
      "ĠÐ·Ð»Ð°": 6459,
      "ĠÐ·Ð°Ð»Ð¸Ð¿": 6460,
      "ĠÐ·Ð¾Ð²Ð¸": 6461,
      "ĠÐ·ÐµÑĢÐºÐ°Ð»Ð¾": 6462,
      "ĠÐ·Ð¾Ð»Ð¾ÑĤÑĭÐµ": 6463,
      "ĠÑĥÑģÑĤÑĢÐ¾": 6464,
      "ĠÑĥÐ³Ð¾": 6465,
      "ĠÑĥÐ´Ñĥ": 6466,
      "ĠÑĥÑĢÐ¾Ðº": 6467,
      "ĠÑĥÐ¿ÑĢ": 6468,
      "ĠÑĥÑģÑĤÐ°": 6469,
      "ĠÑĥÐ´Ð°ÑĩÐ¸": 6470,
      "ĠÑĥÐµÑħÐ°ÑĤÑĮ": 6471,
      "ĠÑĥÑĪÐ¸": 6472,
      "ĠÑĥÐ´Ð°Ñĩ": 6473,
      "ĠÑĥÐ½Ð¸Ð¶": 6474,
      "ĠÑĥÑİÑĤÐ½Ð¾": 6475,
      "ĠÑĥÑĢÐ¾Ð¶": 6476,
      "ĠÑĥÑģÐ½ÑĥÐ»": 6477,
      "ÑĢÐ¸Ð²Ð°Ð»": 6478,
      "ÑĢÐ¸Ð²ÑĭÑĩÐ½Ð¾": 6479,
      "Ð¾Ð´Ð¸Ð»": 6480,
      "Ð¾Ð´Ð½Ð¾Ð¹": 6481,
      "Ð¾Ð´Ð¾ÑĤÐ²Ð¾ÑĢ": 6482,
      "Ð±Ñĥ": 6483,
      "Ð±Ð¾Ð»ÑĮ": 6484,
      "Ð±Ð¸ÑĢ": 6485,
      "Ð§ÐĲ": 6486,
      "Ð§Ð¸ÑĤ": 6487,
      "Ð§Ð¸ÑģÑĤ": 6488,
      "Ð§Ð¸Ð»Ð»": 6489,
      "Ð¾Ð½Ñĭ": 6490,
      "Ð¾Ð½Ð¸Ðº": 6491,
      "Ð¾Ð½ÐºÐ°": 6492,
      "Ð¾Ð½Ð¾Ð¿": 6493,
      "Ð¾Ð½Ð¸ÑĪÑĮ": 6494,
      "Ð¾Ð½ÑĤÑĢ": 6495,
      "Ð¾Ð½Ð¸Ð¶": 6496,
      "Ð¾Ð½Ð½Ð¾Ð¹": 6497,
      "Ð¾Ð½ÑıÐ½": 6498,
      "Ð¾Ð½ÑĢÐµ": 6499,
      "Ð¾Ð½ÑıÑİ": 6500,
      "Ð¾Ð½Ð°Ð»Ð´Ñĥ": 6501,
      "Ð°Ð½Ð¾Ð¼": 6502,
      "Ð°Ð½ÑĢÐ°": 6503,
      "Ð°Ð½Ð¸Ð¼": 6504,
      "Ð°Ð½Ð¸ÐºÐ°": 6505,
      "Ð°Ð½ÑĤÐ¾ÑĢ": 6506,
      "Ð°Ð½ÑģÐ¾Ð²": 6507,
      "Ð°Ð½ÑĨÐ¸Ñı": 6508,
      "Ð°Ð½ÑģÐºÐ¸Ð¹": 6509,
      "Ð°Ð½ÑĨÐ¸Ñİ": 6510,
      "Ð¾Ð¶ÑĮ": 6511,
      "Ð¾Ð¶Ð¸ÑĤÑĮ": 6512,
      "Ð¾Ð¶Ð°ÐµÑĤ": 6513,
      "Ð¾Ð¶Ð´Ñĥ": 6514,
      "Ð¾Ð¶ÐµÐ½Ð½ÑĭÐ¹": 6515,
      "Ð¾Ð¶Ð´Ð°Ñİ": 6516,
      "Ð¾Ð¶Ð½ÐµÐ½Ð¸Ñı": 6517,
      "Ð¸ÑĤÐ¸": 6518,
      "Ð¸ÑĤÐ¾Ð²": 6519,
      "Ð¸ÑĤÐ°Ð¹": 6520,
      "Ð¸ÑĤÐ¸Ñı": 6521,
      "Ð¸ÑĤÐ¸ÐºÐ°": 6522,
      "Ð¸ÑĤÐ¸ÑĢÐ¾Ð²Ð°ÑĤÑĮ": 6523,
      "Ð¸ÑĤÐ²Ð°Ñħ": 6524,
      "Ð¾Ð±Ñī": 6525,
      "Ð¾Ð±Ð¾ÑıÐ·": 6526,
      "Ð°Ð²Ð¸Ð»": 6527,
      "Ð°Ð²Ð¸ÑĤÑĮÑģÑı": 6528,
      "Ð°Ð²Ð¸Ð»ÑģÑı": 6529,
      "Ð°Ð²Ð»ÐµÐ½Ð¸Ðµ": 6530,
      "Ð°Ð²Ð»ÐµÐ½": 6531,
      "ÑĦÑĦ": 6532,
      "ÑĦÐµÑĪ": 6533,
      "ÑĦÐ¸ÐºÐ°ÑĤ": 6534,
      "ÑĦÐµÑģÑģÐ¸Ð¾Ð½": 6535,
      "ÑĦÐ»Ð¾ÑĢÑĭ": 6536,
      "ÑĦÑİÐ¼": 6537,
      "ĠÑĩÑĳÑĤ": 6538,
      "ĠÑĩÐ¸Ð¿": 6539,
      "ĠÑĩÐµÑĤÑĭ": 6540,
      "ĠÑĩÐµÑĢÑĤ": 6541,
      "ĠÑĩÑĳÑĢ": 6542,
      "ĠÑĩÐ°ÑĢÑĤ": 6543,
      "ĠÑĩÐµÑĢÐ²": 6544,
      "ĠÑĩÑĳÑĤÐºÐ¾": 6545,
      "ĠÑĩÐµÐ»ÑİÑģÑĤÑĮ": 6546,
      "ĠÑıÐ½Ð²Ð°ÑĢ": 6547,
      "Ð°ÑĢÐ½ÑĭÐ¹": 6548,
      "Ð°ÑĢÐ¸Ð¹": 6549,
      "Ð°ÑĢÐºÐ¾": 6550,
      "Ð°ÑĢÐ¿Ð»Ð°ÑĤÑĭ": 6551,
      "Ð°ÑĢÐ¸ÑĥÑģ": 6552,
      "ĠÐ¿ÑĢÐ¾ÑĨ": 6553,
      "ĠÐ¿ÑĢÐ¾ÑģÐ»": 6554,
      "ĠÐ¿ÑĢÐ¾ÑĩÐ¸ÑĤÐ°ÑĤÑĮ": 6555,
      "ĠÐ¿ÑĢÐ¾ÑĤÑı": 6556,
      "ĠÐ¿ÑĢÐ¾ÑĢÐ²": 6557,
      "ĠÐ¿ÑĢÐ¾ÑģÐ¼Ð¾ÑĤÑĢ": 6558,
      "Ð·Ð°": 6559,
      "Ð·Ð¾Ð²": 6560,
      "Ð·Ð¸Ð²Ð¾Ð²": 6561,
      "Ð·Ð°ÑĢÐ¿Ð»Ð°ÑĤÑĭ": 6562,
      "Ð¶Ð½Ð¾": 6563,
      "Ð¶Ð¾Ðº": 6564,
      "Ð¶Ð¸Ð¼": 6565,
      "Ð¶Ð°ÐµÑĤ": 6566,
      "Ð¶Ð°ÐµÐ¼": 6567,
      "Ð°Ð¼Ð¸ÐºÐ°": 6568,
      "Ð°Ð¼ÑģÑĥ": 6569,
      "Ð³Ð¸Ñı": 6570,
      "Ð³ÐµÐ±": 6571,
      "Ð³Ð¾Ð²Ð¾ÑĢ": 6572,
      "Ð³Ð»Ð°Ð²": 6573,
      "Ð³ÐµÑĢÐ¾": 6574,
      "Ð³Ð¾Ð²Ð¾Ð¼": 6575,
      "Ð³Ð¾Ð½ÐºÐ°": 6576,
      "ÑĢÐ°Ñı": 6577,
      "ÑĢÐ°Ñħ": 6578,
      "ÑĢÐ°ÑĦÐ¾Ð½": 6579,
      "ÑĢÐ°Ð¸Ð²Ð°Ñİ": 6580,
      "ÑĢÐ°ÑĪÐ¸Ð²": 6581,
      "ÑĢÐ°ÑĪÐµÐ½Ð¸Ðµ": 6582,
      "ÐµÑĩÐ°Ð»": 6583,
      "ÐµÑĩÐ½Ð°Ñı": 6584,
      "ÐµÑĩÐºÐµ": 6585,
      "ÐµÑĩÐ½Ð¾Ð¹": 6586,
      "ÐµÑĩÐ½Ð¸ÐºÐ°": 6587,
      "ÐµÑĩÑĳÐ¼ÑģÑı": 6588,
      "Ð¾Ð¹Ð¾ÑĤÐµ": 6589,
      "ĠÐ»ÐµÑģ": 6590,
      "ĠÐ»Ð°ÑĤ": 6591,
      "ĠÐ»Ð¸Ð¼": 6592,
      "ĠÐ»Ð¸Ð½": 6593,
      "ĠÐ»Ð¾ÑĢÐ°": 6594,
      "ĠÐ»ÑĮÑĳÑĤ": 6595,
      "ĠÐ»Ð¾Ð³Ð¸ÑģÑĤ": 6596,
      "ĠÐ»Ð¾Ð¶ÑĮ": 6597,
      "ÑĨÐ¸ÐµÐ¹": 6598,
      "Ð½Ð°ÑĪÐ¸Ð²": 6599,
      "Ð½Ð°ÑģÑĤÐ¸ÐºÐ°": 6600,
      "ĠÑĢÐ°Ð³Ñĥ": 6601,
      "Ð»ÑıÐ»": 6602,
      "Ð»ÑıÑİÑĤ": 6603,
      "Ð»ÑıÑĨÐ¸Ñİ": 6604,
      "Ð»ÑıÐ½ÐµÐ¼": 6605,
      "Ð°Ð¹Ð»Ð¸Ð½": 6606,
      "ÐµÐ´ÐµÐ¼": 6607,
      "ÐµÐ´ÐµÐ½Ð¸Ðµ": 6608,
      "ÐµÐ´Ð¾Ð²Ð°ÑĤÑĮ": 6609,
      "ÐµÐ´ÑĮÐ¼": 6610,
      "ÐµÑģÑĥ": 6611,
      "ÐµÑģÑĮ": 6612,
      "ÐµÑģÑĳÐ¼": 6613,
      "ÐµÑģÑĥÑĢ": 6614,
      "ÐµÑģÐ¿ÐµÑĩ": 6615,
      "ÐµÑģÐºÐ¸Ñħ": 6616,
      "Ð¸ÐºÐµ": 6617,
      "Ð¸ÐºÐ¾Ð¼": 6618,
      "Ð¸ÐºÐ°Ð³": 6619,
      "Ð¸ÐºÐ¾Ð»ÑĮÐ½Ð¾": 6620,
      "Ð¸ÐºÐ¾Ð°Ð³": 6621,
      "ĠÐ¿ÑĢÐ¾Ðº": 6622,
      "ĠÐ¿ÑĢÐ¸Ð¼": 6623,
      "ĠÐ¿ÑĢÐµÐº": 6624,
      "ĠÐ¿ÑĢÐ¸ÑģÑĤ": 6625,
      "ĠÐ¿ÑĢÐµÐ¶": 6626,
      "ĠÐ¿ÑĢÐ¾Ð²Ð°Ð»": 6627,
      "ĠÐ¿ÑĢÐ¾Ð²Ð¾Ð»": 6628,
      "ĠÐ¿ÑĢÐ¸ÑĤÐ²Ð¾ÑĢÑıÑİÑģÑĮ": 6629,
      "ĠÐ¿ÑĢÐ¸ÑıÑĤÐ½Ð°Ñı": 6630,
      "ĠÐ¿ÑĢÐ¾Ð¼Ð¾Ð»ÑĩÑĥ": 6631,
      "ĠÐ¿ÑĢÐ¸ÐºÐ¾Ð»ÑĮÐ½Ð¾": 6632,
      "Ð°ÑĤÑĢ": 6633,
      "Ð°ÑĤÑĭÑħ": 6634,
      "Ð°ÑĤÐ¸Ð¿": 6635,
      "Ð°ÑĤÐ°ÑĤÑĮÑģÑı": 6636,
      "Ð°ÑĤÐ¸Ð²Ð½ÑĭÐµ": 6637,
      "Ð¥Ð¼": 6638,
      "Ð¥Ð°Ð¹": 6639,
      "Ð¥Ð¾ÑĤÐµÐ»": 6640,
      "Ð¥Ð¸ÑĢÑĥÑĢÐ³": 6641,
      "Ð¥Ð¾Ð±Ð±Ð¸": 6642,
      "Ð¥ÑĥÐ´Ð¾Ð¶": 6643,
      "Ð¥Ð¾Ð´Ð¸Ð»": 6644,
      "Ð´Ð°ÐµÑĤ": 6645,
      "ĠÐ±ÑĭÐ»Ð¸": 6646,
      "ÐµÐ³Ñĥ": 6647,
      "ÐµÐ³ÐºÐ°": 6648,
      "ÐµÐ³Ð¸Ñİ": 6649,
      "ÑīÑĥ": 6650,
      "ÑīÐ¸Ðµ": 6651,
      "ÑīÐ¸Ð¼": 6652,
      "ÑīÐ½Ð¾Ðµ": 6653,
      "ÑīÐ°ÑĤÑĮÑģÑı": 6654,
      "ÑīÑĥÑģÑĮ": 6655,
      "ÐĺÐ»Ð¸": 6656,
      "ÐĺÐ½ÑĤÐµÑĢ": 6657,
      "ÐĺÑģÐº": 6658,
      "ÐĺÐķ": 6659,
      "ÐĺÐ´ÑĳÐ¼": 6660,
      "ÐĺÐ´ÐµÑı": 6661,
      "ĠÐµÑģÑĤ": 6662,
      "ĠÐµÐ¹": 6663,
      "ĠÐµÐ´Ð¸": 6664,
      "ĠÐµÐ´ÐµÑĤ": 6665,
      "ĠÐ¿Ð¾ÐµÐ·": 6666,
      "ĠÐ¿Ð¾Ð¸Ñģ": 6667,
      "ĠÐ¿Ð¾Ð¸Ð³": 6668,
      "ĠÐ¿Ð¾ÑħÐ¾Ð´": 6669,
      "ĠÐ¿Ð¾ÑĤÐ¾ÑĢ": 6670,
      "ĠÐ¿Ð¾ÑĢÐ°Ð¶": 6671,
      "ĠÐ¿Ð¾ÑĪÐ»Ð°": 6672,
      "ĠÐ¿Ð¾ÑĪÐ»Ð¸": 6673,
      "Ð¾ÐºÐ°Ð¼Ð¸": 6674,
      "Ð°ÑİÑīÐ¸Ð¼": 6675,
      "ÑĢÑĥÐµÑĤ": 6676,
      "ÑĢÑĥÐ³Ð¸": 6677,
      "ÑĢÑĥÑģÑĤÐ½Ð°Ñı": 6678,
      "ĠÐ³Ð¾Ð»": 6679,
      "ĠÐ³Ð¸Ð¼": 6680,
      "ĠÐ³Ð°Ð·": 6681,
      "ĠÐ³ÑĢÐ°ÑĦ": 6682,
      "ĠÐ³Ð½ÐµÐ²": 6683,
      "ĠÐ³Ð¾Ð»Ð¾Ñģ": 6684,
      "ĠÐ³ÐµÑĢÐ¾": 6685,
      "ĠÐ³Ð¸Ð³Ð¸ÐµÐ½Ð°": 6686,
      "ĠÐ³ÐµÐ¼Ð¾Ð³Ð»Ð¾Ð±": 6687,
      "ĠÐ³Ð¾Ð½ÑıÑİ": 6688,
      "ĠÐ³ÑĢÐ°ÑĦÐ¾Ð½": 6689,
      "ÐµÐ¹Ð´": 6690,
      "ÐµÐ¹Ð½ÑĭÐ¹": 6691,
      "ÐµÐ¹ÐºÐ°": 6692,
      "ÐµÐ¹ÑĨÑĭ": 6693,
      "ÐµÐ¹ÑģÐºÐ¸Ðµ": 6694,
      "Ð¸ÑıÑħ": 6695,
      "Ð»Ð°ÑģÑĮ": 6696,
      "Ð»Ð°ÑģÐ¸Ð»Ð¸": 6697,
      "ĠÐ½Ð¾Ð²Ð¾Ðµ": 6698,
      "ĠÐ½Ð¾Ð²Ð¸Ñĩ": 6699,
      "ÐĹÐ¸Ð¼": 6700,
      "ÐĹÑĥÐ´": 6701,
      "ÐĹÐĽ": 6702,
      "ÐĹÐ°Ð¼ÐµÐ½": 6703,
      "ÐĹÐ²ÐµÑĢ": 6704,
      "ÐĹÐ½Ð°Ð½Ð¸Ðµ": 6705,
      "ÐĹÐĶÐļÐĲ": 6706,
      "ÐĹÐ°ÐºÑĢÑĭÐ²Ð°Ñİ": 6707,
      "ĠÐ½Ð¾ÑĥÑĤ": 6708,
      "ĠÐ½Ð¾ÑĩÑĮÑİ": 6709,
      "Ð¸Ð¼ÐµÑĢ": 6710,
      "Ð¸Ð¼Ð°ÐµÑĪÑĮ": 6711,
      "Ð¸Ð¼Ð°Ñı": 6712,
      "Ð¸Ð¼Ð¾Ðµ": 6713,
      "Ð¸Ð¼Ð¾ÑģÑĤÑĮ": 6714,
      "Ð¸Ð¼Ð¸ÐºÐ°ÑĤ": 6715,
      "Ð¸Ð½Ðµ": 6716,
      "Ð¸Ð½Ð¸": 6717,
      "Ð¸Ð½Ð¾Ð²": 6718,
      "Ð¸Ð½Ð½Ð¾Ðµ": 6719,
      "Ð¸Ð½ÑģÑĭ": 6720,
      "Ð¸Ð½Ð°Ð½ÑģÐ¾Ð²": 6721,
      "ĠÑħÐ¾Ð·": 6722,
      "ĠÑħÐ¸Ð¼Ð¸ÐºÐ°ÑĤ": 6723,
      "ÐµÑģÑĤÐ¾": 6724,
      "ÐµÑģÑĤÐ¸Ð¼": 6725,
      "ÐµÑģÑĤÑıÑĤ": 6726,
      "ÐµÑģÑĤÐºÐ°Ñı": 6727,
      "ÐĴÐµÐ±": 6728,
      "ÐĴÐµÐ·": 6729,
      "ÐĴÑĭÑħ": 6730,
      "ÐĴÑĢÐµÐ¼": 6731,
      "ÐĴÐ¾Ð´Ð¸ÑĤÐµÐ»": 6732,
      "ÐĴÐ´Ð¾Ñħ": 6733,
      "ÐĴÑĢÐ°Ð³": 6734,
      "ÐĴÐµÑģÑĤÐ¸": 6735,
      "ÐĴÐ°ÐºÑĨÐ¸Ð½Ð°": 6736,
      "ÐĴÑĢÐ¾Ð´Ðµ": 6737,
      "ÐĴÐ¿ÑĢÐ°Ð²Ð»ÐµÐ½Ð¸Ðµ": 6738,
      "ÐĴÐ¡Ð¢Ðł": 6739,
      "Ð°ÐµÑĤÐµÑģÑĮ": 6740,
      "Ð¯Ð·Ñĭ": 6741,
      "Ð¯Ð¿Ð¾Ð½": 6742,
      "ĠÑĢÐ°Ð±Ð¾ÑĤÐ°Ð»": 6743,
      "ĠÑĢÐ°Ð±Ð¾ÑĤÐ°ÐµÐ¼": 6744,
      "ĠÑĢÐ°Ð±Ð¾ÑĤÐ½Ð¸ÐºÐ¾Ð¼": 6745,
      "ĠÑģÑĤÐ°Ð»": 6746,
      "ĠÑģÑĤÐµÐº": 6747,
      "ĠÑģÑĤÐ°Ð±": 6748,
      "ĠÑģÑĤÑĢÐµÐ¼": 6749,
      "ĠÑģÑĤÐ¾Ð»ÑĮÐºÐ¾": 6750,
      "ĠÑģÑĤÑĢÐ¾Ðº": 6751,
      "ĠÑģÑĤÑĢÐ°ÑĤ": 6752,
      "ĠÑģÑĤÐ¸Ð»Ð¸": 6753,
      "ĠÑģÑĤÐ°Ð±Ð¸Ð»ÑĮÐ½Ð¾": 6754,
      "ĠÑģÑĤÐ¸Ð»ÑĮÐ½Ð¾Ðµ": 6755,
      "ĠÑģÑĤÑĭÐ´": 6756,
      "ĠÑģÑĤÐµÑĢÐ¸Ð»ÑĮ": 6757,
      "ĠÑģÑĤÐ¾ÑĢÐ¸ÑĨÐµÐ¹": 6758,
      "ĠÑģÑĤÐ°Ð½ÑĨÐ¸Ñİ": 6759,
      "Ð¸Ð´Ñĭ": 6760,
      "Ð¸Ð´ÑıÑĤ": 6761,
      "Ð¸Ð´Ð½ÑĭÐ¼": 6762,
      "Ð¸Ð´ÐµÐ¿ÑĢÐµÑģÑģ": 6763,
      "Ð¸Ð´ÐµÐ»ÑģÑı": 6764,
      "ÑģÑĤÐ²Ð¸Ñı": 6765,
      "ĠÑĢÐµÐ³ÑĥÐ»ÑıÑĢ": 6766,
      "ĠÑĢÑĤÐ°": 6767,
      "ĠÑĢÐ°ÐºÐ°": 6768,
      "ĠÑĢÐ¾Ð¶Ð´Ð°": 6769,
      "ĠÑĢÐµÐ»Ð¸Ð·": 6770,
      "ĠÑĢÐµÑģÑĥÑĢ": 6771,
      "ĠÐ´ÐµÐ»Ð¾": 6772,
      "ĠÐ´ÐµÐ»Ñĥ": 6773,
      "ĠÐ´ÐµÐ»Ð¸ÑĤÑĮÑģÑı": 6774,
      "ĠÐ±Ð¾Ð»ÐµÐµ": 6775,
      "ĠÐ±Ð¾Ð»ÑıÑĤ": 6776,
      "Ð¾Ð¿Ð°Ð´": 6777,
      "Ð¾Ð¿Ð¸ÑĤÑĮÑģÑı": 6778,
      "Ð¾Ð¿Ð¸Ð»Ð¾ÑĤ": 6779,
      "Ð¾Ð¿Ð»ÐµÐ½Ð¸Ðµ": 6780,
      "Ð¾Ð¿Ð»Ð°Ð½ÐµÑĤ": 6781,
      "Ð¾Ð¿ÐµÐ½Ð³": 6782,
      "Ð¾Ð¿ÐµÑĢÐ°ÑĤ": 6783,
      "Ð¾Ð¿Ð¾Ð½Ð¸Ð¶": 6784,
      "Ð°Ð´Ð½Ð¾ÑģÑĤÑĮ": 6785,
      "Ð°Ð´ÐºÐ°Ñı": 6786,
      "ÐµÐ·Ð½ÑĮ": 6787,
      "ÐµÐ·Ð¶Ð°Ð¹": 6788,
      "ÐµÐ·Ð¶Ð°ÐµÐ¼": 6789,
      "ĠÐºÐ°ÐºÐ¾Ðµ": 6790,
      "ĠÐºÐ°ÐºÐ¸Ñħ": 6791,
      "ÑĥÐ¿Ð°Ð¼Ð¸": 6792,
      "ÑĥÐ¿ÑĢÐµÐ¶": 6793,
      "ÑĥÐ´ÑĥÑīÐµÐµ": 6794,
      "ÑĥÐ´ÑĪÐ°ÐµÑĤÑģÑı": 6795,
      "ÐµÐºÑĨÐ¸Ñı": 6796,
      "ÐµÐºÐ¾Ð¼ÐµÐ½Ð´ÑĥÑİ": 6797,
      "ÐµÐºÐ°ÐµÑĤÐµÑģÑĮ": 6798,
      "ĠPS": 6799,
      "ĠPix": 6800,
      "ĠPass": 6801,
      "ĠPUBG": 6802,
      "ĠPeu": 6803,
      "ĠPred": 6804,
      "ÑģÑĤÑĮÑı": 6805,
      "ÐľÐĲ": 6806,
      "ÐľÐµÑģÑģ": 6807,
      "ÐľÐµÑĢÑĭ": 6808,
      "ÐľÐ¸ÑĢ": 6809,
      "ÐľÐ¾Ð±Ð¸Ð»ÑĮ": 6810,
      "ÐľÐ°Ð½ÑĩÐµÑģÑĤÐµÑĢ": 6811,
      "ÐľÐ¾Ð¶ÐµÑĪÑĮ": 6812,
      "ÐľÐµÐ»Ð¾Ñĩ": 6813,
      "ÐľÐµÑĢÑĤÐ²": 6814,
      "ÐľÑĥÐ·Ñĭ": 6815,
      "ÐľÐ°ÐºÐ°ÑĢ": 6816,
      "ÐľÐ°Ð»ÐµÐ½ÑĮÐºÐ¸Ð¹": 6817,
      "ÐľÐ¾Ð½Ð¾Ð¿": 6818,
      "ÐľÐµÑģÑĤÐ¾": 6819,
      "Ð°Ð¶Ð´Ð°": 6820,
      "Ð°Ð¶Ð½ÑĭÐ¹": 6821,
      "Ð°Ð¶Ð¸Ð²Ð°ÑĤÑĮ": 6822,
      "Ð¸ÑģÐ°ÐµÑĤ": 6823,
      "Ð¸ÑģÐºÐ°": 6824,
      "Ð¸ÑģÑĭÐ²Ð°ÑĤÑĮ": 6825,
      "Ð¸ÑģÐ»Ñĭ": 6826,
      "Ð¥Ð¾ÑĢÐ¾ÑĪÐµÐ³Ð¾": 6827,
      "Ð»ÑİÐ·Ð¸Ð²Ð¾Ð²": 6828,
      "Ð¾ÑĩÑĮ": 6829,
      "Ð¾ÑĩÐ½ÑĭÐ¹": 6830,
      "Ð¾ÑĩÐµÐµ": 6831,
      "Ð¾ÑĩÐµÐ³Ð¾": 6832,
      "Ð¾ÑĩÐ½ÑĭÑħ": 6833,
      "Ð¾ÑĩÐ½Ð¸Ðº": 6834,
      "ÑĥÐ¼Ð°Ð»": 6835,
      "ÑĥÐ¼Ð°ÑĤÑĮ": 6836,
      "ÑĥÐ¼Ð°Ð¶Ð½ÑĭÐ¹": 6837,
      "ĠÑģÐ»Ð°Ð±": 6838,
      "ĠÑģÐ»ÐµÐ¿": 6839,
      "ĠÑģÐ»ÐµÐ³ÐºÐ°": 6840,
      "Ð°Ð·Ð°Ñħ": 6841,
      "Ð°Ð·Ð¼Ð°": 6842,
      "Ð°Ð·ÐµÑĤÑĥ": 6843,
      "Ð°Ð·Ð´ÑĭÐ²": 6844,
      "Ð°Ð·Ð¾ÑĩÐ½ÑĭÐ¹": 6845,
      "ÑĥÐ¶Ð´ÐµÐ½Ð¸Ñı": 6846,
      "ÑĥÐ¶Ð¸Ð²Ð°Ð½Ð¸Ð¸": 6847,
      "ĠÐ²ÑĭÑĪÐµ": 6848,
      "ĠÐ²ÑĭÐ´ÐµÐ»": 6849,
      "ĠÐ²ÑĭÐ¸Ð³ÑĢ": 6850,
      "ĠÐ²ÑĭÐ»ÐµÑĤ": 6851,
      "ĠÐ²ÑĭÐ¿ÑĥÑģÐº": 6852,
      "ĠÐ²ÑĭÐ·Ð²": 6853,
      "ĠÐ²ÑĭÑĢÐ°Ñī": 6854,
      "ĠÐ²ÑĭÑıÐ²": 6855,
      "ĠÐ²ÑĭÐ¿Ð¾Ð»": 6856,
      "ĠÐ²ÑĭÑĢÐ²": 6857,
      "ĠÐ²ÑĭÐµÐ·Ð¶Ð°ÐµÐ¼": 6858,
      "onata": 6859,
      "onver": 6860,
      "Ð£Ð¼Ð¸": 6861,
      "Ð£ÑģÑĤÐ°Ð²": 6862,
      "Ð£ÑģÑĤÐ°": 6863,
      "Ð£Ð²ÐµÑĢ": 6864,
      "Ð£Ð´Ð°Ñĩ": 6865,
      "Ð£ÑģÑĤÐ°ÑĢ": 6866,
      "Ð£ÐļÐĺ": 6867,
      "Ð£ÑİÑĤÐ½Ð¾": 6868,
      "Ð£ÑģÑĤÑĥÐ¿": 6869,
      "ÑĥÑĤÑĥÑĢ": 6870,
      "ÑĥÑĤÐ°Ð½Ð½ÑĭÐ¹": 6871,
      "ÑĥÑĤÐµÑĢÐ±": 6872,
      "ĠÐ¾ÑĤÐµÑĨ": 6873,
      "ĠÐ¾ÑĤÐ¿ÑĥÑģ": 6874,
      "ĠÐ¾ÑĤÑĨÐ°": 6875,
      "ĠÐ¾ÑĤÑĢÐ¾ÑģÑĤ": 6876,
      "ĠÐ¾ÑĤÐ¸ÑĤÐ¾Ð¼": 6877,
      "ĠÐ¾ÑĤÐ´Ð°Ñİ": 6878,
      "ĠÐ¾ÑĤÐ¼Ð°Ð·": 6879,
      "ĠÐ¾ÑĤÐ¿Ð¸ÑĪ": 6880,
      "Ð¾ÑĢÐ¼Ð°ÑĨ": 6881,
      "Ð¾ÑĢÐ¼Ð¸ÑĢÐ¾Ð²Ð°ÑĤÑĮ": 6882,
      "Ð°Ð¿Ð¿Ð°ÑĢ": 6883,
      "ĠÑĤÐ°ÐºÐ°Ñı": 6884,
      "ĠÑĤÐ°ÐºÐ¸Ð¼Ð¸": 6885,
      "ĠÑĤÐ°ÐºÑģÐ¸ÑģÑĤÐ¾Ð¼": 6886,
      "ĠÑĤÐ°ÐºÑģÐ¸ÑģÑĤ": 6887,
      "ÑĤÐµÑĢÐ¸Ð°Ð»ÑĮ": 6888,
      "ÑĥÑĩÐ¸ÑĤÑĮ": 6889,
      "ÑĥÑĩÐµÐ½Ð¸Ðµ": 6890,
      "ÑĥÑĩÐ°ÐµÑĤÑģÑı": 6891,
      "ÑĥÑĩÐ¸Ð²Ð°Ð½Ð¸Ðµ": 6892,
      "Ð¾ÑģÑĤÐ½Ð¾ÑģÑĤÐ¸": 6893,
      "Ð¾ÑģÑĤÐ¾ÑıÐ½Ð¸Ðµ": 6894,
      "Ð¾ÑģÑĤÐ°ÑĤÐ¾ÑĩÐ½Ð¾": 6895,
      "Ð¾ÑģÑĤÐ¾ÑıÑĤ": 6896,
      "ĠÐ¾Ð±Ð¼ÐµÐ½": 6897,
      "ĠÐ¾Ð±ÑıÐ·Ð°ÑĤÐµÐ»ÑĮÐ½Ð¾": 6898,
      "ĠÐ¾Ð±Ð¾Ð¹Ð´": 6899,
      "ĠÐ¾Ð±ÑĢÐ°Ñī": 6900,
      "ĠÐ¾Ð±ÑĭÐ³": 6901,
      "ĠÐ¾Ð±ÑĢÐµÑģÑĤÐ¸": 6902,
      "ĠÐ¾Ð±Ð»ÐµÐ³": 6903,
      "ĠÐ¾Ð±ÑģÑĤÐ¾ÑıÑĤ": 6904,
      "ĠÐ¾Ð±Ð¾Ð³ÑĢÐµÐ²": 6905,
      "ĠÐ¾Ð±Ð¾Ð½ÑıÐ½": 6906,
      "ĠÐ¾Ð±ÐµÑģÐ¿ÐµÑĩ": 6907,
      "ĠÐ¾Ð±ÑīÐ°ÑĤÑĮÑģÑı": 6908,
      "ĠÐ¾Ð±Ð¸Ð´ÐµÐ»ÑģÑı": 6909,
      "ĠÐ¾Ð±ÑĥÑĩÐµÐ½Ð¸Ðµ": 6910,
      "ÑĥÑģÐµ": 6911,
      "Ð¸Ð·Ð¼ÐµÐ½": 6912,
      "Ð¸Ð·Ð¸ÑĢÐ¾Ð²Ð°ÑĤÑĮ": 6913,
      "Ð¸Ð·Ð²ÐµÑģÑĤ": 6914,
      "ĠÐ½ÐµÐ¸Ð·Ð¼ÐµÐ½": 6915,
      "ÐĳÑį": 6916,
      "ÐĳÐ°Ð·Ð°": 6917,
      "ÐĳÑİÐ´Ð¶ÐµÑĤ": 6918,
      "ÐĳÐ»Ð¸Ð½": 6919,
      "ÐĳÐ¸Ð·Ð½ÐµÑģ": 6920,
      "ÐĳÐ¾Ð¼Ð±Ð°": 6921,
      "ÐĳÑĢÑį": 6922,
      "ÐĳÑĥÐ¼Ð°Ð¶Ð½ÑĭÐ¹": 6923,
      "ÐĳÑĥÑĤÐµÑĢÐ±": 6924,
      "ĠÑģÐ¿Ð»Ñİ": 6925,
      "ĠÑģÐ¿Ð¸ÑĪÑĮ": 6926,
      "ĠÑģÐ¿Ð°Ð»ÑĮ": 6927,
      "ĠÑģÐ¿Ð°ÑģÑĤ": 6928,
      "ĠÑģÐ¿Ð°Ð»Ð°": 6929,
      "ĠÑģÐ¿Ð¸Ð½Ñĭ": 6930,
      "ĠÑģÐ¿Ð¸Ð½Ñĥ": 6931,
      "ĠÑģÐ¿Ð¸ÑģÐºÐ¾Ð²": 6932,
      "ĠÑģÐ¿ÑĢÐ°ÑĪÐ¸Ð²": 6933,
      "ĠÑģÐ¿Ð¸ÑģÐºÐ°": 6934,
      "ĠÑģÐ¿Ð°Ð·Ð¼Ð°": 6935,
      "ĠÐ¶Ð¸ÑĢÐ¾Ð²": 6936,
      "ĠÐ¶Ð¸ÑĢ": 6937,
      "ĠÐ¶ÐµÑģÑĤÑĮ": 6938,
      "ĠÐ¶ÐµÑĢÑĤÐ²": 6939,
      "ĠÐ¶ÑĥÑĤÐºÐ¾": 6940,
      "ĠÐ¶Ð´ÑĳÑĤ": 6941,
      "ĠÐ¶Ð°Ð½ÑĢÐ°": 6942,
      "ĠÐ¶ÐµÑģÑĤÐºÐ°Ñı": 6943,
      "ĠÐ¶Ð°Ð´Ð½Ð¾ÑģÑĤÑĮ": 6944,
      "Ð¸ÑģÑĤÐ¾Ð²": 6945,
      "Ð¸ÑģÑĤÐ¸ÑĩÐ½ÑĭÐ¹": 6946,
      "Ð¸ÑģÑĤÐµÐ½ÑĤÐ½Ð¾": 6947,
      "Ð¾Ð»ÑĮÐ½ÑĥÑİ": 6948,
      "Ð¾ÑģÐ¸ÑĤÑģÑı": 6949,
      "Ð¾ÑģÑģÐ¸Ñı": 6950,
      "Ð¾ÑģÐºÐ°Ð½Ð¸Ñı": 6951,
      "ĠÑĦÐ°ÐºÑĤ": 6952,
      "ĠÑĦÐ°ÑĢÐ¼Ð°ÑĨÐµÐ²ÑĤ": 6953,
      "ĠÑĦÑĢÑĥÐº": 6954,
      "ĠÑĦÑĢÑĥÐºÑĤÑĭ": 6955,
      "ĠÑĦÐ¾Ð½ÑĤÐ°Ð½": 6956,
      "ĠÑĦÐ¸Ð½Ð°Ð»": 6957,
      "ĠÑĦÐ¸Ð»Ð¾Ñģ": 6958,
      "ĠÑĦÐ¸Ð½Ð°Ð½ÑģÐ¾Ð²": 6959,
      "ĠÐ²Ð¸Ð´Ð½Ð¾": 6960,
      "ĠÐ²Ð¸Ð´Ð¸ÑĤ": 6961,
      "ĠÐ²Ð¸Ð´ÐµÑĤÑĮ": 6962,
      "ĠÐ²Ð¸Ð´ÐµÐ¾Ðº": 6963,
      "ÑĤÐ¸ÑĩÐ½ÑĭÐ¹": 6964,
      "ÑĤÐ¸ÑĦÐ¸ÐºÐ°ÑĤ": 6965,
      "ÑĤÐ¸ÑĢÑĥÐµÑĤ": 6966,
      "ÑįÐ½ÑĤÐµÑĢ": 6967,
      "ÑįÐºÑĤ": 6968,
      "ÑįÐ¹ÑĤ": 6969,
      "Ð°Ð±Ð»ÐµÐ½Ð½Ð¾Ð³Ð¾": 6970,
      "Ð°Ð±ÐµÑĢÐµÐ¶": 6971,
      "Ð°Ð±Ð¸Ð»Ð¸ÑĤÐ°ÑĨÐ¸Ñı": 6972,
      "Ð°Ð±Ð¾ÑĩÐµÐµ": 6973,
      "ÑĢÐµÐ½Ð¾": 6974,
      "ÑĢÐµÐ½Ð¸": 6975,
      "ÐłÐµÐ¶": 6976,
      "ÐłÑĥÐºÐ¸": 6977,
      "ÐłÐĴÐ«": 6978,
      "ÐłÐµÐ°Ðº": 6979,
      "ÐłÐ¾Ð²Ð½Ð¾Ðµ": 6980,
      "ÐłÐ°ÑģÑĪÐ¸ÑĢÐµÐ½Ð¸Ðµ": 6981,
      "ÐłÐµÐ¼Ð¾Ð½": 6982,
      "ÐłÐµÐºÐ¾Ð¼ÐµÐ½Ð´ÑĥÑİ": 6983,
      "ÐłÐ¾ÑģÑģÐ¸Ñı": 6984,
      "ÐłÐ°Ð±Ð¾ÑĩÐµÐµ": 6985,
      "ing": 6986,
      "inkPad": 6987,
      "inten": 6988,
      "ĠÐ²ÑģÑİ": 6989,
      "ĠÐ²ÑģÐºÐ¸Ð¿": 6990,
      "ĠÑģÐ²ÐµÑĤÐ°": 6991,
      "ÑĥÑİÑģÑĮ": 6992,
      "ÑĥÑİÑĤÑģÑı": 6993,
      "ÑĢÐ°ÑģÐ½Ð°": 6994,
      "âĢĵ": 6995,
      "ĠÑįÑĢÐ¸ÑĤ": 6996,
      "ĠÑįÐ»ÐµÐ¼": 6997,
      "ĠÑįÐ¼Ð¾": 6998,
      "ĠÑįÐ¼Ð°Ð»Ð¸": 6999,
      "ÐŀÐ±ÑĢÐ°Ð·": 7000,
      "ÐŀÐ±ÑĥÐ²": 7001,
      "ÐŀÐ±ÑīÐ°Ñı": 7002,
      "ÐŀÐ±Ð¸Ð´Ð½Ð¾": 7003,
      "ÐŀÐ±ÑīÐ¸Ðµ": 7004,
      "ĠÐ»ÑİÐ±Ð¸ÑĤ": 7005,
      "ĠÐ»ÑİÐ±Ð¸ÑĤÑĮ": 7006,
      "ĠÐ»ÑİÐ±ÑĭÑħ": 7007,
      "ĠÐ»ÑİÐ±Ð¸Ð¼Ð¾Ð³Ð¾": 7008,
      "ĠÐ»ÑİÐ±Ð²Ð¸": 7009,
      "ÐĽÐµÐ½ÑĮ": 7010,
      "ÐĽÐ¤": 7011,
      "ÐĽÐ¾Ð½Ð´Ð¾Ð½": 7012,
      "ÐĽÐ¬": 7013,
      "ÐĽÐ¾Ð²Ð¸ÑĤ": 7014,
      "ĠÐ¿ÑĢÐ¾ÑĦÐµÑģÑģÐ¸Ð¾Ð½": 7015,
      "ĠÑĨÐµÐ¿": 7016,
      "ĠÑĨÐ¸ÑĦ": 7017,
      "ĠÐ²ÐµÑĩÐ½Ð°Ñı": 7018,
      "ĠÐ²ÐµÑĩÐ½ÐµÐµ": 7019,
      "ĠÑģÐ¼Ð¾ÑĤÑĢÐ¸ÑĤÑģÑı": 7020,
      "Ð¾Ð·Ð½ÑĭÐ¹": 7021,
      "Ð¾Ð·Ð½Ð°Ð½": 7022,
      "Ð¾Ð·Ð¼Ð¾Ð¶Ð½Ð¾": 7023,
      "ÐµÐ»ÑĮÐ½ÑĭÐ¹": 7024,
      "ÐµÐ»ÑĮÑģÑĤÐ²Ð°": 7025,
      "ĠÑĥÑĩÐ°ÑģÑĤ": 7026,
      "ĠÑĥÑĩÑĥÑģÑĮ": 7027,
      "ĠÑĥÑĩÐµÐ½Ð¸Ðº": 7028,
      "ĠÐ¸Ð´ÐµÐ°Ð»": 7029,
      "ĠÐ¸Ð´ÐµÐ°Ð»ÑĮÐ½Ð¾": 7030,
      "ÐĿÐ°ÑĪÑĳÐ»": 7031,
      "ÐµÐ²Ð¾Ð¹": 7032,
      "ÐµÐ²ÑĭÐµ": 7033,
      "ÐµÐ²Ð°ÐµÐ¼": 7034,
      "ÐµÐ¿Ð»Ðµ": 7035,
      "ÐµÐ¿ÐµÐ½Ð½Ð¾": 7036,
      "ÐŀÑĤÑģÑĥÑĤÑģÑĤÐ²Ð¸Ðµ": 7037,
      "ÐŀÑĤÐ²ÐµÑĤ": 7038,
      "ĠÐ·Ð°ÑĨÐµÐ½": 7039,
      "ĠÐ·Ð°ÑĪÐ»Ð°": 7040,
      "ĠÐ·Ð°ÑĥÑĩÐ¸Ð²Ð°Ð½Ð¸Ðµ": 7041,
      "ÑıÑĤÐ¸Ðµ": 7042,
      "ÑıÑĤÐ½ÑĭÐ¹": 7043,
      "ĠÐ´ÐµÐ»Ð°Ñħ": 7044,
      "ÑģÑĤÑĢÐ¾Ð¸ÑĤÐµÐ»ÑĮ": 7045,
      "ÑģÑĤÑĢÐ¾ÑįÐ½ÑĤÐµÑĢ": 7046,
      "Ð¸Ð»ÑĮÐ½Ð¸Ðº": 7047,
      "ÑģÑĤÑĢÐ¸Ñı": 7048,
      "ÑģÑĤÑĢÐ¾Ð½Ð°Ð²ÑĤÐ¾Ð¼": 7049,
      "ĠÑĢÐ°Ð·Ð±Ð¸": 7050,
      "ĠÑĢÐ°Ð·ÑĢÐ°Ð±Ð¾ÑĤ": 7051,
      "ĠÑĢÐ°Ð·ÑĢÑĥÑĪ": 7052,
      "ĠÑĢÐ°Ð·Ð»ÑĥÐºÐ¸": 7053,
      "ĠÑĢÐ°Ð·Ð¼Ð½Ð¾Ð¶": 7054,
      "ĠÑĢÐ°Ð·Ð³Ð¾Ð²Ð¾ÑĢ": 7055,
      "ĠÐ¾ÑĤÐ¾ÑĢ": 7056,
      "ĠÐ¸Ð·Ð½Ð°ÑĪÐ¸Ð²": 7057,
      "ĠÐ±ÑĢÐµÐ½Ð´Ñĭ": 7058,
      "ĠÐ¿ÑĢÐ¸Ð²ÑıÐ·": 7059,
      "ĠÐ¿ÑĢÐ¸Ð²ÐµÑģÑĤÐ¸": 7060,
      "ĠÐ¿ÑĢÐ¸Ð²Ð¸Ð²ÐºÐ°": 7061,
      "ÐĵÑĥÐ»Ñı": 7062,
      "ÐĵÐ¾ÑĤÐ¾Ð²": 7063,
      "ÐĵÑĢÐ°Ð¶": 7064,
      "ÐĵÑĢÐ°Ð½": 7065,
      "ÐĵÐŀÐĻ": 7066,
      "ÐĵÐ¸Ð³Ð¸ÐµÐ½Ð°": 7067,
      "ÐĵÐ¾Ð»Ð´ÐµÐ½": 7068,
      "ÐĵÑĢÑĥÑģÑĤÐ½Ð°Ñı": 7069,
      "ÐĵÐ°Ð·ÐµÑĤÑĥ": 7070,
      "ĠÐ²ÐµÑĩÐµÑĢÐ½Ð¸Ð¹": 7071,
      "ÑĥÐ»ÑıÐ½ÑĤ": 7072,
      "ÑĥÐ»ÑıÐµÐ¼ÑģÑı": 7073,
      "Ð¸Ð³Ð°": 7074,
      "Ð¸Ð³Ñĥ": 7075,
      "Ð¸Ð³ÐµÐ½Ð°": 7076,
      "Ð¸Ð³Ð³ÐµÑĢ": 7077,
      "Ð°Ð¼Ð¸ÑĩÐ½ÑĭÐ¹": 7078,
      "ÑĭÑĩÐ½Ð¾Ð³Ð¾": 7079,
      "ĠÐ½ÑĥÐ¶Ð½Ð°Ñı": 7080,
      "ĠÑģÐ»ÑĭÑĪÑĥ": 7081,
      "ĠÐ¿Ð¾Ð´Ð°Ð³": 7082,
      "ĠÐ¿Ð¾Ð´ÐµÑĢÐ¶": 7083,
      "ĠÐ¿Ð¾Ð´ÑĤÐ²ÐµÑĢÐ¶": 7084,
      "ĠÐ¿Ð¾Ð´Ð¾Ð¹Ð´": 7085,
      "ĠÐ¿Ð¾Ð´Ð½Ð¸Ð¼": 7086,
      "ĠÐ¿Ð¾Ð´ÐºÐ»ÑİÑĩ": 7087,
      "ĠÐ¿Ð¾Ð´ÐµÑĪÐµÐ²": 7088,
      "ĠÐ¿Ð¾Ð´Ð°Ð³ÑĢÑĥ": 7089,
      "ĠÐ¿Ð¾Ð´Ð²Ð¾Ð·": 7090,
      "ĠÐ¿Ð¾Ð´Ð¸ÑĥÐ¼": 7091,
      "ĠÐ¿Ð¾Ð´Ð¾Ð¶Ð´ÑĳÐ¼": 7092,
      "ĠÐ¿Ð¾Ð´ÑģÐµÐ»": 7093,
      "ĠÐ¿Ð¾Ð´Ð´Ð°Ð²Ð°ÑĤÑĮÑģÑı": 7094,
      "ĠÐ¿Ð¾Ð´Ð¾ÑĢÐ¾Ð¶": 7095,
      "ĠÐ¿Ð¾Ð´Ð¾Ð¶Ð´Ñĥ": 7096,
      "ĠÐ¿Ð¾Ð´Ð°Ð²Ð»ÐµÐ½": 7097,
      "ĠÐ¿Ð¾Ð´Ð¶Ð¸Ð¼": 7098,
      "ĠÐ¿Ð¾Ð´ÑĢÑĥÐ³Ð¸": 7099,
      "ĠSAR": 7100,
      "ĠSporta": 7101,
      "ĠStor": 7102,
      "ĠSubar": 7103,
      "ĠSonata": 7104,
      "ĠÑĨÐµÐ½Ðµ": 7105,
      "ĠÑĨÐµÐ½Ñİ": 7106,
      "ĠÑĨÐµÐ½Ð¸ÑĤÑĮ": 7107,
      "ĠÑĨÐµÐ½ÑıÑĤ": 7108,
      "ÑģÐºÐ¾Ð¹": 7109,
      "ĠÐ¿ÑĢÐ¸Ð²ÑĭÑĩÐ½ÑĭÐ¹": 7110,
      "ĠÐ¿ÑĢÐ¸Ð²ÑĭÑĩÐµÐº": 7111,
      "Ð½Ð°ÐºÐ¸": 7112,
      "ĠÐ³Ð¾ÑĢÐ°": 7113,
      "ĠÐ³Ð¾ÑĢÐ¾Ð¹": 7114,
      "ĠÐ³Ð¾ÑĢÑıÑĤ": 7115,
      "ĠÐ³Ð¾ÑĢÐ´Ð¾ÑģÑĤÑĮ": 7116,
      "ÐŁÑĢÐµÐ¿Ð°ÑĢÐ°ÑĤÑĭ": 7117,
      "ÐŁÑĢÐ¸ÐºÐ¾Ð»ÑĮ": 7118,
      "ÐŁÑĢÐ¸ÑģÐ¾ÐµÐ´Ð¸Ð½": 7119,
      "ÐŁÑĢÐ¾Ð³ÑĥÐ»": 7120,
      "ÐŁÑĢÐ¾Ð½Ð¸Ðº": 7121,
      "ĠÐºÐ¾Ð½ÑĮÐºÐ°Ñħ": 7122,
      "ĠÐ½Ð°ÑģÑĤÑĢÐ¾ÐµÐ½Ð¸ÐµÐ¼": 7123,
      "Ð½Ð°ÐºÐ¾Ð¼Ð»ÐµÐ½Ð¸Ðµ": 7124,
      "ÐĸÐ¸ÑĤÑĮ": 7125,
      "ÐĸÐ¸ÑĢÐ¾Ð²": 7126,
      "ÐĸÑĥÑĢÐ½Ð°Ð»": 7127,
      "ÐĸÐ´ÑĳÐ¼": 7128,
      "ÐĸÑĥÑĤÐºÐ¾": 7129,
      "ÐĸÐĶÐķÐĿ": 7130,
      "ÐĸÐ°ÑĢÐºÐ¾": 7131,
      "ÐĸÐ°Ð¶Ð´Ð°": 7132,
      "ĠAst": 7133,
      "ĠAss": 7134,
      "ĠAir": 7135,
      "ĠAliEx": 7136,
      "Ð½ÑıÐµÑĤ": 7137,
      "Ð½ÑıÐ¼": 7138,
      "Ð½ÑıÑĤÑĮ": 7139,
      "ĠÐ¿Ð¾Ð»Ð¾": 7140,
      "ĠÐ¿Ð¾Ð»Ð¾Ð²ÑĭÐµ": 7141,
      "ĠÐ¿Ð¾Ð»Ð½Ð¾ÑģÑĤÑĮÑİ": 7142,
      "ĠÐ¿Ð¾Ð»Ð³Ð¾Ð´Ð°": 7143,
      "ĠÐ¿Ð¾Ð»Ð´Ð½Ñı": 7144,
      "ĠÐ¿Ð¾Ð»Ð·Ð°ÑĢÐ¿Ð»Ð°ÑĤÑĭ": 7145,
      "ĠÐ¿Ð¾ÐºÐ°Ð¶ÐµÑĪÑĮ": 7146,
      "ĠÐ¿Ð¾ÐºÐ°ÑĤÐ°ÑĤÑĮÑģÑı": 7147,
      "ÐĶÐ¾Ð±ÑĢÐ¾": 7148,
      "ÐĹÐ°ÑħÐ¾ÑĤÐµÐ»": 7149,
      "ÐĹÐ°ÐµÐ·Ð¶Ð°Ð¹": 7150,
      "ĠÐŁÐļ": 7151,
      "ĠÐŁÑĢÐ¸Ð²ÐµÑĤ": 7152,
      "ĠÐ¸Ð³ÑĢÐ¾Ðº": 7153,
      "ĠÐ¸Ð³ÑĢÐ°Ñİ": 7154,
      "ĠÐ¸Ð³ÑĢÑĭ": 7155,
      "ĠÐ¸Ð³Ð¾Ð»ÐºÐ¸": 7156,
      "Ð¡Ð»Ð¾Ð²Ð°": 7157,
      "Ð¡Ð»ÐµÐ´Ð¾Ð²Ð°ÑĤÑĮ": 7158,
      "ÐµÑĩÐ½Ð¾ÑģÑĤÐ¸": 7159,
      "ĠÐ±ÑĥÐ´Ð¸Ð»ÑĮÐ½Ð¸Ðº": 7160,
      "ÑħÐ¾Ð´Ð°": 7161,
      "ĠTuc": 7162,
      "ÑĭÐ²Ð°ÐµÑĪÑĮ": 7163,
      "ÑĭÐ²Ð°Ð½Ð¸Ðµ": 7164,
      "ÑĭÐ²Ð°ÑİÑĤÑģÑı": 7165,
      "ĠÐĶÐ°Ð²Ð½Ð¾": 7166,
      "ĠÐĶÑĥÐ±": 7167,
      "ĠÐĶÐķÐĿ": 7168,
      "ĠÐĶÐŀÐĽ": 7169,
      "ĠÐĶÐ¶Ð¾Ðº": 7170,
      "ĠÑģÐºÐ¾Ð²Ð°Ð½": 7171,
      "ĠÑģÐºÐ°Ð·Ð°": 7172,
      "ĠÑģÐºÐ°Ð·Ð°ÑĤÑĮ": 7173,
      "ĠÑģÐºÑĢÑĭÑĤ": 7174,
      "ĠÑģÐºÐ»Ð¾Ð½": 7175,
      "ĠÑģÐºÐ¾ÑĤÑĩÐµ": 7176,
      "ĠÑģÐºÐ²Ð¾Ð·ÑĮ": 7177,
      "Ð°Ð»ÑĮÐ½ÐµÐµ": 7178,
      "Ð°Ð»ÑĮÐ½Ð¾Ð¹": 7179,
      "Ð°Ð»ÑĮÐ½ÑĭÐ¼": 7180,
      "Ð°Ð»ÑĮÐ³Ð¸Ñı": 7181,
      "Ð¸ÑĨÐµ": 7182,
      "Ð¸ÑĨÐ¸Ð¸": 7183,
      "Ð¸ÑĨÐ¸Ð°Ð½ÑĤ": 7184,
      "Ð¸ÑĨÐ¸ÑĤÐ¾Ð¼": 7185,
      "ÑĤÑĢÐ¾Ð»ÑĮ": 7186,
      "ÑĤÑĢÐ¸Ð¿": 7187,
      "ÑĤÑĢÐ°ÐºÑĨ": 7188,
      "ÑĤÑĢÐ¸Ð³Ð°": 7189,
      "ÑĤÑĢÐ°Ð»ÑĮÐ½Ð¾Ð¹": 7190,
      "Ð¸ÑĢÐ¾Ð²Ð°Ð½Ð¸Ðµ": 7191,
      "ĠÑģÐ°Ð¼Ð¾Ð³Ð¾": 7192,
      "ĠÑģÐ°Ð¼Ð¾Ð¶Ð°Ð»": 7193,
      "ĠÑģÐ°Ð¼Ð¾ÑģÑĤÐ¾ÑıÑĤ": 7194,
      "ĠÐºÑĥÐ¿Ð»Ñİ": 7195,
      "ÑĥÐ»Ñĭ": 7196,
      "ÑĥÐ»Ð»Ð·": 7197,
      "Ð¾Ð»Ð¾Ð³Ð¾Ð¼": 7198,
      "Ð°Ð³ÐµÐ½Ðµ": 7199,
      "Ð°Ð½ÑĤÑĭ": 7200,
      "ĠÐ»ÐµÑĩÐ¸ÑĤÑĮÑģÑı": 7201,
      "ĠÐ»ÐµÑĩÐµÐ½Ð¸Ñı": 7202,
      "ĠÐ¿Ð»Ð°Ð²Ð½Ð¾": 7203,
      "ĠÐ¿Ð»Ð°Ð²Ð¸Ð»ÑģÑı": 7204,
      "ĠÐ²ÑĢÐ°ÑĩÐ¸": 7205,
      "Ð¡Ð¿Ð°Ð»": 7206,
      "Ð¡Ð¿Ð¾ÑĢÑĤ": 7207,
      "Ð¡Ð¿Ð¸Ð½Ñĥ": 7208,
      "Ð¡Ð¿Ð¾ÑģÐ¾Ð±": 7209,
      "ÑĥÑĪÐºÐµ": 7210,
      "ÑĥÑĪÐ¸Ð²Ð°Ð½Ð¸Ðµ": 7211,
      "ĠÐ½Ð°Ð´ÐµÑı": 7212,
      "ĠÐ½Ð°Ð´ÐµÑİÑģÑĮ": 7213,
      "ĠÐºÐ»Ð°ÑģÑģÐ¸ÐºÐ¸": 7214,
      "ÑĢÐ°Ð»Ð¸ÑģÑĮ": 7215,
      "ĠRal": 7216,
      "ĠRaz": 7217,
      "ĠRoblo": 7218,
      "ĠÐ¾Ð½Ð¾": 7219,
      "ĠÐ¾Ð½ÐºÐ¾Ð»Ð¾Ð³": 7220,
      "ĠÐ·Ð°Ð½Ð¾Ð²Ð¾": 7221,
      "ĠÐ·Ð½Ð°ÐºÐ¾Ð¼Ð°": 7222,
      "ĠÐ·Ð½Ð°ÐºÐ¾Ð¼Ð¾Ð¹": 7223,
      "ĠÐ·Ð½Ð°ÐºÐ¾Ð¼Ð°Ñı": 7224,
      "ĠÐ·Ð½Ð°ÐºÐ¾Ð¼ÑĭÐµ": 7225,
      "ÑĥÑīÐ¸Ð¹": 7226,
      "Ð¸Ð¶ÐµÐ½Ð¸Ñı": 7227,
      "ĠÐ¿Ð°ÑĢÐºÐ°": 7228,
      "ĠÐ¿Ð°ÑĢÐºÑĥ": 7229,
      "ĠÐ¿Ð°ÑĢÑĦÑİÐ¼": 7230,
      "ĠÑģÐ²Ð¾Ð¸Ð¼Ð¸": 7231,
      "Ð¤ÑĢÐ¾Ð½": 7232,
      "Ð¤ÑĢÐ°Ð½": 7233,
      "Ð¤Ð°Ð½Ð°ÑĤ": 7234,
      "Ð¤ÑĥÑĤÑĥÑĢ": 7235,
      "ĠMeg": 7236,
      "ĠÐ´Ð¾ÑĢÐ¾Ð¶Ð°ÐµÑĤ": 7237,
      "avel": 7238,
      "ÑĥÐºÑĤÑĭ": 7239,
      "ÐµÐ¶Ð´Ð°": 7240,
      "ÐµÐ¶ÐµÑģÑĤÐ²Ð¾": 7241,
      "ĠÐ¿Ð¾ÑģÐ¾Ð²ÐµÑĤ": 7242,
      "ÑĥÐ»ÑıÑĢÐ½ÑĥÑİ": 7243,
      "ĠÐ³Ð¾ÑĢÐ¾Ð´ÑģÐºÐ¾Ð¹": 7244,
      "ÐŃÐ¼": 7245,
      "ÐŃÑĦÑĦ": 7246,
      "ĠCam": 7247,
      "ĠCode": 7248,
      "ĠCal": 7249,
      "ĠCoun": 7250,
      "ĠCreed": 7251,
      "ĠConver": 7252,
      "ĠÐ´ÑĢÑĥÐ³Ð°Ñı": 7253,
      "ĠÐ´ÑĢÑĥÐ³Ð¸Ð¼Ð¸": 7254,
      "Ð¸ÑĩÐµÑģÑĤÐ²Ð¾": 7255,
      "ÑĥÑĢÑĨÑĭ": 7256,
      "Ð´ÑĥÑģÑĤÑĢÐ¸Ñı": 7257,
      "ÐŁÑĢÐ¾ÑĪÑĳÐ»": 7258,
      "ÐŁÑĢÐ¾Ð¸Ð³ÑĢ": 7259,
      "ÐŁÑĢÐ¾ÑĤÐ¸Ð²": 7260,
      "ÐŁÑĢÐ¾ÑĦÐµÑģÑģÐ¸Ð¾Ð½": 7261,
      "ÐµÐ´Ð»Ð¸Ð²Ð¾": 7262,
      "ption": 7263,
      "ÐµÑıÐ»Ð¾": 7264,
      "ÐĺÐ½Ð½Ð¾Ð²Ð°": 7265,
      "ÐĺÐ½ÑĤÑĢÐ¸Ð³Ð°": 7266,
      "ĠÐ±Ð¾Ð»ÑĮÑİ": 7267,
      "ĠÐ±Ð¾Ð»ÑĮÐ½ÑĭÐ¼Ð¸": 7268,
      "Ð¾ÑĢÑĤÐ¸Ð»": 7269,
      "ĠÑģÑĤÐ°ÑĢÐ¾Ð³Ð¾": 7270,
      "ĠÑģÑĤÐ°ÑĢÑĭÐµ": 7271,
      "ĠÑģÑĤÐ°ÑĢÐµÑİ": 7272,
      "ĠÑģÑĤÐ°ÑĢÐ°Ð»ÑģÑı": 7273,
      "ĠÑģÑĤÐ°ÑĢÑĭÐ¼Ð¸": 7274,
      "ĠÑģÑĤÐ°ÑĢÐµÐ½ÑĮÐºÐ¸Ð¹": 7275,
      "ĠÐ¾Ð¿ÑĢÐµÐ´ÐµÐ»ÑĳÐ½": 7276,
      "Ð¸ÑħÐ¾Ð½ÑĮ": 7277,
      "Ð¸ÑĢÑĥÐ¹": 7278,
      "ĠÐ¿ÐµÑĢÐµÐ´Ð°": 7279,
      "ĠÐ¿ÐµÑĢÐµÐµÐ´": 7280,
      "ĠÐ¿ÐµÑĢÐµÑĢÑĭÐ²": 7281,
      "ĠÐ½Ð¾ÑĢÐ¼Ñĭ": 7282,
      "ĠÐ½Ð¾ÑĢÐ¼Ð°Ð»ÑĮÐ½ÑĭÐµ": 7283,
      "ÐļÐ¾Ð½ÑĤÑĢÐ¾Ð»ÑĮ": 7284,
      "ĠÐ°ÑģÑĤÑĢÐ¾Ð½Ð°Ð²ÑĤÐ¾Ð¼": 7285,
      "ÑıÐ¶ÐµÐ½Ð¸Ð¸": 7286,
      "Ð¡ÐºÐ°Ð·Ð¾ÑĩÐ½ÑĭÐ¹": 7287,
      "ĠÐ¼ÐµÑĩÑĤÐ°": 7288,
      "ĠÐ¼ÐµÑĩÑĤÐ¾Ð¹": 7289,
      "ÐµÐºÑĤÐµ": 7290,
      "ĠÐĳÑĢÑĥÐº": 7291,
      "ĠÐĳÑĥÐ»Ð»Ð·": 7292,
      "ĠÐ¿Ð¾Ð½ÑĢÐ°Ð²Ð¸ÑĤÑģÑı": 7293,
      "ĠÐ¿Ð¾Ð½ÑĤÑĭ": 7294,
      "ĠÐ¿Ð¾Ð½Ð¸Ð·Ð¸ÑĤÑĮ": 7295,
      "ĠÐ¿Ð¾Ð½ÐµÐ¼Ð½Ð¾Ð³Ñĥ": 7296,
      "ĠÐ¿Ð¾Ð½ÑıÑĤÐ½ÑĭÐ¹": 7297,
      "ĠÐ½Ð°ÑģÑĭÑī": 7298,
      "ĠÑĤÐµÐ»ÐµÐ²Ð¸Ð·": 7299,
      "ĠÐ¸Ð½Ð³Ð°Ð»": 7300,
      "ĠÐ¸Ð½ÑĤÐµÐ»Ð»": 7301,
      "ĠÐ¸Ð½Ð¾Ð¿Ð»Ð°Ð½ÐµÑĤ": 7302,
      "ĠÐ¸Ð½Ð´ÑĥÑģÑĤÑĢÐ¸Ñı": 7303,
      "ĠÐ¿ÑĢÐ¸ÑħÐ¾Ð´Ð¸ÑĤ": 7304,
      "ĠÐ¿ÑĢÐ¸ÑħÐ¾Ð´Ð¸ÑĤÑĮ": 7305,
      "ĠÐ¿ÑĢÐ¸Ð½Ð¾ÑģÐ¸ÑĤ": 7306,
      "ĠÐ¿ÑĢÐ¸ÑĥÑĩÐ¸ÑĤÑĮ": 7307,
      "ĠÐ½Ð¾ÑĥÑĤÐ±ÑĥÐºÐ¸": 7308,
      "ÐµÐ·Ð´Ð¸Ð»": 7309,
      "Ð°ÑĩÐµÐ¹": 7310,
      "ĠÐ¿Ð¸ÑĪÐ¸": 7311,
      "ĠÐ¿Ð¸ÑĪÐµÑĤ": 7312,
      "ĠÐ¿Ð¸ÑĪÑĥÑĤ": 7313,
      "ÑĢÐ°ÑĤÐ¾Ð¹": 7314,
      "ÑĢÐ°ÑĤÐ¸ÑĤÑĮ": 7315,
      "acost": 7316,
      "ess": 7317,
      "ĠLar": 7318,
      "ĠLau": 7319,
      "ĠLev": 7320,
      "ĠLeg": 7321,
      "ĠLexus": 7322,
      "ĠLacost": 7323,
      "ÑıÐ·ÐºÑĥ": 7324,
      "ÐµÑĤÑĮÑİ": 7325,
      "ÐµÑĢÐ¶Ð°Ð»Ð°": 7326,
      "ÐµÑĢÐ¶Ð¸Ð²Ð°ÑĤÑĮÑģÑı": 7327,
      "ĠÑģÑĢÐ¾ÐºÐ¸": 7328,
      "ÑĤÐ¾ÑĢÐ¸Ð¸": 7329,
      "Ð´ÐµÐ»ÑıÑĤÑĮ": 7330,
      "ÐĿÐ°Ð´Ð°Ð»ÑĮ": 7331,
      "ÐĿÐ°Ð´Ð¾Ð»Ð³Ð¾": 7332,
      "ÑĳÐ»Ð°Ñı": 7333,
      "ĠÐ¿ÑĢÐ¾ÑģÑĤÐ¸": 7334,
      "ĠÐ¿ÑĢÐ¾ÑģÑĤÐ¾Ð³Ð¾": 7335,
      "ĠÐ¿ÑĢÐ¾ÑģÑĤÑĭÐ¼": 7336,
      "ĠÐ¿ÑĢÐ¾ÑģÑĤÐ¾ÑĢÐ½ÑĭÐ¹": 7337,
      "ĠÐ°Ð½ÐµÐ¼Ð¸Ñı": 7338,
      "ĠÐłÐµÐ°Ð»Ð°": 7339,
      "ĠÐłÐ¾Ð½Ð°Ð»Ð´Ñĥ": 7340,
      "ĠÑģÐµÑĢÐ¸Ð¸": 7341,
      "ĠÑģÐµÑĢÐ²ÐµÑĢ": 7342,
      "ĠÑģÐµÑĢÐ¸Ð°Ð»ÑĮ": 7343,
      "ĠÑģÐµÑĢÑĤÐ¸ÑĦÐ¸ÐºÐ°ÑĤ": 7344,
      "ĠNVID": 7345,
      "ĠNiss": 7346,
      "ĠNinten": 7347,
      "ÐµÑĪÐ½ÑĭÐ¹": 7348,
      "ĠÑģÐ¼ÐµÑħ": 7349,
      "ĠÑģÐ¼ÐµÑĤÑĥ": 7350,
      "ĠÐ·Ð°ÐºÐ¾Ð½": 7351,
      "ĠÐ·Ð°ÐºÑĢÑĭ": 7352,
      "ĠÐ·Ð°ÐºÐ°Ð»Ð¸Ð²Ð°Ð½Ð¸Ðµ": 7353,
      "ĠÐ¿Ð¾ÐµÐ·Ð´Ð¾Ðº": 7354,
      "ĠÐ¿Ð¾ÐµÐ·Ð´ÐºÐ¸": 7355,
      "ĠKFC": 7356,
      "ĠKing": 7357,
      "ĠÐ¿Ð¸ÑģÐ°ÑĤÐµÐ»ÑĮ": 7358,
      "ĠÐºÑĢÐ°ÑģÐ¸Ð²ÑĭÑħ": 7359,
      "Ð²Ð¾ÐµÐ½Ð¸Ðµ": 7360,
      "ĠÐ¼Ð¸Ð½ÑĥÑģ": 7361,
      "ĠÐ°Ð¿Ð³ÑĢ": 7362,
      "Ð°ÑĪÐ½Ñİ": 7363,
      "Ð½ÑĮÑİ": 7364,
      "ÑģÑĤÐ°Ð²Ð¸ÑĤÑĮ": 7365,
      "ĠÑĦÐ¸Ð»ÑĮÐ¼Ñĭ": 7366,
      "ĠÑĦÐ¸Ð»ÑĮÐ¼Ð°Ñħ": 7367,
      "Ð¡Ð»Ð¾Ð¶Ð½Ð¾ÑģÑĤÐ¸": 7368,
      "ĠÑİÐ¼Ð¾ÑĢ": 7369,
      "Ð½Ð¸ÐºÐ°Ð¼": 7370,
      "ĠÐ½ÐµÐ´Ð¾ÑĢÐ¾Ð³Ð¾": 7371,
      "ĠÐ½ÐµÐ´Ð¾ÑģÑĤÐ°ÑĤÐ¾ÑĩÐ½Ð¾": 7372,
      "ĠÐ´Ð¾ÑħÐ¾Ð´Ð°": 7373,
      "ĠÐ·Ð°Ð½ÑıÑĤÑĭ": 7374,
      "ĠÐ·Ð°Ð½ÑıÑĤÐ¸Ðµ": 7375,
      "ĠÑĤÐµÐ»ÐµÑĦÐ¾Ð½Ð¾Ð¼": 7376,
      "ĠÑĪÐµÑģÑĤÐ¸": 7377,
      "ĠÑĪÐ¾Ñĥ": 7378,
      "ĠÑĪÐµÑĢÑģÑĤÑĮ": 7379,
      "ĠÐ´Ð°ÑĳÑĤ": 7380,
      "ĠÑĥÐ¶Ð¸Ð½Ð°ÑĤÑĮ": 7381,
      "Ð½Ð°ÑĩÐµÐ½Ð¸Ðµ": 7382,
      "ĠÑģÐ¿Ð¾ÑĢÑĤÐ°": 7383,
      "ĠÑģÐ¿Ð¾ÑĢÑĤÑģÐ¼ÐµÐ½": 7384,
      "ĠÑģÐ¿Ð¾ÑĢÑĤÐ´Ð½ÐµÐ²": 7385,
      "ĠÑıÐ·ÑĭÐºÐ°Ð¼": 7386,
      "ĠÑİÑĢÐ¸ÑģÑĤÑĭ": 7387,
      "ĠÑİÑĢÐ¸ÑģÑĤÐ¾Ð¼": 7388,
      "ĠÐ²Ð¿ÐµÑĩÐ°ÑĤÐ»ÑıÑİÑĤ": 7389,
      "ĠÐ¡ÑĩÑĳÑĤ": 7390,
      "ĠÐ¡Ð½ÐµÐ¶": 7391,
      "ĠÐ¡Ð¢ÐĲÐł": 7392,
      "ĠÐ¡Ð°Ð½ÑĤÐ¾ÑĢ": 7393,
      "ĠÐ¡Ð¸ÑĤÐ¸": 7394,
      "ĠÐ¡Ð°Ð¼ÑģÑĥ": 7395,
      "Ð¸Ð½Ð°ÑİÑĤ": 7396,
      "Ð¸Ð½Ð°ÑĨÐ¸Ñı": 7397,
      "ĠÐ²ÐµÑĢÐ¸ÑĤÑĮ": 7398,
      "ĠÐ²ÐµÑĢÐ½ÑĳÐ¼": 7399,
      "Ð¼ÐµÐ½ÑĤ": 7400,
      "Ð¼ÐµÐ½ÐµÐ´Ð¶": 7401,
      "ĠÐºÐ¾Ð»Ð»ÐµÐºÑĨÐ¸Ñı": 7402,
      "ÐĿÐµÐ¸Ð·Ð²ÐµÑģÑĤ": 7403,
      "ĠÐ¿ÑĢÐ¾Ð±Ñĭ": 7404,
      "ĠÐ¿ÑĢÐ¾Ð±ÑĥÑİ": 7405,
      "ĠÐ¿ÑĢÐ¾Ð±Ð¸Ð¾ÑĤ": 7406,
      "ĠÐ¿ÑĢÐ¾Ð±Ð»ÐµÐ¼": 7407,
      "ĠÐ¿ÑĢÐ¾Ð±ÐºÐ°Ñħ": 7408,
      "ĠÐ¿ÑĢÐ¾Ð±ÑĥÐ¶Ð´ÐµÐ½Ð¸Ñı": 7409,
      "ĠÑįÑĤÑĥ": 7410,
      "ĠÐ¾ÑĤÐ²ÐµÑĤÑĭ": 7411,
      "ÐĽÑİÐ±Ð¸Ð¼Ð¾Ð³Ð¾": 7412,
      "ÐĽÑİÐ±Ð¸Ð¼Ð°Ñı": 7413,
      "ĠÐ¿Ð¾Ð»ÐµÐ·Ð½Ñĭ": 7414,
      "ĠÐ¿Ð¾Ð»ÐµÐ·Ð½Ð°Ñı": 7415,
      "ĠÐ¿Ð¾Ð»ÐµÐ·Ð½ÑĥÑİ": 7416,
      "ĠÑĤÐµÑħÐ½Ð¸ÐºÐ¸": 7417,
      "ĠÐĿÐµÑĤ": 7418,
      "ĠÐĿÐ¥ÐĽ": 7419,
      "ĠÐĿÐ¾Ñĥ": 7420,
      "ĠÐĿÐ°Ð±ÐµÑĢÐµÐ¶": 7421,
      "ÑĤÐ°ÐºÑĤÐ¸ÐºÐ°": 7422,
      "ĠÐ²Ð·Ð»ÐµÑĤ": 7423,
      "ĠÐ²Ð·Ð»ÑĳÑĤ": 7424,
      "ĠÐ²Ð·ÑıÐ»Ð¸": 7425,
      "ĠÑģÐ½Ð¸ÑĤÑĮÑģÑı": 7426,
      "ĠÑģÐ½Ð¸ÑĤÑģÑı": 7427,
      "ĠÑģÐ½ÑıÑĤÑģÑı": 7428,
      "ĠÑģÐ½Ð¸Ð¼Ð°ÑĤÑĮ": 7429,
      "ĠÑģÐ½Ð¸Ð¼Ð°ÐµÑĪÑĮ": 7430,
      "ĠÑģÐ½Ð¸Ð¶ÐµÐ½Ð¸Ñı": 7431,
      "ĠÑĤÐµÑģÑĤÐ¸ÑĢÑĥÑİ": 7432,
      "ĠÐ¿ÑĢÐ¾Ð³ÑĢÐ°Ð¼Ð¼Ð¸ÑģÑĤÑĭ": 7433,
      "ĠÐ¿ÑĢÐ¾Ð³ÑĢÐ°Ð¼Ð¼Ð¸ÑģÑĤÐ¾Ð¼": 7434,
      "ĠÑĢÐ°ÑģÑģÑĤÐ°Ð»": 7435,
      "ĠÑĢÐ°ÑģÑģÑĤÑĢÐ¾Ð¹": 7436,
      "ĠÑĦÑĥÑĤÐ±Ð¾Ð»Ð°": 7437,
      "ĠÑĦÑĥÑĤÐ±Ð¾Ð»Ð¾Ð¼": 7438,
      "ĠÑĦÑĥÑĤÐ±Ð¾Ð»Ð¸ÑģÑĤ": 7439,
      "ĠÐ½Ð°Ð´Ð¾ÐµÐ»": 7440,
      "ĠÐ¿ÑĢÐ°Ð²Ð¾Ðº": 7441,
      "ĠÐ¿ÑĢÐ°Ð²Ð¸Ð»ÑĮÐ½ÑĭÐ¹": 7442,
      "ĠÐ¿ÑĢÐ°Ð²Ð´Ð¸Ð²": 7443,
      "ĠÐ²Ð°ÑĢÑİ": 7444,
      "ĠÑģÐ´ÐµÐ»Ð°Ð¹": 7445,
      "ĠÑģÐ´ÐµÐ»Ð°Ð»Ð¸": 7446,
      "ÐµÐ½ÑĤÐ°Ð¼Ð¸": 7447,
      "ĠÐ¾ÑĦÐ¸ÑĨÐ¸Ð°Ð½ÑĤ": 7448,
      "ĠÐºÐ¾Ð½ÑĤÐ°ÐºÑĤÐ°": 7449,
      "ĠÐºÐ¾Ð½ÑĤÐ°ÐºÑĤÑĭ": 7450,
      "ĠÐ¿Ð¾ÐºÑĥÐ¿Ð°Ð¹": 7451,
      "ĠÐ¿Ð¾ÐºÑĥÐ¿Ð°ÐµÐ¼": 7452,
      "Ð°ÐµÐ¼Ð¾Ðµ": 7453,
      "ĠÐľÑĭ": 7454,
      "ĠÐľÐ¾ÑĢÐµ": 7455,
      "ĠÐľÐ°ÐºÐºÐ°": 7456,
      "ĠÐľÑİÐ½Ñħ": 7457,
      "ĠÐľÐ¾Ð½ÑĢÐµ": 7458,
      "ĠÐ´Ð¸Ð·Ð°Ð¹Ð½Ñĥ": 7459,
      "ĠÐ³Ð¾ÑĤÐ¾Ð²Ð¾": 7460,
      "ĠÐ³Ð¾ÑĤÐ¾Ð²Ð¸Ð»": 7461,
      "ĠÐ³Ð¾ÑĤÐ¾Ð²ÑĭÐ¹": 7462,
      "ĠÐ³Ð¾ÑĤÐ¾Ð²Ð¸ÑĤÑĮÑģÑı": 7463,
      "ÐĳÐ¾Ð»ÐµÐ»Ð¾": 7464,
      "ÐĳÐ¾Ð»ÐµÐ»ÑĮÑīÐ¸Ðº": 7465,
      "ÐĳÐ¾Ð»ÐµÐ·Ð½ÑĮ": 7466,
      "ĠSwitch": 7467,
      "ĠÑģÐºÐ¸Ð½Ñĥ": 7468,
      "line": 7469,
      "ĠÑĤÐ¾ÑĤ": 7470,
      "ĠÑĤÐ¾ÑĩÐ½Ñı": 7471,
      "ĠÑĤÐ¾ÑĪÐ½Ð¾": 7472,
      "ĠÐ´Ð¾Ð±ÑĢÐ°": 7473,
      "ĠÐ´Ð¾Ð±Ð¸ÑĢÐ°ÑĤÑĮ": 7474,
      "ĠÐ´Ð¾Ð±ÑĢÑĭÐ¼": 7475,
      "ĠÐ´Ð¾Ð±ÑĢÑĭÐµ": 7476,
      "ĠÑĤÑĢÐ°ÐºÑĤÐ¾ÑĢ": 7477,
      "ĠÑĤÑĢÐ¸Ð³Ð³ÐµÑĢ": 7478,
      "ĠÑĤÑĢÐµÑĤÑĮÑİ": 7479,
      "ĠÑĥÐ´Ð¾Ð±Ð½Ð°Ñı": 7480,
      "ĠÐ»ÐµÐ³ÐµÐ½Ð´": 7481,
      "ĠÐ»ÐµÐ³ÐµÐ½Ð´Ð°": 7482,
      "ĠÐ¾ÑĤÐ²ÐµÑĤÑģÑĤÐ²ÐµÐ½Ð½Ð¾Ðµ": 7483,
      "ĠÐ¾ÑĤÐ²ÐµÑĤÑģÑĤÐ²ÐµÐ½Ð½Ð°Ñı": 7484,
      "ĠÐ¾ÑĤÐ²ÐµÑĤÑģÑĤÐ²ÐµÐ½Ð½Ð¾ÑģÑĤÐ¸": 7485,
      "ĠÐ§Ð¸ÐºÐ°Ð³": 7486,
      "ĠÐĴÐµÐ´ÑĮÐ¼": 7487,
      "ĠÐĴÐ¸ÑģÐ»Ñĭ": 7488,
      "ĠÐ¿Ð¾Ð¼Ð¾Ð³Ð°ÐµÑĪÑĮ": 7489,
      "ĠÐ¿Ð¾Ð¼Ð¾Ð³ÑĥÑĤ": 7490,
      "ĠÐ¿Ð¾Ð¼Ð¾Ð³Ð°ÐµÐ¼": 7491,
      "ĠÐ¿Ð¾Ð¼Ð¾Ð³Ð»Ð°": 7492,
      "ĠÐ±ÐµÑĢÐ¸": 7493,
      "ĠÐ±ÐµÑĢÐµÐ³Ñĥ": 7494,
      "ĠÐ²ÑĭÐ±ÑĢÐ°Ð»": 7495,
      "ĠÐ¾ÑĤÐ´ÑĭÑħÐ°Ð»": 7496,
      "Ð¾Ð»ÑĮÐ·Ð¾Ð²Ð°ÑĤÑĮ": 7497,
      "ÐŁÑĢÐ¸Ð½ÑıÑĤÑĮ": 7498,
      "ÐŁÑĢÐ¸Ð½ÑıÑĤÐ¸Ðµ": 7499,
      "ĠÐĽÐ¸ÑĪÑĮ": 7500,
      "ĠÐĽÐµÐ½Ð¸Ð½Ð°": 7501,
      "Ð¸Ð°Ð»Ð¸ÑģÑĤ": 7502,
      "Ð¸Ð°Ð»Ð¸Ð·Ð°ÑĨÐ¸Ñı": 7503,
      "ĠÐ²ÐºÑĥÑģÐ½ÑĭÐµ": 7504,
      "ĠÐ²ÐºÑĥÑģÐ½Ð¾Ðµ": 7505,
      "ÑİÑĤÑģÑı": 7506,
      "ĠÐ¸ÑģÐ¿Ð¾ÑĢÑĤÐ¸Ð»": 7507,
      "ĠÐ¼ÐµÐ½ÑıÐµÑĪÑĮ": 7508,
      "ĠÐ·Ð°Ð¿ÑĥÑģÑĤ": 7509,
      "ĠÐ·Ð°Ð¿ÑĢÐµÑī": 7510,
      "ĠÑģÑĤÑĢÐ¸Ð³Ñĥ": 7511,
      "ÑĤÑĢÐ¾Ð¼Ð¾Ð±Ð¸Ð»ÑĮ": 7512,
      "ÑĥÐ»ÑĮÑĤÐ¸ÑĢÑĥÐµÑĤ": 7513,
      "ĠÐ¾Ð¿ÐµÑĢÐ¸ÑĢÐ¾Ð²": 7514,
      "ĠÐ¾Ð¿Ð°Ð·Ð´ÑĭÐ²": 7515,
      "ĠÐ¥Ð¾ÑĩÑĥ": 7516,
      "ÑĭÑĤÐ¸Ð¹": 7517,
      "ÑĭÑĤÐºÑĥ": 7518,
      "ÑĭÑĤÐºÐµ": 7519,
      "ĠÐ¿ÑıÑĤÐ½Ð°": 7520,
      "ĠÐ¿Ð¾Ð¿ÑĢÐ¾Ð±ÑĥÐµÑĪÑĮ": 7521,
      "Ð´Ð¸Ð¾Ð·Ð½ÑĭÐ¹": 7522,
      "ĠÐ´ÐµÑĤÑģÑĤÐ²Ð°": 7523,
      "ĠÐºÐ½Ð¸Ð³Ð°": 7524,
      "ÐŁÐ¾ÑįÑĤÐ¾Ð¼Ñĥ": 7525,
      "ÐŁÐ¾ÐµÐ´ÐµÐ¼": 7526,
      "ĠÐ¸Ð½ÑĤÐµÑĢÑĮÐµÑĢ": 7527,
      "ĠÐ¿ÑĢÐ¾ÐµÐºÑĤÐµ": 7528,
      "ĠÐ¿ÑĢÐ¾ÐµÐºÑĤÑĭ": 7529,
      "ĠÐ¿ÑĢÐ¾ÐµÐºÑĤÐ¾Ð¼": 7530,
      "ĠÐ¿ÑĢÐ¾ÐµÐºÑĤÐ°Ñħ": 7531,
      "ÐĴÑĭÐ±Ð¾ÑĢ": 7532,
      "ÐĴÑĭÐ´ÐµÐ»ÑıÑĤÑĮ": 7533,
      "Ð°ÑĨÐ¸Ð¸": 7534,
      "Ð°ÑĨÐ¸Ð´Ñĭ": 7535,
      "Ð°ÑģÑĤÑĮÐµ": 7536,
      "ĠÐļÐ¾Ð»Ð¸Ð·": 7537,
      "ĠÐļÐ¾Ð¿ÐµÐ½Ð³": 7538,
      "ÑĥÐ±Ð¾ÐºÐ¾": 7539,
      "ĠÐ´Ð¾ÑģÑĤÐ°ÑĤÐ¾": 7540,
      "ĠÐºÐ¾Ð¼Ð¿Ð»": 7541,
      "ĠÐ±ÐµÐ·ÑĢÐ°Ð±Ð¾ÑĤ": 7542,
      "ĠÑĥÑĤÑĢÐ°ÑĤÐ¾Ð¹": 7543,
      "ĠÑĥÐ±Ð¸ÑĢÐ°ÑĤÑĮ": 7544,
      "ĠÑĥÐ±Ð¸Ð²Ð°ÑİÑĤ": 7545,
      "ĠÑĥÐ±Ð¾ÑĢÐºÐ°": 7546,
      "ĠÑģÐ²Ð¾Ð±Ð¾Ð´Ð°": 7547,
      "ĠÑģÐ²Ð¾Ð±Ð¾Ð´Ð½ÑĭÐ¹": 7548,
      "ĠÑģÐ²Ð¾Ð±Ð¾Ð´Ð½Ð¾Ð¹": 7549,
      "ĠÐ¿ÑĢÐ¾ÑģÑĤÑĥÐ´Ðµ": 7550,
      "ĠÐ¿ÑĢÐ¾ÑģÑĤÑĥÐ´Ñĥ": 7551,
      "ĠÐ¿ÑĢÐ¾ÑģÑĤÑĥÐ´Ñĭ": 7552,
      "ĠÐ¸Ð½ÑĤÐµÑĢÐ½ÐµÑĤÐ¾Ð¼": 7553,
      "ĠÐ¿Ð¾ÑĤÐ»Ð¸Ð²": 7554,
      "ĠÐ¿Ð¾ÑĤÐµÐ¿Ð»Ðµ": 7555,
      "ĠÐ¿Ð¾ÑĤÐ¸ÑħÐ¾Ð½ÑĮ": 7556,
      "ĠÐºÑĢÑĥÑĤÐ¾Ðµ": 7557,
      "ÐĿÑĥÐ¶ÐµÐ½": 7558,
      "ĠÑĢÐ°Ð´Ð¾Ð²Ð°ÑĤÑĮÑģÑı": 7559,
      "ĠÑĢÐ°Ð´ÑĥÑİÑģÑĮ": 7560,
      "ÐĺÐ½ÑĤÐµÑĢÐµÑģÐ½Ð°Ñı": 7561,
      "ÐĺÐ½ÑĤÐµÑĢÐµÑģÐ½ÑĥÑİ": 7562,
      "ĠÐ³ÑĢÐµÑĩÐºÐµ": 7563,
      "ĠÐ¶Ð¸Ð·Ð°": 7564,
      "ĠÐ¶Ð¸Ð·Ð½ÐµÐ½Ð½Ð¾": 7565,
      "ĠÐ·Ð°Ð½Ð¸Ð¼Ð°ÑİÑģÑĮ": 7566,
      "ĠÐ¿Ð¾ÑģÐ¼Ð¾ÑĤÑĢÐµÐ»": 7567,
      "ĠÐ¿Ð¾ÑģÐ¼Ð¾ÑĤÑĢÐ¸ÑĤ": 7568,
      "ĠÐ´Ð¸Ð°Ð±ÐµÑĤÐ°": 7569,
      "ĠÐ¸ÑģÐ¿Ð¾Ð»ÑĮÐ·ÑĥÑİÑīÐ¸Ð¹": 7570,
      "ÑıÐ´ÐºÐ°": 7571,
      "ĠÐ¿Ð¾ÑĢÑĨÐ¸Ñİ": 7572,
      "ĠÐ¿Ð¾ÑĢÑĥÐ³Ð°Ð»ÑģÑı": 7573,
      "ĠÐ¿Ð¾ÑĢÑıÐ´ÐºÐ°": 7574,
      "ĠÐ¿Ð¾Ð·Ð¸ÑĤÐ¸Ð²Ð½Ð¾Ðµ": 7575,
      "ĠÐ¿Ð¾Ð·Ð½Ð°ÑĤÑĮ": 7576,
      "ĠÐ¿Ð¾Ð·Ð°Ð½Ð¸Ð¼": 7577,
      "ĠÑģÐ¾Ð±ÑĢÐ°Ð»": 7578,
      "ĠÑģÐ¾Ð±Ð°ÐºÐ°": 7579,
      "ĠÑģÐ¾Ð±ÑĭÑĤÐ¸Ð¹": 7580,
      "ÐµÐ½ÐµÑĢÐ°ÑĤÐ¸Ð²Ð½ÑĭÐµ": 7581,
      "ĠÐ´Ð¾Ð¼Ð¾Ð¼": 7582,
      "ĠÐ´Ð¾Ð¼Ð¾Ð¹": 7583,
      "ĠÐ±Ð»Ð¾ÐºÐ°Ð¼Ð¸": 7584,
      "ĠÐ±Ð»ÐµÑģÑĤÑıÑĤ": 7585,
      "Ð¡ÑĤÐ°Ð²Ð¸ÑĤÑĮ": 7586,
      "Ð¡ÑĤÑĢÐ¾Ð¸ÑĤÐµÐ»ÑĮ": 7587,
      "Ð¡ÑĤÑĢÐ°Ñħ": 7588,
      "Ð°Ð½Ð¸ÑıÑħ": 7589,
      "Ð¾Ð¶Ð´Ð°Ð½Ð½ÑĭÐ¹": 7590,
      "ĠÐ½Ð°ÑĩÐ°Ð»": 7591,
      "ĠÐ½Ð°ÑĩÐ°Ð»Ð¾": 7592,
      "ĠÐ½Ð°ÑĩÐ¸Ð½Ð°Ð»": 7593,
      "ĠÐ½Ð°ÑĩÐ¸Ð½Ð°ÑİÑĤ": 7594,
      "ĠÑħÐ¾ÑĤÐµÐ»Ð°": 7595,
      "ĠÐ¿ÑıÑĤÐ½Ð¸ÑĨÐ°": 7596,
      "ĠÐ¿ÑıÑĤÐ½Ð¸ÑĨÐµ": 7597,
      "ĠÐ¿ÑıÑĤÐ½Ð¸ÑĨÑĥ": 7598,
      "ĠÐ²ÐµÑģÐ°": 7599,
      "ĠÐ²ÐµÑģÐ½Ð°": 7600,
      "ĠÐ²ÐµÑģÐµÐ»ÐµÐµ": 7601,
      "ĠÐ²ÐµÑģÑĳÐ»Ð°Ñı": 7602,
      "ĠÑģÐ¾ÑģÑĥÐ´Ðµ": 7603,
      "ĠÑģÑĥÐ¿ÐµÑĢÐ³ÐµÑĢÐ¾": 7604,
      "ÐŁÐ¾Ð»Ð³Ð¾Ð´Ð°": 7605,
      "ÐŁÐ¾Ð»ÑĥÑĩÐ°ÐµÑĤÑģÑı": 7606,
      "ÐŁÐ¾Ð»Ð¾ÑģÐºÐ°Ð½Ð¸Ñı": 7607,
      "ĠÑĢÐµÐ°Ð»ÑĮÐ½ÑĭÐµ": 7608,
      "ĠÑĢÐµÐ°Ð±Ð¸Ð»Ð¸ÑĤÐ°ÑĨÐ¸Ñı": 7609,
      "ÐľÐ¾Ð»Ð¾Ð´Ð°Ñı": 7610,
      "ĠÐ¿Ð¾Ð´ÑģÐºÐ°Ð·Ð°ÑĤÑĮ": 7611,
      "ĠÐ½Ð°Ð´ÑĳÐ¶Ð½Ð°Ñı": 7612,
      "ĠÐĳÐ°ÑĢÑģÑĭ": 7613,
      "ÐķÐ¼Ñĥ": 7614,
      "ÐķÐ§ÐĲ": 7615,
      "ÐķÐĹÐĶÐļÐĲ": 7616,
      "ĠDuty": 7617,
      "ĠÐĲÐŁÐĽ": 7618,
      "ĠÐĲÐ¼ÑģÑĤÐµÑĢ": 7619,
      "ĠÐ½ÐµÐ¿ÑĢÐ¾ÑģÑĤ": 7620,
      "ĠÐ½ÐµÐ¿ÑĢÐ¸Ð²ÑĭÑĩÐ½Ð¾": 7621,
      "ÑĢÐ°Ð²Ð»ÑıÑİÑģÑĮ": 7622,
      "ÐĳÑĭÑĤÑĮ": 7623,
      "ÐĳÑĭÐ»Ð¸": 7624,
      "ÐĳÑĭÐ»Ð¾": 7625,
      "ĠÑģÐµÑĢÐ¸Ð°Ð»Ñĭ": 7626,
      "ĠBook": 7627,
      "ĠBat": 7628,
      "ĠBurger": 7629,
      "ĠÐĵÑĢÐµÑĨÐ¸Ð¸": 7630,
      "ĠÐ¿ÑĥÑĤÐ°ÑİÑģÑĮ": 7631,
      "ĠÐºÑĥÑĢÐµÐ½Ð¸Ðµ": 7632,
      "ÐŁÐ¾Ð½ÑıÑĤÑĮ": 7633,
      "ÐŁÐ¾Ð½ÑĢÐ°Ð²Ð¸ÑĤÑģÑı": 7634,
      "Ð·Ð°Ð»Ðµ": 7635,
      "ĠÐ±Ð¾Ð»ÐµÐ·Ð½Ð¸": 7636,
      "ĠÐ±Ð¾Ð»ÐµÐ·Ð½ÑıÐ¼": 7637,
      "ĠÑģÐ»ÑĥÑĪÐ°Ñı": 7638,
      "ĠÐ´Ð¾Ð±Ð°Ð²Ð¸Ð¼": 7639,
      "ĠÐ¾ÑģÑĤÑĢÐ¾Ð²": 7640,
      "ĠÐ¾ÑģÑĤÑĢÐ¾Ðµ": 7641,
      "ĠÐ¾ÑģÑĤÐ°Ð²Ð°ÑĤÑĮÑģÑı": 7642,
      "ĠÐ¾ÑģÑĤÐ°Ð»ÑĮÐ½Ð¾Ðµ": 7643,
      "ĠÐ¾ÑģÑĤÑĢÑĭÑħ": 7644,
      "ĠÐ¾ÑģÑĤÐ¾ÑĢÐ¾Ð¶Ð½Ð¾": 7645,
      "ĠÐ¾ÑģÑĤÐ°Ð²Ð¸Ð»": 7646,
      "ĠÐ¾ÑģÐ²Ð¾Ð±": 7647,
      "ĠÐ¾ÑģÐ¾Ð·Ð½Ð°Ð½": 7648,
      "ĠÐ¾ÑģÐ²Ð¾ÐµÐ½Ð¸Ðµ": 7649,
      "ÑĤÐ²ÐµÐ½Ð¸Ðµ": 7650,
      "ÑĢÑĭÐ»ÑģÑı": 7651,
      "ÑģÐ»Ð¾Ð²Ð½Ð¾": 7652,
      "ÑģÐ»Ð°Ð´ÐºÐ°Ñı": 7653,
      "ÑĢÐ°Ð·Ð½Ð¾Ð³Ð¾": 7654,
      "ÐĹÐ°Ð¿Ð¸ÑģÑĮ": 7655,
      "ÐĹÐ°Ð¿Ð¸ÑģÑĭÐ²Ð°ÑĤÑĮ": 7656,
      "ÐĹÐ°Ð¿ÑĥÑĤÐ°Ð½Ð½ÑĭÐ¹": 7657,
      "ĠÐ¿ÑĢÐµÑģÑĤÐ¸Ð¶Ð½ÑĭÐµ": 7658,
      "ĠHof": 7659,
      "ĠHTML": 7660,
      "ÐŁÐ¾ÑĤÐ¾Ð¼": 7661,
      "ĠÐ¸Ð½ÑĤÐµÑĢÐµÑģÐ°": 7662,
      "ĠÐ¸Ð½ÑĤÐµÑĢÐµÑģÐ½ÑĭÐµ": 7663,
      "ĠÐ¸Ð½ÑĤÐµÑĢÐµÑģÐ½ÑĥÑİ": 7664,
      "ĠÐ¼ÑĭÑģÐ»Ð¸": 7665,
      "ĠÐ¼ÑĭÑģÐ»Ñı": 7666,
      "ĠÐ¼Ð°Ð»Ð¾Ð³Ð¾": 7667,
      "ĠÑĩÐ°ÑģÑĤÑĮÑİ": 7668,
      "ÐµÑģÑĤÐ²Ð°Ð¼": 7669,
      "ÐµÑģÑĤÐ²ÐµÐ½Ð½Ð¾": 7670,
      "ÐµÑģÑĤÐ²ÐµÐ½Ð½Ð°Ñı": 7671,
      "ĠÑģÑĤÐ°ÑĤÑĮÑİ": 7672,
      "Ð£ÑĩÐ¸ÑĤÑĮ": 7673,
      "Ð£ÑĩÑĳÐ±": 7674,
      "ĠÐ¶Ð¸Ð²ÑĥÑĤ": 7675,
      "ĠÐ¿Ð¾Ð»ÑĥÑĩÐ°ÑĤÑĮ": 7676,
      "ĠÐ¿Ð¾Ð»ÑĥÑĩÐ°ÐµÑĪÑĮ": 7677,
      "ĠÐ¿Ð¾Ð»ÑĥÑĩÐ°ÐµÑĤÑģÑı": 7678,
      "ÐŀÑĤÐ»Ð¸ÑĩÐ½ÑĭÐµ": 7679,
      "Ð¸ÑĩÐµÑģÐºÐ¸": 7680,
      "Ð¸ÑĩÐµÑģÐºÐ¸Ð¼": 7681,
      "ÐµÐºÑĤÐ¸Ð²Ð½Ð¾": 7682,
      "ĠÐ²ÑģÑĤÑĢÐµÑĤÐ¸Ð»ÑģÑı": 7683,
      "ĠÐ¾ÑĦÐ¾ÑĢÐ¼Ð»ÑıÑİ": 7684,
      "ĠÐ¿ÑĥÐ½ÐºÑĤÑĥ": 7685,
      "Ð½Ð¾Ð²Ð»ÑıÑİ": 7686,
      "ĠÑģÐµÐ¼ÐµÐ½Ð°": 7687,
      "ÐŁÐ¾Ð¼Ð¾Ð³Ð°Ñı": 7688,
      "Ð¾Ð¼Ð°ÑĤÐ¸ÑĩÐµÑģÐºÐ¸Ðµ": 7689,
      "Ð¾Ð¼Ð°ÑĤÐ¸ÑĩÐµÑģÐºÐ¸": 7690,
      "Ð¡Ð¼Ð¾ÑĤÑĢÐ¸Ð¼": 7691,
      "Ð¡Ð¼Ð¾ÑĤÑĢÐµÑĤÑĮ": 7692,
      "Ð¡ÑĢÐµÐ´Ð½Ðµ": 7693,
      "Ð¡ÑĢÐµÐ´Ð½Ð¸Ð¹": 7694,
      "ĠÐ·Ð°Ð´ÑĢÐ¾ÑĤ": 7695,
      "ĠÐ·Ð°Ð´ÐµÑĢÐ¶Ð°Ð»Ð°": 7696,
      "ĠÑģÑĤÑĢÐ°Ð´Ð°Ð»": 7697,
      "ĠÑģÑĤÑĢÐ°Ð´Ð°ÑİÑĤ": 7698,
      "ĠÑģÑĤÑĢÐ°Ð´Ð°Ð½Ð¸Ðµ": 7699,
      "ÐłÐ°Ð±Ð¾ÑĤÐ°Ð»": 7700,
      "ÐłÐ°Ð±Ð¾ÑĤÐ°ÐµÑĪÑĮ": 7701,
      "ÐłÐ°Ð±Ð¾ÑĤÐ°ÐµÐ¼": 7702,
      "ĠÑģÐ²ÑıÐ·ÐµÐ¹": 7703,
      "ĠÑģÐ²ÑıÐ·ÑĭÐ²Ð°ÐµÑĤ": 7704,
      "ĠÑģÐ²ÑıÐ·Ð°Ð½Ð½ÑĭÑħ": 7705,
      "ĠÑģÐ²ÑıÐ·Ð°Ð½Ð½Ð¾Ðµ": 7706,
      "ÐĿÐ°Ð´ÑĳÐ¶Ð½ÐµÐµ": 7707,
      "ĠÐľÐ¸Ð»Ð°Ð½Ñĥ": 7708,
      "ane": 7709,
      "ans": 7710,
      "ant": 7711,
      "ĠÐ°ÑĢÐµÐ½Ð´Ñĥ": 7712,
      "ĠÐ°ÑĢÐ¼Ð¸Ð¸": 7713,
      "ĠÐ°ÑĢÑĤÐµÑĢÐ¸Ð°Ð»ÑĮ": 7714,
      "ÑĢÐ¾Ð½Ð¸ÑĢÑĥÐ¹": 7715,
      "Ð½ÐµÐ²Ð½ÑĭÑħ": 7716,
      "Ð½ÐµÐ²ÑĢÐ¾Ð»Ð¾Ð³Ð°": 7717,
      "Ð½ÐµÐ²ÑĢÐ¾Ð»Ð¾Ð³": 7718,
      "ĠÐ¿Ð¾Ð²ÑģÐµÐ´": 7719,
      "ĠÐ¿Ð¾Ð²ÑĭÑģÐ¸ÑĤÑĮ": 7720,
      "ĠÐ¿Ð¾Ð²ÑıÐ·ÐºÑĥ": 7721,
      "ĠÐ´Ð¾ÐºÑĥÐ¼ÐµÐ½ÑĤÑĭ": 7722,
      "ĠÐ´Ð¾ÐºÑĥÐ¼ÐµÐ½ÑĤÐ°Ð»ÑĮÐ½ÑĭÐ¹": 7723,
      "ĠÑĤÑĢÐµÐ½ÐµÑĢ": 7724,
[...]
